the 50026
of 36052
and 23560
to 22498
in 21876
is 17870
a 16403
be 12369
for 10260
with 9500
or 8903
not 8478
that 8392
are 7639
The 7377
on 6146
as 5704
it 5313
have 5223
you 4866
should 4702
this 4371
by 4335
has 4183
been 3872
at 3756
an 3625
was 3567
- 3536
(@@ 3480
will 3443
patients 3335
from 3198
which 3080
If 3027
use 2978
may 2827
your 2801
, 2463
were 2416
can 2370
. 2212
A 2201
if 2177
other 2138
must 2073
any 2027
-@@ 1955
In 1949
these 1933
there 1930
one 1920
also 1917
than 1911
more 1901
used 1802
no 1800
they 1793
It 1753
all 1752
What 1752
European 1715
treatment 1696
ing 1630
but 1542
only 1520
who 1519
1 1517
mg 1514
dose 1488
• 1476
You 1474
their 1400
in@@ 1389
such 1386
after 1347
'@@ 1323
ed 1289
) 1281
its 1281
do 1276
into 1266
s 1263
when 1255
s, 1249
For 1237
re@@ 1230
es 1216
I 1213
would 1199
S@@ 1179
s. 1172
risk 1155
? 1140
1/ 1095
blood 1075
un@@ 1057
take 1048
P@@ 1035
people 1029
EU/ 1027
during 1021
up 1000
There 999
However, 998
2 993
effects 980
about 978
: 976
3 974
very 974
s@@ 970
injection 965
/ 957
time 955
section 954
we 945
doctor 942
out 940
C@@ 939
(see 927
information 924
new 923
B@@ 919
number 918
two 915
what 908
A@@ 902
E@@ 899
– 898
ation 893
report 883
those 878
L@@ 873
Commission 870
being 867
product 861
This 860
F@@ 857
e. 855
had 852
given 852
T@@ 849
active 845
D@@ 840
does 836
es, 835
b@@ 835
first 832
before 831
clinical 827
). 822
e@@ 821
es. 816
tablets 814
medicinal 812
M@@ 806
over 804
10 804
some 803
products 803
G@@ 803
e, 799
human 795
N@@ 793
), 792
need 791
t@@ 787
ed. 786
er 785
between 777
taken 775
IS 764
system 763
t 761
increase 755
same 752
ate 750
treated 745
without 741
5 738
g@@ 736
y 734
so 732
where 730
then 726
solution 718
WHAT 718
recommended 717
increased 717
al@@ 714
e 713
i@@ 713
Do 708
children 697
could 696
H@@ 694
insulin 694
o 691
c@@ 690
per 690
ml 690
o@@ 689
ed, 687
Why 686
R@@ 685
n@@ 683
cannot 681
on@@ 679
4 678
; 675
6 675
an@@ 674
years 672
following 668
less 666
FOR 663
because 661
p@@ 659
2@@ 654
k@@ 654
We 651
K@@ 650
able 648
taking 648
side 644
most 644
study 642
three 641
studies 638
One 638
When 637
y@@ 634
Member 629
m@@ 627
under 626
d@@ 624
ar@@ 624
4@@ 619
made 619
5@@ 615
them 613
All 611
at@@ 610
en@@ 610
even 610
Oral 609
important 604
case 599
er@@ 596
V@@ 587
ing, 586
EU 582
a@@ 582
available 582
7 580
y, 580
including 575
against 573
example, 571
de@@ 570
is@@ 570
age 568
as@@ 567
ing. 567
3@@ 566
using 565
both 562
Europe 562
O@@ 560
al 560
h@@ 559
ated 557
least 555
data 555
administration 554
Union 553
women 548
f@@ 548
ers 548
Patients 547
ation, 546
w@@ 542
l@@ 541
ation. 540
many 535
therapy 535
renal 535
st@@ 533
reported 532
y. 531
order 531
therefore 529
's 529
severe 526
50 519
am@@ 518
' 518
! 517
100 515
day 515
see 514
8 511
us 510
a, 510
health 509
within 508
06/ 508
it@@ 506
1@@ 503
safety 502
further 501
possible 497
30 497
well 496
work 496
how 495
known 494
rate 494
7@@ 491
AND 491
skin 489
administered 488
last 487
6@@ 487
oral 486
di@@ 486
I@@ 484
0@@ 482
combination 481
u@@ 477
adverse 476
symptoms 475
No 475
i 475
effect 474
every 472
through 471
disease 470
el@@ 468
ations 464
t, 463
reactions 462
make 460
ic@@ 458
way 457
weeks 457
much 457
patient 455
ic 454
levels 453
level 452
op@@ 451
type 451
medicines 449
ac@@ 448
x 448
contains 447
8@@ 446
high 444
just 440
ti@@ 440
result 440
cause 439
cases 438
mg/ 438
or@@ 438
+ 436
associated 435
il@@ 433
us@@ 432
too 432
like 432
9@@ 431
ine 431
es@@ 431
whether 430
however, 428
once 427
ab@@ 426
r@@ 425
hepatic 425
le@@ 424
days 424
ts 422
considered 420
v@@ 419
be@@ 419
pro@@ 419
each 416
z@@ 416
co@@ 414
due 414
As 411
im@@ 411
se@@ 409
daily 408
IT 408
/@@ 407
substance 407
12 406
20 405
9 404
Tel: 401
States 401
times 399
tell 399
he 399
ch@@ 398
measures 398
water 398
ag@@ 396
ly 395
body 395
long 394
lo@@ 393
period 392
compared 391
k 391
end 390
red 390
ted 388
results 385
single 385
ro@@ 385
U@@ 385
necessary 383
change 382
ri@@ 381
W@@ 380
ol@@ 378
development 376
m 376
15 375
ad@@ 375
infusion 375
certain 374
specific 374
market 374
li@@ 373
months 372
me@@ 371
non-@@ 371
000 371
dis@@ 369
did 368
oc@@ 367
ating 365
C 363
pre@@ 362
ent 362
million 362
USED 362
doses 361
part 361
t. 361
ensure 361
get 360
different 360
ia 359
conditions 359
l 359
a. 358
response 358
os@@ 358
serious 357
food 357
no@@ 357
observed 355
reduced 355
events 354
year 354
total 353
s? 353
it. 352
‘@@ 350
ting 349
problems 349
25 349
containing 347
om@@ 347
Mr 345
reduction 344
set 343
medicine 343
40 343
based 343
already 342
site 341
g 341
er, 339
id@@ 337
place 337
week 337
care 336
liver 336
< 336
means 336
th@@ 335
20@@ 333
OF 330
Z@@ 329
treat 328
experience 328
until 327
d 327
put 327
become 327
working 327
another 326
group 326
hours 326
ex@@ 325
control 325
en 324
few 324
To 323
S 322
impairment 322
four 322
le 321
animals 321
j@@ 320
child 320
al, 320
ap@@ 320
ent@@ 320
small 320
tion 320
de 318
et@@ 317
.@@ 317
patients. 317
An 315
United 314
white 313
vial 313
medical 312
low 312
main 312
while 312
either 312
provided 312
good 309
Council 308
> 307
over@@ 306
reduce 305
ec@@ 305
disorders 305
point 304
ul@@ 304
virus 303
country 303
substances 302
24 301
done 301
know 301
receiving 300
19@@ 300
ant 299
d, 299
shown 298
please 298
er. 298
sp@@ 298
J@@ 298
Your 298
Marketing 298
potential 297
ates 296
D 294
In@@ 294
ut@@ 294
our 294
B 293
received 293
ur@@ 293
% 292
needs 292
Medicines 291
ability 290
down 290
population 289
infection 289
form 288
14 288
Treatment 287
tion. 287
par@@ 287
needle 287
right 287
greater 285
ed@@ 285
0.@@ 284
ir@@ 284
treatment. 283
clear 282
g. 280
still 280
give 279
p 279
impact 279
start 278
significant 278
em@@ 278
area 274
ter@@ 273
s: 273
changes 272
support 272
ous 272
he@@ 271
syringe 271
higher 270
Use 270
particularly 270
growth 269
second 269
d. 269
come 269
Al@@ 268
vaccine 267
notice 267
plasma 267
lead 267
approximately 266
Therefore, 266
pain 266
ally 265
60 265
required 265
ine, 264
cells 264
often 264
Con@@ 264
ia, 263
per@@ 263
activity 263
THE 263
now 263
go 263
appropriate 262
s) 262
tr@@ 262
since 262
lower 261
effective 261
But 261
related 260
al. 260
benefit 260
expected 259
production 259
con@@ 259
pl@@ 259
called 258
example 258
T 258
ra@@ 257
prevent 257
ing@@ 257
via 256
pre-filled 256
individual 255
major 255
ar 255
waste 255
e? 255
might 254
tic@@ 253
Human 253
contact 252
similar 252
efficacy 252
L 252
found 252
immediately 251
special 251
seen 250
ask 250
mean 250
amount 250
tions 250
’s 250
carried 250
sugar 249
um@@ 249
included 249
studied 249
help 249
stop 248
around 248
better 248
young 248
n 247
allergic 247
eye 247
breast 247
E 246
quality 246
back 246
pharmacist. 245
large 245
Y@@ 244
Please 244
‘ 243
10@@ 243
te@@ 243
public 243
caused 242
'. 242
tion, 242
 @@ 242
local 241
always 241
current 240
sodium 240
use. 239
tic 239
ingredients 239
ha@@ 237
listed 236
common 236
countries 236
ne@@ 235
UK 235
continue 235
14@@ 234
exposure 234
ph@@ 234
terms 234
read 234
15@@ 233
five 232
own 232
animal 232
ers, 232
allow 232
ant@@ 231
cell 231
si@@ 231
ter 231
Re@@ 231
According 231
18 230
ity 230
h 230
monitoring 229
especially 229
Report 229
next 228
2. 228
200@@ 227
end@@ 227
leaflet 226
11 226
function 226
particular 226
in, 226
cancer 226
prior 225
present 225
e-@@ 225
time. 224
ou@@ 224
signs 223
x@@ 223
ml) 223
and, 223
acid 222
weight 222
qu@@ 222
EMEA 221
life 221
longer 221
ers. 221
"@@ 220
yet 220
sh@@ 219
ov@@ 219
protein 219
years. 219
marketing 219
state 219
vi@@ 219
Annex 219
Not 219
national 218
(e. 217
management 217
ver@@ 217
authorisation 217
hepatitis 216
ot@@ 216
chronic 215
areas 215
to@@ 215
mis@@ 215
Any 215
pe@@ 214
300 214
Committee 214
heart 213
receive 213
b 212
%. 212
inter@@ 212
Agency 212
and/ 211
od@@ 211
tive 211
ren@@ 210
measure 210
drug 209
anc@@ 209
pressure 209
out@@ 209
scientific 209
powder 209
ment 208
package 208
They 208
far 208
third 207
them. 207
additional 206
pa@@ 206
off 206
Only 206
rec@@ 205
loss 205
Pro@@ 205
protection 205
line 204
for@@ 204
c 204
healthy 204
controlled 204
factor 204
veterinary 204
having 204
procedure 204
led 204
00 203
effectiveness 203
affect 203
day. 203
causes 203
P 203
provide 203
tablet 203
his 203
reports 202
anti-@@ 202
trials 202
21 202
ly, 202
po@@ 202
ations. 202
ence 202
include 201
ance 201
long-term 201
average 201
2.@@ 200
17@@ 200
13@@ 200
pain, 200
These 200
(A4-0@@ 200
account 199
ill@@ 199
recent 199
16@@ 199
limited 199
R 198
reaction 197
man@@ 197
up@@ 197
ma@@ 197
Authorisation 197
responsible 197
in. 196
decision 196
king 196
ati@@ 196
want 196
70 195
maximum 195
occur 195
infection, 195
according 195
whole 195
placebo 194
et 194
immune 194
80 194
ations, 193
est 193
bi@@ 193
list 193
ation@@ 192
think 192
men 191
la@@ 191
sub@@ 191
pen 191
diseases 191
dosage 190
is, 190
1.@@ 189
ari@@ 189
gets 189
str@@ 189
on. 189
yl@@ 188
general 188
4.@@ 188
usually 188
currently 188
process 188
Where 187
se 187
199@@ 187
time, 187
it, 187
question 187
am 186
ated. 186
ies 186
full 186
dec@@ 186
ans 186
su@@ 185
six 185
com@@ 185
Kingdom 185
16 184
access 184
= 184
als 184
moderate 184
az@@ 184
research 184
disposed 184
(P@@ 183
car@@ 183
du@@ 183
min@@ 183
difficult 183
avoid 183
cl@@ 182
ine@@ 182
situation 182
es? 182
00/ 181
suspension 181
produced 181
Ar@@ 181
recommended. 181
At 180
so@@ 180
► 180
ten 180
(A5-0@@ 180
act 179
normal 179
[@@ 179
damage 179
absorption 179
So 179
basis 179
date 178
18@@ 178
best 178
ob@@ 178
pack 178
fact 178
serum 177
ate, 177
An@@ 177
* 177
indicated 177
bone 176
13 176
fin@@ 176
ca@@ 176
assessment 176
tion@@ 176
28@@ 175
og@@ 175
200 175
little 175
ell@@ 174
RE@@ 174
experienced 174
decrease 174
adult 174
standard 174
tests 174
below 173
hyper@@ 173
Th@@ 173
infected 173
1, 172
af@@ 172
e: 172
Par@@ 172
enough 172
é@@ 172
s). 171
course 171
significantly 171
year. 171
tri@@ 171
fe@@ 171
term 171
How 171
(C@@ 171
MEDICINAL 171
France 171
IN@@ 170
anti@@ 170
pregnancy 170
show 170
never 170
bleeding 169
3% 169
old 169
4.4). 169
28 169
ty 169
risks 169
allowed 168
3, 168
fl@@ 168
limit 168
s; 168
ings 168
12@@ 167
adults 167
75 167
rare 167
concentrations 167
kg 167
rates 167
groups 167
ase 167
%, 166
patients, 166
release 166
ity. 166
achieved 166
proposed 166
ted. 165
(A@@ 165
iv@@ 165
w 165
bo@@ 165
ate. 165
likely 165
aid 165
instructions 164
above 164
able. 164
M 164
evidence 164
ep@@ 164
IU 164
mixed 164
ial 164
subject 164
half 164
acute 163
test 163
ib@@ 163
ative 163
ang@@ 163
ru@@ 163
ary 163
established 163
el 163
objective 163
among 162
ol 162
injection. 162
ach@@ 162
great 162
transport 162
if@@ 162
recently 162
ure@@ 161
ent. 161
-2@@ 161
mon@@ 161
der@@ 161
ist 161
continued 160
my 160
ity, 160
position 160
clearly 160
YOU 160
e) 159
Ex@@ 159
several 159
OR 159
ised 159
alcohol 159
rules 159
developing 158
needed 158
ast@@ 158
r 158
um 158
cartridges 158
35@@ 157
month 157
baseline 157
regard 157
subjects 157
cor@@ 157
issues 157
obtained 157
and@@ 156
adjustment 156
concentration 156
duration 156
antibodies 156
key 156
activities 156
ds 155
estimated 155
≥ 155
serious, 155
values 155
5% 155
30@@ 155
2.5 155
respiratory 155
ying 155
ide 155
ally, 155
on, 155
left 154
years, 154
London 154
decreased 154
overall 154
ass@@ 154
therapeutic 154
ten@@ 154
all@@ 154
develop 153
remain 153
action 153
various 153
ak@@ 153
s' 153
th 152
monitored 152
diabetes 152
X@@ 152
ide@@ 152
inhibitors 152
lack 152
itself 152
BEFORE 152
caution 151
56 151
leaflet, 150
failure 150
event 150
6.@@ 150
excreted 150
carefully 150
an, 150
36@@ 149
N 149
ER@@ 149
analysis 149
increases 149
applied 149
solvent 149
re-@@ 148
factors 148
5-@@ 148
ins 148
infections 148
negative 148
Detailed 148
milk 148
vials 148
gen@@ 148
Another 148
48 147
25@@ 147
again 147
” 147
produce 147
free 147
gl@@ 147
increasing 147
age. 147
z 147
comes 147
17 146
alone 146
together 146
demonstrated 146
pharmacokinetics 146
rather 146
influence 146
Medicinal 145
types 145
developed 145
syndrome 145
involved 145
one. 145
disease. 145
energy 145
used. 144
vis@@ 144
37@@ 144
50@@ 144
agents 144
primary 144
breast-feeding 144
whose 144
twice 143
22 143
paediatric 143
appears 143
ants 143
light 143
ent, 143
vaccination 142
concomitant 142
fully 142
incidence 142
ine. 142
adequate 142
affected 142
milk. 142
av@@ 142
ed? 142
EN@@ 141
ste@@ 141
points 141
makes 141
emea. 141
work@@ 141
Liprolog 141
product, 141
’ 141
ve@@ 140
0 140
ribavirin 140
cr@@ 140
cap 140
say 140
ks 140
ke 140
ritonavir 139
pharmacokinetic 139
sometimes 139
3.@@ 139
interferon 139
material 139
enzyme 139
resulting 139
regulation 139
500 138
400 138
early 138
age, 138
addition 138
hard 138
Report: 138
us, 137
complete 137
Many 137
Tel. 137
subcutaneous 137
“ 137
les 137
names 137
designed 137
General 137
film-coated 137
State 137
Euro@@ 137
gastrointestinal 136
2, 136
http: 136
Ch@@ 136
ted, 136
region 136
Winthrop 136
not, 136
Dr 135
accordance 135
mo@@ 135
completely 135
ance. 135
ce@@ 135
tions, 135
man 135
Holder 135
progress 135
needles 135
On 135
sure 134
O 134
months. 134
AL@@ 134
showed 134
il 134
appear 134
ness 134
Un@@ 134
you. 134
Eesti 134
mentioned 134
/2001) 134
close 133
ia. 133
evaluation 133
trans@@ 133
%) 133
positive 133
ev@@ 133
es) 133
St@@ 133
ig@@ 133
ents 133
ts, 133
therapy. 132
mild 132
2000 132
(a 132
mat@@ 132
atic 132
form@@ 132
products. 132
ch 132
war@@ 132
ud@@ 132
den@@ 132
approved 132
re, 132
again. 132
Teva 132
initial 131
27@@ 131
vitro 131
ion@@ 131
assessed 131
authorities 131
Once 131
ts. 131
final 131
tre@@ 130
lat@@ 130
fall 130
relevant 130
rel@@ 130
/www. 130
problem 130
tor@@ 130
evaluated 130
Is 130
international 130
07/ 130
going 130
iti@@ 129
2% 129
clearance 129
are@@ 129
fi@@ 129
request 129
wor@@ 129
AUTHORISATION 129
Co@@ 129
held 129
Spain 129
concerned 129
countries. 129
res@@ 128
method 128
visual 128
air 128
particles 128
6, 128
directly 128
described 128
" 128
poly@@ 128
Mrs 128
Germany 128
CHMP 128
out. 128
that, 128
doctor. 127
29@@ 127
study, 127
ated, 127
itis, 127
pr@@ 127
ho@@ 127
improvement 127
prescribed 127
glucose 127
remains 127
history 127
sed 127
(A5-00@@ 127
0.5 126
proportion 126
viral 126
intended 126
ise 126
pre-@@ 126
Safety 126
From 126
household 126
starting 126
150 126
labelling 126
368/ 126
apply 125
red. 125
application 125
reached 125
Name 125
ages 125
whom 125
volume 125
col@@ 125
cre@@ 125
shows 125
sk@@ 125
land@@ 125
protect 125
est@@ 125
minutes 124
/97) 124
require 124
clinically 124
35 124
medicine. 124
drugs 124
addition, 124
therefore, 124
Comb 124
person 124
intravenous 123
air@@ 123
Products 123
systemic 123
adolescents 123
es: 123
Ac@@ 123
ta@@ 123
tract 123
198@@ 123
is. 123
IC@@ 123
storage 123
ment. 123
previous 122
inject 122
way. 122
multiple 122
’. 122
1-@@ 122
le, 122
600 122
ence, 122
USE 122
Mr @@ 122
sec@@ 121
s), 121
follow-up 121
performed 121
natural 121
(EMEA) 121
europa. 121
value 121
Internet 121
enc@@ 121
questions 121
)@@ 120
inf@@ 120
AUC 120
dry 120
Parliament 120
/98) 120
days. 119
res 119
occurred 119
Canary 119
ters 119
Com@@ 119
staff 119
IU/ 119
immediately. 119
ement 119
we@@ 119
website 119
Ireland 119
reconstituted 119
role 119
waste. 119
said 119
HIV 118
presence 118
+@@ 118
short 118
extent 118
sha@@ 118
available. 118
ical 118
throughout 118
Information 118
look 118
Hypersensitivity 118
them, 118
cases, 117
necessary. 117
hours. 117
range 117
Westferry 117
field 117
followed 117
feline 117
day, 117
sion 117
Very 117
placed 117
ci@@ 117
wa@@ 117
proposals 117
á@@ 117
/0@@ 117
AD@@ 116
45 116
G 116
5.@@ 116
treatment, 116
one, 116
ist@@ 116
criteria 116
uc@@ 116
S. 116
under@@ 116
En@@ 116
author@@ 116
IF 116
costs 116
): 116
product. 116
contain 116
en, 116
le. 116
& 116
pen@@ 116
generally 115
dose. 115
o, 115
E14 115
pregnant 115
ded 115
4, 115
off@@ 115
23 115
University 115
pharmacist 115
ments 115
act@@ 115
market. 115
Mar@@ 115
Summary 115
gr@@ 115
aware 115
', 115
y? 115
2-@@ 114
te 114
stat@@ 114
sc@@ 114
inflammation 114
suffering 114
prevention 114
alfa-2b 114
reason 114
5, 114
ling 114
possibility 114
ve 114
gu@@ 114
lin@@ 114
system. 114
measured 113
inhibitor 113
Circus, 113
level. 113
TE@@ 113
ion 113
forms 113
an. 113
antibiotics 113
RI@@ 113
Ad@@ 113
red, 113
CO@@ 113
service 113
AR@@ 113
past 113
sa@@ 113
ities 113
Insuman 113
au@@ 113
Insulin 113
training 112
oper@@ 112
(S@@ 112
Wharf, 112
AC@@ 112
34@@ 112
ence. 112
o-@@ 112
she 112
death 112
Take 112
self-@@ 112
Di@@ 112
ment@@ 112
food. 112
why 112
me 112
hi@@ 111
hormone 111
Such 111
4HB, 111
ment, 111
bottle 111
ox@@ 111
ran@@ 111
vitamin 111
direct 111
the@@ 111
impairment. 111
her 111
carry 110
drive 110
plus 110
ratio 110
Its 110
65 110
equal 110
der 110
muscle 110
mal@@ 110
projects 110
potassium 110
essential 110
elec@@ 110
32 109
keep 109
resistance 109
frequency 109
post@@ 109
survival 109
surface 109
na@@ 109
F 109
usual 109
cloudy 109
improve 109
3. 109
technical 109
Product 109
preparation 109
differences 109
Le@@ 109
u 109
Renal 109
rise 108
land 108
39@@ 108
26 108
y-@@ 108
identified 108
aged 108
mechanism 108
introduced 108
ently 108
something 108
studies, 107
label 107
difficulty 107
testing 107
f 107
id 107
se. 107
(E@@ 107
hypersensitivity 107
peripheral 107
dem@@ 107
upper 107
Let 107
SPECIAL 107
ology 107
reasons 107
view 107
others 107
That 107
1) 106
discontinued 106
products, 106
26@@ 106
10% 106
1% 106
ism 106
capsules 106
AN@@ 106
as, 106
bul@@ 106
Netherlands 106
attention 106
ris@@ 106
No@@ 106
target 105
III 105
cat@@ 105
step 105
disease, 105
); 105
equivalent 105
stored 105
Pre@@ 105
oil 105
ever 105
ann@@ 105
find 105
7% 104
open 104
frequently 104
(for 104
EC@@ 104
tissue 104
administration. 104
presented 104
33 104
X 104
therapy, 104
updated 104
Section 104
unknown. 104
DISPOSAL 104
WASTE 104
action. 104
elderly 104
authorised 104
Three 104
benefits 104
/2000) 104
status 103
ful@@ 103
difference 103
measuring 103
AP@@ 103
ess@@ 103
her@@ 103
Humalog 103
thus 103
ge@@ 103
questions, 103
weeks. 102
(used 102
dosing 102
condition 102
defined 102
abnormal 102
%), 102
resistant 102
toxic 102
interaction 102
19 102
content 102
PRECAUTIONS 102
UNUSED 102
De@@ 102
DE@@ 102
reach 102
en. 102
systems 102
excessive 102
Even 102
hour 101
,@@ 101
itis 101
our@@ 101
ra 101
U 101
cal@@ 101
fied 101
pass 101
hal@@ 101
ding 101
hol@@ 100
talk 100
3-@@ 100
follow 100
sal@@ 100
ory 100
a-@@ 100
tions. 100
phase 100
38@@ 100
ip@@ 100
undergoing 100
cy@@ 100
regards 100
ys@@ 100
st 100
Mon@@ 100
Portugal 100
gi@@ 100
Limited 100
ant. 100
als, 100
k, 100
Of 100
t-@@ 99
C. 99
combined 99
feel 99
kin@@ 99
Ab@@ 99
ited 99
fold 99
Invented 99
ge 99
Qu@@ 99
submitted 99
monotherapy 99
... 99
feed 99
distribution 99
consider 99
ons 99
o. 99
work. 99
alternative 99
tiv@@ 98
started 98
maintenance 98
divided 98
medicines, 98
surgery 98
(1 98
40@@ 98
-f@@ 98
programme 98
ard@@ 98
contents 98
Because 98
ser@@ 98
proposal 98
go@@ 98
French 98
HOLDER 98
takes 98
crisis 98
political 98
can@@ 97
medicines. 97
3/ 97
or, 97
observed. 97
micrograms 97
ster@@ 97
determined 97
co-@@ 97
*@@ 97
giving 97
seek 97
Working 97
except 97
requirements 97
fil@@ 97
maintain 97
ban 97
closely 96
(including 96
Since 96
4% 96
Y 96
Based 96
pos@@ 96
ite 96
dr@@ 96
bro@@ 96
let 96
kind 96
Pharma 95
soft 95
consumption 95
overdose 95
rash 95
ically 95
isation 95
exposed 95
creatinine 95
ice 95
although 95
internal 95
children. 95
referred 95
suffer 95
read@@ 95
away 95
top 94
regular 94
biological 94
-1@@ 94
ator@@ 94
binding 94
phosphate 94
hands 94
existing 94
Ag@@ 94
hy@@ 94
tim@@ 94
do@@ 94
cop@@ 94
iz@@ 94
1000 94
flu@@ 94
solutions 94
Question 94
EUR 94
ing? 94
ance, 93
8, 93
minimum 93
mg) 93
clo@@ 93
MA@@ 93
ens 93
check 93
fat 93
my@@ 93
sign@@ 93
har@@ 93
Olanzapine 93
wastewater 93
involving 92
During 92
31 92
body. 92
dependent 92
infection. 92
sufficient 92
erg@@ 92
store 92
Im@@ 92
ality 92
impaired 92
inc@@ 92
recommendations 92
consideration 92
ter, 92
inv@@ 92
stage 92
States, 92
bl@@ 92
issue 92
circumstances 91
previously 91
toxicity 91
disorder, 91
central 91
4.5). 91
skin, 91
interest 91
dogs 91
conducted 91
Per@@ 91
ological 91
physical 91
concluded 91
PRODUCTS 91
dic@@ 91
continu@@ 91
New 91
os 91
ia@@ 91
cleansing 91
head@@ 91
es; 91
face 91
proper 91
H 90
determine 90
amine 90
ases 90
mainly 90
MP@@ 90
ances 90
growing 90
50% 90
ar, 90
re 90
ther@@ 90
Table 90
des@@ 90
urinary 90
Some 90
Uncommon 90
um. 90
ill 90
hypo@@ 90
27 90
AT@@ 90
90 90
technology 90
gener@@ 90
eg@@ 90
outside 90
SE@@ 89
immediate 89
sto@@ 89
ess 89
reducing 89
International 89
minor 89
able, 89
ors 89
uniformly 89
multi@@ 89
tis 89
advice 89
Dis@@ 89
diagnosis 89
del@@ 89
poor 89
96/ 89
k. 89
Article 89
social 89
swelling 88
sion, 88
tumour 88
aemia 88
sive 88
el, 88
sion@@ 88
withdrawal 88
injections 88
arg@@ 88
ally. 88
relating 88
ses 88
recombinant 88
name 88
objec@@ 88
here 88
sexual 88
Italy 88
quickly 88
fa@@ 88
legal 88
ation? 88
actually 88
(A4-00@@ 88
cover 87
A, 87
pulmonary 87
rapid 87
] 87
vo@@ 87
ty@@ 87
mit@@ 87
por@@ 87
kidney 87
arm@@ 87
slightly 87
initiated 87
36 87
w, 87
injected 87
yl 87
sur@@ 87
ef@@ 87
of@@ 87
operation 87
hom@@ 87
granted 87
sil@@ 87
document 87
particular, 87
Subject: 87
stri@@ 86
leading 86
balance 86
replacement 86
relevance 86
ni@@ 86
environment. 86
added 86
degree 86
int@@ 86
hor@@ 86
34 86
calcium 86
use, 86
VE@@ 86
ust@@ 86
tra@@ 86
ish@@ 86
return 86
deb@@ 86
V 85
acceptable 85
mental 85
secondary 85
8% 85
ton@@ 85
atory 85
é 85
possible, 85
VIII 85
70@@ 85
sections 85
ering 85
men@@ 85
Health 85
class 85
(M@@ 85
pharmaceutical 85
in-@@ 85
− 85
Sch@@ 85
Ro@@ 85
joint 85
capacity 85
decided 85
Then 85
plan 85
economic 85
Firstly, 85
24@@ 84
84 84
effects. 84
Other 84
RISPERDAL 84
re. 84
oedema 84
(the 84
ded. 84
nurse 84
upon 84
Q@@ 84
TA@@ 84
cas@@ 84
II 84
sing 84
,000 84
na 84
onset 84
pol@@ 84
alisation 84
patch 84
Ser@@ 84
making 84
bioavailability 84
L-@@ 84
business 84
ani@@ 84
da@@ 84
water. 84
warning 84
matter 84
39 83
olog@@ 83
placebo. 83
tional 83
equ@@ 83
fewer 83
tal@@ 83
ive 83
tu@@ 83
bu@@ 83
Val@@ 83
across 83
one@@ 83
ity@@ 83
org@@ 83
ear@@ 83
ency 83
contraindicated 83
industry 83
progressive 83
temperature 83
supervision 83
Se@@ 83
pens 83
ail@@ 83
address 83
regarding 83
í@@ 83
conf@@ 83
car 83
excipients. 83
igh@@ 83
simply 83
metabolites 82
CI@@ 82
oph@@ 82
cul@@ 82
arthritis 82
ane 82
ath@@ 82
break@@ 82
list@@ 82
vs 82
regul@@ 82
rest 82
actions 82
EU@@ 82
entire 82
someone 82
harm 82
cont@@ 82
holder 82
29 82
ising 82
gre@@ 82
INFORMATION 82
ry 82
Before 82
ate@@ 82
system, 82
Europe@@ 82
thing 82
Our 82
6% 81
ax@@ 81
species 81
versus 81
global 81
children, 81
I. 81
doctor, 81
osis 81
day@@ 81
confirmed 81
ub@@ 81
micro@@ 81
assistance 81
rapidly 81
9, 81
(CHMP) 81
vaccines 81
pigs 81
organ@@ 81
steps 81
Ph@@ 81
ly. 81
coated 81
ents. 81
ö@@ 81
Manufacturer 81
ref@@ 81
ure 81
cur@@ 81
produc@@ 81
Pfizer 81
EU/1/00/131/0@@ 81
kept 81
ably 81
parts 81
/99) 81
tis@@ 80
receptor 80
trac@@ 80
independent 80
ide. 80
information. 80
almost 80
reg@@ 80
male 80
(3 80
Nor@@ 80
Common 80
98 80
cour@@ 80
tics 80
bur@@ 80
prolonged 80
materials 80
5.2). 80
marked 80
“@@ 80
examined 80
me, 80
us. 80
soci@@ 80
safe 80
speaking 80
AB 79
open@@ 79
trial 79
all, 79
group. 79
possibly 79
lymph@@ 79
extremely 79
ain@@ 79
pic@@ 79
ST@@ 79
period. 79
CE@@ 79
tin 79
every@@ 79
00@@ 79
stomach 79
eyes 79
adequately 79
providing 79
TI@@ 79
feeling 79
OP@@ 79
ish 79
ly@@ 79
ely 79
healthcare 79
diseases. 79
goes 79
ack@@ 79
Nevertheless, 79
separate 78
remove 78
%). 78
radi@@ 78
ful 78
4.8). 78
ple@@ 78
initiation 78
od 78
at, 78
damaged 78
correctly 78
summary 78
room 78
st. 78
formation 78
um, 78
GmbH 78
cent@@ 78
majority 78
indicate 78
ile 78
abdominal 78
sor@@ 78
ff@@ 78
coun@@ 78
fact@@ 78
UN@@ 78
liquid 78
ately 78
killed 78
42 77
acting 77
parameters 77
hip 77
7.@@ 77
il. 77
mouth 77
fat@@ 77
46 77
intake 77
considered. 77
CYP3A4 77
setting 77
percentage 77
up. 77
improved 77
RA@@ 77
dos@@ 77
vari@@ 77
bio@@ 77
month. 77
sol@@ 77
pri@@ 77
mar@@ 77
urg@@ 77
consequences 77
thyroid 77
br@@ 77
financial 77
cap@@ 77
year@@ 77
Who 77
person@@ 77
really 77
Read 77
price 77
amounts 76
ros@@ 76
quite 76
reli@@ 76
women, 76
els 76
SA@@ 76
super@@ 76
(F@@ 76
AS@@ 76
pharmac@@ 76
well. 76
vivo 76
pay 76
ON 76
*, 76
potentially 76
correct 76
thought 76
non@@ 76
wh@@ 76
along 76
importance 76
ship 76
alfa 76
dangerous 76
drink 76
explo@@ 76
K 75
purpose 75
antibody 75
sustained 75
9.@@ 75
chemical 75
IT@@ 75
corresponding 75
animals. 75
sit@@ 75
S, 75
Cmax 75
Study 75
(N@@ 75
brought 75
subsequent 75
nam@@ 75
FROM 75
insufficiency 75
Therefore 75
advised 75
ities. 75
Community 75
becoming 75
ir 75
humans 75
rest@@ 75
environmental 75
ded, 75
achieve 75
Luxembourg 75
Pol@@ 75
ms 75
sw@@ 75
Common: 75
principle 75
Ne@@ 75
driving 75
family 75
ings. 75
consumers 75
perhaps 75
stopped 74
expiry 74
A. 74
doses. 74
ing: 74
star@@ 74
imp@@ 74
(5 74
Trudexa 74
ME@@ 74
yn@@ 74
ON@@ 74
ning 74
enti@@ 74
original 74
event@@ 74
st, 74
tw@@ 74
progression 74
path@@ 74
strong 74
fo@@ 74
MATERIALS 74
PRODUCTS, 74
nausea, 74
Be@@ 74
Clinical 74
After 74
sun@@ 74
(B@@ 74
prescription 74
chloride, 74
hand@@ 74
(0) 74
view, 74
provision 74
requirements. 74
low@@ 74
him 74
powder, 74
EU/1/00/132/0@@ 74
nation@@ 74
exactly 74
but@@ 73
way, 73
(4@@ 73
loc@@ 73
median 73
ture 73
ness, 73
top@@ 73
medi@@ 73
reference 73
solution. 73
de. 73
C, 73
DNA 73
Enbrel 73
DERIVED 73
SUCH 73
ves 73
CPMP 73
ie@@ 73
37 73
log@@ 73
ay@@ 73
don@@ 73
call 73
ban@@ 73
word 73
Will 73
49 72
resulted 72
rac@@ 72
mark@@ 72
ml. 72
s/ 72
high-@@ 72
it's 72
concentrate 72
post-@@ 72
vein 72
smoking 72
Ma@@ 72
services 72
th, 72
ble@@ 72
recovery 72
Me@@ 72
disorder 72
mil@@ 72
studied. 72
100@@ 72
tion? 72
dri@@ 72
ash@@ 72
als. 72
022/ 72
9% 71
discontinuation 71
outcome 71
ion. 71
oedema, 71
ds, 71
rheumatoid 71
reductase 71
(0.@@ 71
mor@@ 71
PegIntron 71
female 71
enzymes 71
cell@@ 71
tip 71
ed; 71
ic, 71
supply 71
ber@@ 71
derived 71
ities, 71
mofetil 71
pack@@ 71
agre@@ 71
members 71
old. 71
e; 71
ed: 71
used, 71
unused 71
tly 71
eng@@ 71
live 71
real 71
 000 71
/200@@ 71
fracture 70
ants, 70
site. 70
8.@@ 70
cattle 70
excluded 70
a) 70
g/ 70
commonly 70
ear 70
s-@@ 70
2006. 70
RO@@ 70
ess, 70
Furthermore, 70
drop 70
resolution 70
done. 70
haemoglobin 70
Uncommon: 70
(0)@@ 70
plastic 70
des 70
specifically 70
emp@@ 70
highly 70
aim 70
this, 70
words 70
Merck 69
outer 69
guidelines 69
Within 69
successful 69
kg/ 69
(95% 69
Gu@@ 69
weight. 69
20% 69
prof@@ 69
ire 69
diet 69
VI@@ 69
cho@@ 69
ual 69
d-@@ 69
cent 69
year, 69
frozen 69
mod@@ 69
1997 69
mut@@ 69
ics 69
sen@@ 69
Inter@@ 69
profile 69
Car@@ 69
yellow 69
works 69
process. 69
supplied 69
valu@@ 69
October 69
Av@@ 69
eri@@ 69
Road 69
Consequently, 69
media 69
forget 69
things 69
Unfortunately, 69
(such 68
model 68
osteoporosis 68
leuk@@ 68
birth 68
ga@@ 68
respectively. 68
digital 68
passed 68
injections. 68
alis@@ 68
Adverse 68
250 68
ech@@ 68
metabolite 68
lip@@ 68
160 68
strain@@ 68
comp@@ 68
mix 68
APPROPRIATE 68
oun@@ 68
LE@@ 68
AG@@ 68
fac@@ 68
drinking 68
se, 68
D-@@ 68
June 68
struc@@ 68
Wh@@ 68
Tr@@ 68
antiretroviral 68
difficulties 68
May 68
’, 68
tro@@ 68
odi@@ 68
power 68
obtain 68
Po@@ 68
Although 68
told 68
else 68
world 68
.' 68
happens 67
Under 67
-related 67
nervous 67
toler@@ 67
cer@@ 67
rarely 67
deaths 67
800 67
however 67
fondaparinux 67
favour 67
deficiency 67
soon 67
unless 67
(as 67
T) 67
solid 67
structure 67
ship@@ 67
raised 67
thir@@ 67
suitable 67
Severe 67
2002. 67
chloride 67
propos@@ 67
lam@@ 67
ions 67
serv@@ 67
France, 67
emerg@@ 67
yourself 67
mu@@ 67
fight 67
ton 67
Experience 67
Sweden 67
believe 67
son 67
che@@ 67
course, 67
ble 67
any@@ 67
this. 67
d? 67
38 66
high@@ 66
ular 66
maintained 66
ine-@@ 66
ACR 66
0.0@@ 66
weekly 66
HMG-CoA 66
sensitive 66
cost 66
stable 66
los@@ 66
injection, 66
et, 66
ties 66
1.5 66
cholesterol 66
tax@@ 66
cartridge 66
occurs 66
removed 66
sterile 66
recognised 66
ium 66
ides 66
iting 66
ven@@ 66
amp@@ 66
Dose 66
ings, 66
Regulation 66
easily 66
bacterial 66
me. 66
60@@ 66
+4@@ 66
app@@ 66
pan@@ 66
provides 66
002 66
win@@ 66
policy 66
nothing 66
money 66
ps 65
ders 65
SP@@ 65
NovoMix 65
causing 65
relative 65
mortality 65
ously 65
oz@@ 65
long@@ 65
chest 65
frequent 65
peri@@ 65
try 65
TH@@ 65
antiviral 65
brain 65
levels. 65
Alzheimer's 65
2) 65
ies. 65
function. 65
pal@@ 65
repeated 65
refers 65
red@@ 65
rash, 65
eu@@ 65
SI@@ 65
ad 65
ric@@ 65
age@@ 65
herpes 65
agreed 65
ok@@ 65
Tell 65
Sal@@ 65
ch, 65
ure, 65
at. 65
representative 65
acc@@ 65
sm@@ 65
ard 65
stated 65
ous. 65
fail@@ 65
ping 65
t? 65
A/ 64
findings 64
needed. 64
half-life 64
1,@@ 64
lung 64
tom@@ 64
transient 64
relationship 64
ron@@ 64
sy@@ 64
fun@@ 64
alised 64
suggest 64
(1@@ 64
capsule 64
table 64
lact@@ 64
wall 64
ones 64
cardiac 64
directive 64
physician 64
neuro@@ 64
Mix25 64
w. 64
report, 64
inst@@ 64
avi@@ 64
ast 64
countries, 64
IN 64
tt@@ 64
front 64
doing 64
probably 64
changed 64
Pen 64
happen@@ 64
001 64
Instructions 64
themselves 64
opinion 64
comm@@ 64
ending 64
commun@@ 64
living 64
road 64
s! 64
case, 63
contained 63
ion, 63
post 63
ous@@ 63
head 63
fever 63
HA@@ 63
val@@ 63
meat 63
elevated 63
viruses 63
Pharmacovigilance 63
4-@@ 63
ue 63
laboratory 63
x, 63
port 63
blister 63
transdermal 63
applic@@ 63
Mycophenolate 63
de, 63
Viraferon 63
til@@ 63
Germany, 63
constitu@@ 63
GlaxoSmithKline 63
41 63
tar@@ 63
ere@@ 63
heavy 63
ey@@ 63
law 63
strict 63
valid 63
broken 63
pen, 63
sed. 63
plant 63
ants. 63
consumer 63
amendment 63
tain@@ 63
My 63
Thirdly, 63
pi@@ 62
groups. 62
3) 62
definition 62
N-@@ 62
empty 62
behaviour 62
I, 62
seven 62
metabolism 62
ade 62
m, 62
treat@@ 62
tuberculosis 62
ogen@@ 62
90@@ 62
amino 62
PE@@ 62
stick 62
Prevention 62
bar@@ 62
irrit@@ 62
He 62
allows 62
documents 62
transfer 62
fic@@ 62
users 62
mb@@ 62
on-@@ 62
up, 62
pe 62
ight 62
Using 62
mother 62
4.2). 62
German 62
tel@@ 62
lif@@ 62
uses 62
ents, 62
Rec@@ 62
BATCH 62
RELEASE 62
organis@@ 62
glass 62
coming 62
workers 62
certainly 62
employ@@ 62
lowest 61
arm 61
develop@@ 61
depression 61
inhibition 61
respon@@ 61
metabolised 61
patients) 61
injec@@ 61
-1 61
radiation 61
consistent 61
ocular 61
counts 61
ency, 61
m. 61
IV@@ 61
cardiovascular 61
repeat 61
th. 61
ational 61
ys 61
compatible 61
eu/. 61
tin@@ 61
worked 61
Party 61
or. 61
ists 61
confidence 61
Sol@@ 61
meth@@ 61
persons 61
SU@@ 61
investigated 61
lic@@ 61
Her@@ 61
card 61
connec@@ 61
com 61
sel@@ 61
Cal@@ 61
ds. 61
Factor 61
so, 61
MANUFACTURING 61
RESPONSIBLE 61
hel@@ 61
ik@@ 61
food, 61
alone, 61
text 61
employment 61
More 61
vaccin@@ 60
(H@@ 60
OR@@ 60
lab@@ 60
syndrome, 60
necessary, 60
ick@@ 60
amide 60
l) 60
ter. 60
suspected 60
ket@@ 60
30% 60
aff@@ 60
cit@@ 60
worse 60
While 60
eye, 60
urine 60
applications 60
opening 60
highest 60
excretion 60
are: 60
medication 60
Mic@@ 60
Europe. 60
leukaemia 60
deal 60
’@@ 60
demonstr@@ 60
ws 60
chance 60
protec@@ 60
ines 60
failure, 60
test@@ 60
contrast 60
ligh@@ 60
parties 60
trade 60
apparent 60
quantity 60
hydrox@@ 60
Lilly 60
OÜ 60
lit@@ 60
acts 60
vel@@ 60
disposal 60
004 60
falling 60
ka 60
legislation 60
ans, 60
decide 60
looks 60
cha@@ 60
die 60
harmful 60
and/or 59
fast 59
posi@@ 59
study. 59
round 59
nec@@ 59
47 59
dose-@@ 59
responses 59
58@@ 59
allow@@ 59
discontinue 59
ments. 59
-0@@ 59
25% 59
i, 59
min 59
week@@ 59
inhibits 59
studies. 59
Ribavirin 59
For@@ 59
activ@@ 59
ped 59
November 59
mid@@ 59
6-@@ 59
fer@@ 59
efavirenz 59
phot@@ 59
rat@@ 59
exc@@ 59
hospital 59
pig@@ 59
Mil@@ 59
September 59
reduces 59
Package 59
less@@ 59
route 59
dist@@ 59
fre@@ 59
bacteria 59
salt 59
gra@@ 59
SA 59
night 59
CONSTA 59
El@@ 59
ty. 59
amendments 59
cancer. 59
04/ 59
fish 59
functioning 59
happen 59
approach 59
consum@@ 59
a? 59
idea 59
   59
treating 58
tics, 58
speak 58
lesions 58
simvastatin 58
ant, 58
02@@ 58
follow@@ 58
conditions, 58
(n=@@ 58
es). 58
achiev@@ 58
exist@@ 58
Tarceva 58
exercise 58
titration 58
serotonin 58
yr@@ 58
acquired 58
dul@@ 58
Parkinson's 58
took 58
indic@@ 58
63 58
int 58
well-@@ 58
With 58
dys@@ 58
Cy@@ 58
emb@@ 58
ies, 58
shall 58
onto 58
swabs) 58
Avoid 58
ACTIVE 58
Sverige 58
euro@@ 58
bas@@ 58
competition 58
issu@@ 58
requires 58
vehicles 58
agricultural 58
bel@@ 58
so-called 58
vote 58
noted 57
metformin 57
Veterinary 57
concentr@@ 57
suicide 57
sites 57
converted 57
complic@@ 57
weakness 57
termin@@ 57
ation) 57
opened 57
osis, 57
inadequate 57
Cl@@ 57
persistent 57
body, 57
centre 57
control@@ 57
tor 57
effect. 57
raz@@ 57
P-@@ 57
2001 57
block@@ 57
ini@@ 57
whereas 57
adap@@ 57
transl@@ 57
syringes 57
population. 57
ness. 57
health@@ 57
gene 57
numbers 57
web 57
art@@ 57
milk, 57
lactic 57
back@@ 57
tablet@@ 57
published 57
ner 57
ution 57
lu@@ 57
diluted 57
Sharp 57
tive, 57
Pharmaceuticals 57
tab@@ 57
ian 57
everything 57
Or@@ 57
es' 57
hop@@ 57
(H-0@@ 57
/99): 57
comparable 56
occur@@ 56
suicidal 56
nor 56
percent 56
sion. 56
comple@@ 56
hear@@ 56
diabetes, 56
harmon@@ 56
ay 56
diarrhoea 56
vision, 56
none 56
AN 56
inhibit 56
ol. 56
(4 56
inside 56
rati@@ 56
i. 56
finding 56
irbesartan 56
low. 56
{@@ 56
ty, 56
inspec@@ 56
companies 56
lik@@ 56
Cor@@ 56
Increased 56
strain 56
thro@@ 56
passes 56
bru@@ 56
company 56
turn@@ 56
spread 56
Skin 56
house 56
Man@@ 56
ide, 56
accompanied 56
ore 56
increased. 56
count 56
Mix50 56
arch@@ 56
size 56
contain@@ 56
fast@@ 56
ce 56
procedure. 56
ampoule 56
result, 56
ery 56
Members 56
Important 56
continues 56
recogn@@ 56
USER 56
respect 56
environment 56
e! 56
And 56
cases. 55
zidovudine 55
tive. 55
excess 55
nit@@ 55
CI: 55
situations 55
painful 55
5) 55
44 55
ell 55
bir@@ 55
leg@@ 55
69@@ 55
ators 55
elimination 55
cells. 55
(range 55
len@@ 55
frag@@ 55
67 55
adi@@ 55
mus@@ 55
regimen 55
eight 55
bottom 55
iron 55
sul@@ 55
April 55
et. 55
occur. 55
vomiting, 55
Taking 55
flo@@ 55
Stat@@ 55
dioxide 55
ties. 55
tub@@ 55
Su@@ 55
gradually 55
port@@ 55
organic 55
Mal@@ 55
psychiatric 55
As@@ 55
ors. 55
6.6. 55
bal@@ 55
Characteristics, 55
swelling, 55
., 55
Rom@@ 55
problems, 55
pen. 55
pH 55
demonstrate 55
Gen@@ 55
ement. 55
Authorisations 55
Irbesartan 55
system@@ 55
dra@@ 55
MARKETING 55
bring 55
ments, 55
immunodeficiency 55
future 55
education 55
6.3. 55
dead@@ 55
market, 55
trials. 54
les@@ 54
woman 54
Studies 54
later 54
AB@@ 54
deep 54
inten@@ 54
milestone 54
mg. 54
careful 54
II@@ 54
weigh@@ 54
minim@@ 54
180 54
rit@@ 54
eth@@ 54
part@@ 54
public@@ 54
197@@ 54
granting 54
4.3). 54
L) 54
cycle 54
anaemia 54
agreement 54
bodies 54
cartridge. 54
Basal 54
Italy, 54
nature 54
Pregnancy 54
lob@@ 54
methyl@@ 54
fication 54
break 54
ili@@ 54
Hepatic 54
fur@@ 54
B. 54
mothers 54
resources 54
human@@ 54
professional 54
rap@@ 54
procedures 54
hope 54
Commission's 54
govern@@ 54
(debate) 54
times. 53
control. 53
ed) 53
%@@ 53
initi@@ 53
ose 53
reproductive 53
1). 53
comparison 53
IX 53
speci@@ 53
minimisation) 53
ving 53
plan@@ 53
ism@@ 53
dur@@ 53
33@@ 53
avir 53
permanent 53
infants 53
RMP 53
11@@ 53
ways 53
meal 53
EXUBERA 53
language 53
medicin@@ 53
reconstitution 53
Li@@ 53
MR@@ 53
black 53
tak@@ 53
conditions. 53
Pa@@ 53
2007 53
T. 53
precautions 53
competi@@ 53
p. 53
ole@@ 53
5.1). 53
Chinese 53
Ber@@ 53
Wor@@ 53
econom@@ 53
liber@@ 53
normally 53
Dohme 53
ver 53
need@@ 53
/00@@ 53
identi@@ 53
dose, 53
003 53
Powder 53
manufacturer 53
established. 53
spoon 53
inform 53
demand 53
leads 53
ality. 53
security 53
consult 52
required. 52
vertebral 52
stric@@ 52
vir@@ 52
Protopy 52
ens@@ 52
]@@ 52
extension 52
framework 52
week. 52
fixed 52
nausea 52
AL 52
Plan 52
unknown 52
S) 52
separ@@ 52
76 52
mg@@ 52
LU@@ 52
exp@@ 52
lar@@ 52
relation 52
basic 52
breathing 52
individuals 52
µ@@ 52
LDL 52
delay 52
hydro@@ 52
include: 52
ement, 52
post-marketing 52
attack@@ 52
adopted 52
colour@@ 52
4.4 52
pres@@ 52
asthma 52
accoun@@ 52
ure. 52
sions 52
involves 52
consider@@ 52
} 52
linked 52
reaction, 52
ased 52
turn 52
pain@@ 52
water, 52
vaccine. 52
chain 52
lines 52
effects, 52
as. 52
006 52
consist@@ 52
He@@ 52
abil@@ 52
child@@ 52
visible 52
Their 52
Both 52
pul@@ 52
citizens 52
vot@@ 52
votes 52
group, 51
righ@@ 51
le-@@ 51
h, 51
depres@@ 51
hypoglycaemia 51
hour@@ 51
(≥ 51
uri@@ 51
ma 51
inhaled 51
(pharmacovigilance 51
ended 51
norm@@ 51
reactions. 51
ne 51
ViraferonPeg 51
depend@@ 51
ain 51
includes 51
mg/@@ 51
recorded 51
ster 51
ReFacto 51
Among 51
complications 51
id. 51
characteristics 51
55 51
ation: 51
advis@@ 51
Efficacy 51
ke@@ 51
force 51
detected 51
extra 51
meeting 51
sector 51
aring 51
Fin@@ 51
vial. 51
rol@@ 51
AIDS 51
ved 51
ences 51
Tra@@ 51
excipients 51
ana 51
ous, 51
offic@@ 51
persist 51
operating 51
syrup 51
ign@@ 51
question@@ 51
foot@@ 51
interpre@@ 51
covered 51
direc@@ 51
parents 51
viol@@ 51
farm@@ 51
people, 51
rights 51
accidents 51
α 50
disp@@ 50
appeared 50
platelet 50
stand@@ 50
point@@ 50
randomised 50
chlor@@ 50
time@@ 50
origin 50
smok@@ 50
itation 50
hospit@@ 50
sho@@ 50
nine 50
My@@ 50
imaging 50
cardi@@ 50
I). 50
month@@ 50
metabol@@ 50
vaccinated 50
95 50
absorbed 50
appl@@ 50
-M@@ 50
ture@@ 50
Gre@@ 50
known. 50
induced 50
agent 50
implementation 50
rib@@ 50
oid 50
MAH 50
Hol@@ 50
Side 50
Tran@@ 50
symptomatic 50
Blood 50
tion: 50
scre@@ 50
enter@@ 50
running 50
T, 50
Each 50
p, 50
ism, 50
tur@@ 50
sts 50
sale 50
row@@ 50
diseases, 50
sett@@ 50
concerns 50
product@@ 50
bed 50
collec@@ 50
market@@ 50
ch. 50
own@@ 50
objectives 50
choose 50
introduction 50
Look 50
danger 50
nuclear 50
ben@@ 49
Fer@@ 49
ring 49
treatments 49
terminal 49
trials, 49
ator 49
methotrexate 49
score 49
ID@@ 49
delayed 49
receptors 49
reduc@@ 49
EMEA. 49
formed 49
begin 49
ei@@ 49
PRO@@ 49
tem@@ 49
Most 49
co-administered 49
mono@@ 49
ened 49
2003 49
ates, 49
manag@@ 49
ras@@ 49
ut 49
Mo@@ 49
ises 49
eas@@ 49
arly 49
DI@@ 49
il, 49
down@@ 49
DepoCyte 49
lowering 49
user 49
canc@@ 49
integr@@ 49
defin@@ 49
assess 49
adults. 49
States. 49
Ap@@ 49
/9@@ 49
President 49
disorders: 49
function, 49
cru@@ 49
aw@@ 49
tube 49
infectious 49
concern 49
paid 49
bon@@ 49
pat@@ 49
create 49
British 49
impairment: 49
dam@@ 49
fied. 49
there@@ 49
reserv@@ 49
Europe, 49
decis@@ 49
sort 49
Perhaps 49
Treaty 49
Everything 49
900 48
Over@@ 48
Raptiva 48
immuno@@ 48
0% 48
regularly 48
usion 48
decreases 48
fertility 48
optimal 48
T-@@ 48
respond 48
vol@@ 48
parti@@ 48
paren@@ 48
7, 48
tis, 48
minimisation 48
revealed 48
mi@@ 48
ization 48
peginterferon 48
000@@ 48
icity 48
bladder 48
teen 48
ointment 48
optim@@ 48
device 48
IntronA 48
ency. 48
PRODUCT 48
oul@@ 48
cooperation 48
idi@@ 48
competent 48
sensitivity 48
July 48
al-@@ 48
rubber 48
ked 48
ó@@ 48
65@@ 48
S-@@ 48
Commun@@ 48
sti@@ 48
women. 48
Bas@@ 48
-like 48
wide 48
development. 48
Tel@@ 48
increased, 48
diff@@ 48
expenditure 48
ü@@ 48
whilst 48
Bar@@ 48
Österreich 48
Box 48
fu@@ 48
accidentally 48
push 48
source 48
last@@ 48
transmission 48
industrial 48
Are 48
care@@ 48
ently, 48
official 48
ned 48
Is@@ 48
risk. 48
Just 48
ars 48
sound 48
cut 48
indeed 48
country, 48
President, 48
Str@@ 47
Pl@@ 47
note 47
attached 47
exercised 47
22@@ 47
losartan 47
interactions 47
patient@@ 47
you@@ 47
targ@@ 47
polyethylene 47
disturb@@ 47
nerve 47
predominantly 47
site, 47
plas@@ 47
Acute 47
undesirable 47
Vir@@ 47
tical 47
performance 47
Lam@@ 47
rup@@ 47
NE@@ 47
interact 47
ing) 47
placebo-controlled 47
MIU 47
nor@@ 47
vit@@ 47
lost 47
magnetic 47
sed, 47
leakage 47
World 47
(1.@@ 47
ulation 47
are, 47
eyelid 47
ml/ 47
appropriate. 47
board 47
unit 47
nasal 47
results. 47
unlikely 47
diver@@ 47
mmol/ 47
review 47
tac@@ 47
forward 47
We@@ 47
met 47
organisations 47
Park 47
ale 47
Food 47
Belgium 47
mer@@ 47
wat@@ 47
box 47
ug@@ 47
depending 47
standards 47
House 47
equipment 47
stem 47
ore@@ 47
indication 47
tion) 47
ole 47
restrictions 47
concerning 47
lives 47
ess. 47
lan@@ 47
Commission, 47
that. 47
recognise 47
plans 47
Can 47
job 47
alism 47
EUR @@ 47
cu@@ 46
gia, 46
thromb@@ 46
oma 46
reported. 46
(G@@ 46
intervals 46
peak 46
ized 46
1. 46
ulcers 46
(another 46
Bo@@ 46
virus, 46
days, 46
ocyt@@ 46
ions. 46
vomiting 46
4) 46
(9@@ 46
aries 46
lac@@ 46
Following 46
clar@@ 46
um-@@ 46
ric 46
repe@@ 46
getting 46
virus@@ 46
y; 46
abnormalities 46
calcitonin 46
ine) 46
ility 46
machines. 46
table@@ 46
shel@@ 46
helps 46
inal 46
medic@@ 46
NAME 46
und@@ 46
Am@@ 46
ates. 46
slowly 46
2008. 46
attempts 46
Des@@ 46
problem@@ 46
ase, 46
induce 46
proof 46
ol, 46
Belgium, 46
ination 46
res, 46
ia), 46
chil@@ 46
Vi@@ 46
wear 46
avoided. 46
uting 46
judg@@ 46
eliminated 46
aut@@ 46
cros@@ 46
Telzir 46
tablets, 46
diseas@@ 46
ize 46
examination 46
White 46
closed 46
button 46
harm@@ 46
budget 46
broad@@ 46
mention 46
understand 46
over-@@ 46
seems 46
annual 46
commit@@ 46
Questions 46
lead@@ 46
ism. 46
which, 46
obvious 46
death. 46
informed 46
complain@@ 46
figure 46
respec@@ 46
came 46
Denmark 45
90% 45
dat@@ 45
adjust@@ 45
44@@ 45
haem@@ 45
irritation 45
lim@@ 45
weeks, 45
adding 45
10-@@ 45
years) 45
tics. 45
3.5 45
older 45
haemorrhage, 45
99@@ 45
osis. 45
EF@@ 45
7-@@ 45
load 45
g, 45
standing 45
ids 45
Humira 45
men, 45
fasting 45
bra@@ 45
generation 45
hasn't 45
UL@@ 45
m2 45
Preparation 45
ba@@ 45
ur 45
microbiological 45
BE@@ 45
v 45
amin@@ 45
hand 45
quantities 45
corneal 45
units 45
ml, 45
leave 45
ate) 45
improv@@ 45
expert 45
Characteristics 45
Special 45
double 45
85 45
fungal 45
pon@@ 45
glob@@ 45
drug@@ 45
chang@@ 45
Public 45
LI@@ 45
grow@@ 45
Injection 45
requirement 45
Bre@@ 45
Pri@@ 45
gently 45
clear@@ 45
hormon@@ 45
swe@@ 45
NG@@ 45
information, 45
E. 45
Res@@ 45
joined 45
thereby 45
reverse 45
clos@@ 45
Neupro 45
amended 45
Co-administration 45
ace 45
que 45
007 45
fir@@ 45
pipette 45
sulph@@ 45
people. 45
Suspension 45
def@@ 45
Pe@@ 45
debate 45
Response 45
sign 45
adv@@ 45
basis. 45
intervention 45
Russi@@ 45
amb@@ 45
happened 45
buy 45
negoti@@ 45
though 45
polic@@ 45
work, 45
machines 44
partial 44
mg, 44
insul@@ 44
short-term 44
non 44
(6 44
ark@@ 44
os, 44
l. 44
topical 44
induction 44
acuity 44
accidental 44
popul@@ 44
las@@ 44
ongoing 44
naïve 44
(1.5 44
pur@@ 44
manner 44
occurring 44
went 44
one-@@ 44
hum@@ 44
radio@@ 44
surrounding 44
e). 44
worsening 44
affecting 44
ret@@ 44
AF 44
despite 44
/1@@ 44
absolute 44
el. 44
aliz@@ 44
ic. 44
component 44
transpor@@ 44
spir@@ 44
research@@ 44
ach 44
glo@@ 44
light. 44
SPC 44
ä@@ 44
Bi@@ 44
diarrhoea, 44
ening 44
shoul@@ 44
conventional 44
led. 44
haemat@@ 44
den 44
Lev@@ 44
project 44
Leaflet 44
Fax: 44
limits 44
conver@@ 44
appointed 44
cancer, 44
enlargement 44
OS@@ 44
should: 44
OL@@ 44
n, 44
Children 44
ice, 44
energ@@ 44
coloured 44
contribute 44
radioactive 44
ampoules 44
Czech 44
expres@@ 44
limit@@ 44
Yondelis 44
ats 44
applying 44
rotated 44
building 44
led, 44
Col@@ 44
step. 44
methods 44
ground 44
acy 44
invest@@ 44
instance, 44
e' 44
Amendment 44
Tlf: 43
lamivudine 43
abacavir 43
stop@@ 43
calculated 43
haemophilia 43
emia 43
CE 43
GF@@ 43
ort 43
ist. 43
response. 43
surveillance 43
insufficient 43
compar@@ 43
dosing. 43
(with 43
determin@@ 43
20, 43
in) 43
minimise 43
interval 43
fr@@ 43
altern@@ 43
an-@@ 43
ST 43
populations 43
diabetic 43
thromboembolic 43
ith@@ 43
excluded. 43
ability. 43
sclerosis 43
fol@@ 43
5/ 43
Rap@@ 43
L. 43
q@@ 43
C) 43
flu 43
ture. 43
spec@@ 43
ised. 43
properties 43
ional 43
hair 43
teach@@ 43
breast-feeding. 43
ker@@ 43
polysorbate 43
49@@ 43
greatly 43
isation. 43
lation 43
eyel@@ 43
carcinogenic 43
transplant 43
today 43
Trans@@ 43
becomes 43
Number 43
sum@@ 43
uk@@ 43
labelled 43
Pr@@ 43
period, 43
pay@@ 43
Eli 43
ions, 43
ound@@ 43
ing; 43
................................................................@@ 43
all. 43
allowing 43
”. 43
future, 43
disappear 43
carbon 43
born 43
discussed 43
adop@@ 43
vic@@ 43
BIOLOGICAL 43
mir@@ 43
hold 43
activity. 43
groun@@ 43
tic. 43
lear@@ 43
Ver@@ 43
threat@@ 43
understand@@ 43
scale 43
gro@@ 43
design@@ 43
impression 43
(hypersensitive) 43
answer 43
violence 43
statistics 43
purpos@@ 43
citizen@@ 43
fact, 43
2/ 42
larger 42
severe, 42
virological 42
(I@@ 42
achieving 42
advanced 42
phas@@ 42
y) 42
lot 42
ed-@@ 42
bre@@ 42
inhal@@ 42
MS@@ 42
yt@@ 42
fluid 42
ties, 42
15% 42
PRE@@ 42
55@@ 42
concurrently 42
concomitantly 42
mic@@ 42
(< 42
4/ 42
(O@@ 42
mother@@ 42
blood@@ 42
(D@@ 42
stud@@ 42
tenofovir 42
slight 42
plic@@ 42
mixture 42
untreated 42
y: 42
animals, 42
ase. 42
uc 42
fever, 42
difficul@@ 42
uro@@ 42
useful 42
ker 42
Office 42
coordination 42
kill@@ 42
75@@ 42
weak@@ 42
phosph@@ 42
clin@@ 42
isol@@ 42
malignant 42
corticosteroids 42
dysfunction 42
ise, 42
Lo@@ 42
bus@@ 42
ports 42
packs 42
r. 42
py@@ 42
avoided 42
increas@@ 42
ranging 42
extr@@ 42
package. 42
Portugal, 42
Finland 42
US 42
repor@@ 42
id, 42
Administration 42
EL@@ 42
oxygen@@ 42
eds 42
primarily 42
candi@@ 42
people@@ 42
mel@@ 42
expression 42
materi@@ 42
ere 42
only. 42
Ba@@ 42
waiting 42
By 42
cream 42
mixing 42
tot@@ 42
issued 42
correc@@ 42
KwikPen 42
common: 42
la 42
Over 42
feeding. 42
eral 42
flex@@ 42
others. 42
pap@@ 42
hormones 42
der. 42
area, 42
ingly 42
Greece, 42
tically 42
differen@@ 42
om 42
victims 42
immigr@@ 42
capit@@ 42
68 41
evalu@@ 41
(e.g. 41
74 41
2.0 41
ene 41
OPTISON 41
beta@@ 41
circulating 41
multi-@@ 41
(3@@ 41
invasive 41
reductions 41
build 41
som@@ 41
fatal 41
 41
aemia, 41
weight, 41
progres@@ 41
died 41
order@@ 41
morning 41
flow 41
genotype 41
7/ 41
au 41
Tritanrix 41
(n 41
unstable 41
V, 41
with@@ 41
rhinotracheitis 41
ogenic 41
purposes 41
10, 41
observ@@ 41
dropped, 41
_@@ 41
palms 41
ulcer@@ 41
headache, 41
Thir@@ 41
angiotensin 41
EE@@ 41
alcohol@@ 41
detection 41
unit@@ 41
2). 41
Stre@@ 41
ta 41
efficient 41
agree 41
Br@@ 41
cri@@ 41
defec@@ 41
res. 41
All@@ 41
lor@@ 41
below. 41
characterised 41
dom@@ 41
reliable 41
71 41
ash 41
Direc@@ 41
è@@ 41
ER 41
sen 41
colour 41
tigh@@ 41
after@@ 41
gas 41
agu@@ 41
states 41
controls 41
towards 41
handling 41
ters. 41
Ri@@ 41
stag@@ 41
005 41
gen 41
ver, 41
ú@@ 41
Mer@@ 41
á 41
chair@@ 41
(L@@ 41
ends 41
erythropoietin 41
considerable 41
mobil@@ 41
fentanyl 41
represent@@ 41
ly: 41
Tri@@ 41
urgent 41
appropri@@ 41
disast@@ 41
burden 41
place, 41
hon@@ 41
mom@@ 41
play@@ 41
euro 41
illegal 41
y! 41
Every 41
Without 41
B, 40
indications 40
bronch@@ 40
given. 40
circumstances. 40
react 40
95% 40
(800 40
(6@@ 40
binds 40
stimulates 40
ists, 40
50, 40
respectively, 40
charg@@ 40
oste@@ 40
food@@ 40
(2@@ 40
marrow 40
Specification, 40
cessation 40
restric@@ 40
60% 40
ward 40
blocking 40
70% 40
ALT 40
lo 40
Additional 40
CM@@ 40
returned 40
macro@@ 40
cross-@@ 40
formul@@ 40
subsequently 40
ters, 40
hydrochlorothiazide 40
observation 40
Further 40
sides 40
2002 40
occas@@ 40
Free 40
surpris@@ 40
CL@@ 40
alert 40
involvement 40
advantages 40
tumours 40
EX@@ 40
approach@@ 40
Management 40
ures 40
Pulmonary 40
-00@@ 40
Min@@ 40
clotting 40
discussion 40
ella 40
rip@@ 40
evaluate 40
isolates 40
tasks 40
instruc@@ 40
med@@ 40
party 40
inform@@ 40
pir@@ 40
istic 40
Ra@@ 40
Dosage 40
eff@@ 40
-up 40
les, 40
areas. 40
qual@@ 40
Ltd 40
sin@@ 40
moving 40
tal 40
Ge@@ 40
professionals 40
nar@@ 40
clean@@ 40
sirolimus 40
manufacturer@@ 40
vaccine, 40
n. 40
MANUFACTURER 40
administer 40
initiative 40
items 40
conce@@ 40
Belgi@@ 40
Cam@@ 40
antigens 40
administrative 40
vessels 40
Presid@@ 40
wish 40
exist 40
mutagenic 40
sent 40
pow@@ 40
tex@@ 40
seriously 40
mechanisms 40
health. 40
school 40
programmes 40
mistak@@ 40
place. 40
traditional 40
government 40
tax 40
sold 40
s’ 40
democrac@@ 40
fishing 40
Yet 40
low-@@ 39
(2.@@ 39
-treated 39
patient's 39
accident 39
modification 39
vag@@ 39
CT@@ 39
withdrawn 39
89 39
orphan 39
Ti@@ 39
sufficiently 39
looked 39
ingredient 39
Gr@@ 39
life. 39
finally 39
beta-@@ 39
adults, 39
vehicle 39
adolescents. 39
d: 39
chemotherapy 39
ative, 39
1.0 39
LO@@ 39
neutr@@ 39
recurrent 39
pharmacovigilance 39
Irish 39
PAR@@ 39
permitted 39
toxic@@ 39
detec@@ 39
effectively 39
particip@@ 39
Rare 39
2006 39
face, 39
MIRCERA 39
seiz@@ 39
t) 39
bind 39
ental 39
liver. 39
affected. 39
HO@@ 39
hypertension. 39
bil@@ 39
att@@ 39
addres@@ 39
failure. 39
platelets 39
metabolic 39
infections, 39
rent 39
breath 39
thing, 39
Kingdom. 39
require@@ 39
ily 39
rep@@ 39
container 39
t: 39
ple 39
changes. 39
372 39
em 39
condition@@ 39
ary, 39
Brussels 39
Attenuated 39
sudden 39
commercial 39
ator. 39
zer@@ 39
present, 39
life, 39
temporary 39
batch 39
resid@@ 39
water@@ 39
sing@@ 39
practic@@ 39
prescription. 39
abor@@ 39
nur@@ 39
Ru@@ 39
plac@@ 39
former 39
knowledge 39
St 39
Commission@@ 39
health, 39
Je@@ 39
-based 39
proportion@@ 39
move 39
labour 39
practice. 39
forced 39
ty-@@ 39
gives 39
accept 39
achieved, 39
production. 39
anything 39
fish@@ 39
concerned, 39
saying 39
unemployment 39
run@@ 39
justified 39
Ingelheim 38
normal. 38
Note 38
requiring 38
evid@@ 38
protease 38
wit@@ 38
methadone 38
Risk 38
missing 38
rever@@ 38
neck 38
enrolled 38
Quality 38
ability, 38
insulin. 38
sleep@@ 38
PD@@ 38
-free 38
completed 38
mediated 38
glucuron@@ 38
exhib@@ 38
sup@@ 38
HepB 38
acid, 38
L, 38
III@@ 38
mov@@ 38
ome@@ 38
incid@@ 38
73 38
experiencing 38
directed 38
pumps 38
irritation, 38
Organ@@ 38
motor 38
positions 38
employed 38
4. 38
responsibility 38
availability 38
spontaneous 38
ths 38
ished 38
ram@@ 38
ensu@@ 38
closure 38
slow 38
minutes. 38
mas@@ 38
syn@@ 38
ina 38
certific@@ 38
procedural 38
clean 38
Botulinum 38
appe@@ 38
showing 38
investig@@ 38
conven@@ 38
opath@@ 38
net 38
pas@@ 38
undertaken 38
van 38
alise 38
Sec@@ 38
carton 38
ry@@ 38
Pharmac@@ 38
Business 38
IR@@ 38
72 38
seconds 38
mini@@ 38
general, 38
fall@@ 38
stra@@ 38
rejec@@ 38
cle@@ 38
ised, 38
beta 38
areas, 38
streng@@ 38
doub@@ 38
120 38
substances, 38
communic@@ 38
interven@@ 38
properly 38
says 38
monoclonal 38
ching 38
ams 38
solvent, 38
bs 38
check@@ 38
dg@@ 38
SUBSTANCE 38
ors, 38
roc@@ 38
Metabolism 38
ar. 38
Bayer 38
connection 38
eating 38
opportunity 38
speed 38
Ste@@ 38
regime 38
success 38
ans. 38
got 38
whe@@ 38
colon@@ 38
foun@@ 38
projec@@ 38
ick 38
sense 38
interest@@ 38
industri@@ 38
police 38
farmers 38
traffic 38
Europeans 38
coast@@ 38
?@@ 38
funds 38
job@@ 38
ity? 38
Boehringer 37
Healthcare 37
eness 37
tly. 37
CVMP 37
vision 37
fractures 37
rout@@ 37
pneumonia, 37
pup@@ 37
ness@@ 37
reactions, 37
U/ 37
1.0@@ 37
II, 37
swollen 37
reac@@ 37
f, 37
HB@@ 37
inhibitors. 37
propose 37
PI@@ 37
zo@@ 37
CHAMPIX 37
statistically 37
defici@@ 37
younger 37
pre-existing 37
day) 37
neg@@ 37
milli@@ 37
disoproxil 37
atr@@ 37
Board 37
BYETTA 37
stages 37
heat 37
regulatory 37
2000@@ 37
od. 37
baby. 37
diagnosed 37
Reg@@ 37
child's 37
gli@@ 37
cere@@ 37
ideation 37
gh@@ 37
inated 37
pegylated 37
premature 37
leuc@@ 37
Serious 37
Director@@ 37
tissues 37
ves. 37
establish 37
filter 37
mouth, 37
rim@@ 37
Naglazyme 37
ia) 37
out, 37
conjunction 37
infec@@ 37
places 37
La@@ 37
ber 37
alist 37
80@@ 37
Tel.: 37
AID@@ 37
anaesthesia 37
travel 37
position, 37
marketed 37
foreign 37
elling 37
], 37
Sa@@ 37
vary 37
orally 37
proved 37
copy 37
problem, 37
co-infected 37
Tritace 37
benefit@@ 37
Fe@@ 37
nic@@ 37
then@@ 37
ush@@ 37
nutrition 37
guarantee 37
Bel@@ 37
IB@@ 37
ext@@ 37
mess@@ 37
let@@ 37
compromis@@ 37
Kar@@ 37
regions 37
compe@@ 37
abol@@ 37
fig@@ 37
amend@@ 37
figures 37
hun@@ 37
tain 37
tun@@ 37
run 37
private 37
emissions 37
sea 37
rul@@ 37
conc@@ 37
law@@ 37
true 37
mak@@ 37
period@@ 36
Assessment 36
vascular 36
stry 36
41% 36
group@@ 36
chromosome 36
addressed 36
fore@@ 36
hepat@@ 36
enlarg@@ 36
satis@@ 36
antagon@@ 36
administration, 36
dip@@ 36
producing 36
(called 36
ym@@ 36
dep@@ 36
endpoint 36
52 36
erythema 36
sib@@ 36
i.e. 36
bacter@@ 36
LD@@ 36
erc@@ 36
confir@@ 36
Tox@@ 36
laid 36
thrombotic 36
gone 36
steady 36
cars 36
tacrolimus 36
GM@@ 36
eration 36
somewhat 36
0) 36
John's 36
syndrome@@ 36
................................@@ 36
analogues 36
blisters 36
involved. 36
you, 36
C-@@ 36
lum@@ 36
guidance 36
daily. 36
pot@@ 36
opathy 36
7. 36
developments 36
f. 36
macular 36
ame@@ 36
lactation. 36
Dan@@ 36
cycles 36
ml@@ 36
awa@@ 36
dro@@ 36
eyes, 36
wards 36
eu/ 36
ches 36
3.0 36
eat 36
revision 36
residues 36
cod@@ 36
1998. 36
hydroxy@@ 36
doctors 36
ision 36
not@@ 36
tolerance 36
horses 36
belongs 36
diuretics, 36
substitutes 36
ogen 36
mean@@ 36
nat@@ 36
machin@@ 36
distrib@@ 36
is: 36
Gal@@ 36
ass 36
share 36
stopping 36
inverted 36
gel 36
gradu@@ 36
calcul@@ 36
ADROVANCE 36
responsibil@@ 36
paragraph 36
ert 36
protective 36
identify 36
ept@@ 36
appear@@ 36
009 36
371/ 36
372/ 36
373/ 36
EU/1/99/127/0@@ 36
(%) 36
spo@@ 36
clear, 36
hydrochloric 36
life@@ 36
Feline 36
capable 36
heal@@ 36
Slovenská 36
elements 36
Decision 36
insi@@ 36
implemented 36
accepted 36
stock 36
opportun@@ 36
ju@@ 36
lies 36
recommendation 36
be. 36
innov@@ 36
book@@ 36
by-@@ 36
world. 36
category 36
educ@@ 36
tic, 36
short@@ 36
possible. 36
remember 36
freezer 36
inde@@ 36
huge 36
prices 36
tonnes 36
credit 36
quot@@ 36
fair 36
it? 36
/96) 36
use@@ 35
Orphan 35
three-@@ 35
operate 35
CH@@ 35
tivity 35
dysp@@ 35
g., 35
Hy@@ 35
recommend@@ 35
vastatin 35
absc@@ 35
contraceptive 35
months, 35
ures, 35
week, 35
indicating 35
modified 35
potent 35
favourable 35
wn@@ 35
4.5 35
sub-@@ 35
disorders, 35
oxide 35
PO@@ 35
protein@@ 35
97 35
eme@@ 35
effec@@ 35
FlexPen 35
bit@@ 35
ost@@ 35
wn 35
convul@@ 35
Official 35
Pharmaceutical 35
error 35
ING 35
retinal 35
log 35
ses. 35
thoroughly 35
83 35
emulsion 35
UR@@ 35
severely 35
association 35
hearing 35
secret@@ 35
officials 35
congestion, 35
qui@@ 35
Periodic 35
PV@@ 35
Wat@@ 35
:@@ 35
Denmark, 35
Spain, 35
voriconazole 35
white, 35
ture, 35
aver@@ 35
Wyeth 35
stor@@ 35
CON@@ 35
Qualified 35
cris@@ 35
absor@@ 35
supplements 35
build@@ 35
humans. 35
intramuscular 35
packaging 35
a: 35
tou@@ 35
Tre@@ 35
nel@@ 35
ting, 35
ures. 35
activity, 35
now@@ 35
.... 35
blocks 35
effici@@ 35
OptiSet 35
kil@@ 35
Pack 35
duc@@ 35
office 35
tablets. 35
NovoRapid 35
medium 35
pac@@ 35
removal 35
enter 35
HBV 35
BMS 35
seem 35
acidosis 35
On@@ 35
Americ@@ 35
thing. 35
cut@@ 35
mag@@ 35
problems. 35
rig@@ 35
G1 35
prim@@ 35
contr@@ 35
play 35
minority 35
border 35
divi@@ 35
oblig@@ 35
competitive 35
sl@@ 35
announc@@ 35
contract 35
mind 35
budget@@ 35
ank@@ 35
wrong 35
matters 35
contamination 35
ers' 35
traffic@@ 35
BSE 35
Directive 35
moment 35
IL@@ 34
occurs, 34
infusion. 34
ae 34
7) 34
anim@@ 34
64 34
discharge 34
oid@@ 34
x. 34
Effects 34
dex@@ 34
overweight 34
VA@@ 34
0.25 34
fos@@ 34
solution, 34
tissue. 34
Pi@@ 34
activi@@ 34
stit@@ 34
neurological 34
2,@@ 34
trop@@ 34
-to-@@ 34
58 34
CYP2C@@ 34
amprenavir 34
supporting 34
rod 34
synthesis 34
arc@@ 34
PE 34
analysis. 34
8-@@ 34
neuropathy 34
e), 34
Six 34
sco@@ 34
metres 34
TMZ 34
somatropin 34
erated 34
bin@@ 34
notic@@ 34
intensi@@ 34
crushed 34
TRE@@ 34
approval 34
9-@@ 34
lungs 34
topotecan 34
substr@@ 34
hypertension 34
evaluated. 34
ORACEA 34
edi@@ 34
ater 34
bag@@ 34
Dosing 34
anticoagul@@ 34
adjust 34
symptoms, 34
particles. 34
suppli@@ 34
Em@@ 34
tend@@ 34
Dysp@@ 34
bor@@ 34
pressure. 34
TR@@ 34
sep@@ 34
subcutaneously 34
Gastrointestinal 34
cough, 34
P. 34
ious 34
nursing 34
consequ@@ 34
warnings 34
common. 34
mal 34
Rapid 34
H, 34
German@@ 34
blue 34
® 34
Bud@@ 34
abine 34
ergic 34
Doc@@ 34
net@@ 34
bet@@ 34
ential 34
Disorders 34
AS 34
otherwise 34
pregnancy. 34
Candida 34
ency@@ 34
Sub@@ 34
gland 34
changing 34
sible 34
risk@@ 34
(HIV@@ 34
holding 34
became 34
collap@@ 34
attack 34
ately, 34
suspension. 34
style 34
method@@ 34
regulated 34
hereditary 34
dre@@ 34
land. 34
wine 34
dihydrogen 34
EXP 34
resuspend 34
lef@@ 34
mit 34
Inactivated 34
origin@@ 34
republika 34
arrang@@ 34
provis@@ 34
detect 34
Some@@ 34
suspen@@ 34
+35@@ 34
shared 34
Union, 34
here. 34
by@@ 34
simpli@@ 34
defend 34
ice. 34
char@@ 34
histor@@ 34
san@@ 34
four@@ 34
stand 34
big 34
hours, 34
jobs 34
dram@@ 34
Council@@ 34
Mrs @@ 34
ago 34
Nos 34
(T@@ 33
STELARA 33
eline 33
examination. 33
advisable 33
placebo-treated 33
trial, 33
uric 33
absence 33
sed@@ 33
Ly@@ 33
sis 33
clots 33
haemorrhage 33
arr@@ 33
though@@ 33
selective 33
consci@@ 33
disorders. 33
aud@@ 33
life-threatening 33
liver, 33
extreme 33
attacks 33
myel@@ 33
EM@@ 33
measure@@ 33
electronic 33
ED@@ 33
inflammatory 33
paper 33
VAN@@ 33
affects 33
92 33
prophylaxis 33
home 33
25, 33
itching, 33
10.@@ 33
ipr@@ 33
week) 33
strictly 33
7.5 33
NA@@ 33
performed. 33
Op@@ 33
(one 33
imag@@ 33
inity 33
retro@@ 33
salmon 33
D3 33
estimate 33
gest@@ 33
relap@@ 33
AF@@ 33
courses 33
NovoLet 33
ade@@ 33
Events 33
add 33
impair 33
rin@@ 33
asthenia, 33
dizziness, 33
ich@@ 33
posts 33
and. 33
Research 33
specialised 33
before. 33
angina 33
recovery. 33
allerg@@ 33
began 33
86 33
thin@@ 33
Tur@@ 33
administr@@ 33
sampl@@ 33
deep@@ 33
formulations 33
ham@@ 33
December 33
deleg@@ 33
elled 33
See 33
openia, 33
aggrav@@ 33
poisoning 33
Ty@@ 33
block 33
multiforme 33
oxib 33
Urinary 33
frequ@@ 33
site: 33
Ireland, 33
Men@@ 33
tools 33
transi@@ 33
wort 33
Hyper@@ 33
breath@@ 33
voice 33
even@@ 33
osi@@ 33
nucleoside 33
ously. 33
ush 33
dop@@ 33
sector@@ 33
vial@@ 33
ks, 33
cycl@@ 33
ality, 33
Bur@@ 33
CCID50 33
acids 33
complex 33
additives 33
1998 33
endogenous 33
patient. 33
ely. 33
case. 33
ition 33
studi@@ 33
(R@@ 33
limited. 33
pens, 33
ici@@ 33
surgical 33
appli@@ 33
mix@@ 33
valsartan 33
-C@@ 33
beginning 33
ring@@ 33
Lu@@ 33
Always 33
Ham@@ 33
ow@@ 33
preferably 33
ato@@ 33
bodi@@ 33
planning 33
trying 33
survey 33
pit@@ 33
miss 33
anyone 33
act. 33
genic 33
Or 33
recognises 33
forgotten 33
Patient 33
ched 33
accid@@ 33
hed 33
off-white 33
import@@ 33
mar 33
Whether 33
Rapporteur 33
discus@@ 33
sizes 33
fed 33
increasingly 33
Scot@@ 33
spe@@ 33
society 33
military 33
thousands 33
Commissioner 33
fire 33
fuel 33
sav@@ 33
peac@@ 33
sou@@ 33
s'. 33
politic@@ 33
( 33
Would 33
there. 33
patent@@ 33
day: 33
(vote) 33
ler 32
53 32
capac@@ 32
358 32
monitored. 32
routine 32
sleep 32
bleeding, 32
awareness 32
care. 32
gastric 32
episodes 32
Tracleer 32
slaugh@@ 32
PR@@ 32
nephro@@ 32
AM@@ 32
infus@@ 32
HIV-1 32
bound 32
ys, 32
emergency 32
subjects. 32
alkaline 32
μ 32
step@@ 32
venous 32
daily, 32
take, 32
D, 32
idal 32
panleucopenia 32
alising 32
pra@@ 32
Ig@@ 32
(200 32
TIC@@ 32
volunteers 32
gain 32
infant 32
Venous 32
l, 32
sac@@ 32
prepar@@ 32
rix 32
lon 32
yp@@ 32
tested 32
Er@@ 32
Te@@ 32
organisation 32
principles 32
ting. 32
Ret@@ 32
doc@@ 32
chol@@ 32
Disease 32
Ox@@ 32
Cent@@ 32
mol@@ 32
Starlix 32
Anti@@ 32
FO@@ 32
met@@ 32
Moreover, 32
table. 32
openia 32
ET@@ 32
made. 32
request@@ 32
presid@@ 32
pec@@ 32
RT 32
ption 32
induc@@ 32
numb@@ 32
carri@@ 32
Sustained 32
delays 32
Interaction 32
membrane 32
2005, 32
ro 32
Netherlands, 32
V. 32
CR@@ 32
CP 32
investigation 32
turning 32
discard 32
nigh@@ 32
disodium 32
vess@@ 32
PL@@ 32
known: 32
moder@@ 32
arms 32
pruritus, 32
+372 32
SQUIBB 32
Nov@@ 32
+46 32
TS 32
movement 32
production, 32
elev@@ 32
database 32
tan@@ 32
stimul@@ 32
System 32
cup 32
committee 32
Sebivo 32
big@@ 32
straight 32
expect@@ 32
4.2 32
exception 32
manufacturer(s) 32
specific@@ 32
potenti@@ 32
arity 32
variability, 32
minimal 32
Industri@@ 32
diet. 32
008 32
364/ 32
train@@ 32
view@@ 32
kers 32
long-@@ 32
Go@@ 32
Sloven@@ 32
easy 32
pris@@ 32
Bulg@@ 32
Method 32
pover@@ 32
23@@ 32
compens@@ 32
Holder. 32
er's 32
down. 32
Memb@@ 32
plants 32
funding 32
scope 32
situ@@ 32
end. 32
impossible 32
gam@@ 32
injury 32
carrying 32
expensive 32
link 32
fri@@ 32
thern 32
less. 32
expen@@ 32
guarante@@ 32
Could 32
war 32
univer@@ 32
rely 32
answ@@ 32
unemploy@@ 32
inflation 32
motor@@ 32
 million 32
school@@ 32
ations? 32
96 31
syringe, 31
carton. 31
blood. 31
tran@@ 31
Ziagen 31
pivotal 31
.) 31
cyt@@ 31
fallen 31
ines. 31
Suc@@ 31
GONAL-f 31
ign 31
mening@@ 31
rat 31
A-@@ 31
symptoms. 31
nicotinic 31
Neuro@@ 31
cm 31
ference 31
ays 31
rough 31
thrombosis 31
hormonal 31
siz@@ 31
ranged 31
3). 31
readily 31
seizures 31
infection@@ 31
class@@ 31
otitis 31
rivastigmine 31
6/ 31
ulcer 31
glyc@@ 31
glu@@ 31
redness 31
scores 31
density 31
HD@@ 31
classi@@ 31
(12 31
good@@ 31
a; 31
SS 31
practical 31
ciclosporin 31
D) 31
clusion 31
mellitus 31
(U@@ 31
6) 31
amlodipine 31
movements 31
appearance. 31
Inno@@ 31
MabThera 31
taste 31
latest 31
atin 31
activation 31
ax 31
Evaluation 31
Spanish 31
susceptibility 31
immunity 31
Also, 31
77 31
version 31
degrad@@ 31
bar 31
slow@@ 31
iro@@ 31
tability 31
receiv@@ 31
agon@@ 31
eti@@ 31
fel@@ 31
rang@@ 31
assess@@ 31
dealt 31
rhabdomyolys@@ 31
documentation 31
underlying 31
attemp@@ 31
ours 31
62 31
Cha@@ 31
persi@@ 31
surgery. 31
pressure, 31
amongst 31
export 31
pump 31
21@@ 31
avir@@ 31
occasionally 31
● 31
alpha 31
onic 31
OM@@ 31
spon@@ 31
present@@ 31
son@@ 31
glycoprotein 31
aem@@ 31
behind 31
stro@@ 31
bot@@ 31
s): 31
WITH 31
ough@@ 31
Fri@@ 31
Don@@ 31
… 31
Ter@@ 31
Preparing 31
Ha@@ 31
transferred 31
them@@ 31
sn@@ 31
fing@@ 31
BRISTOL-MYERS 31
inhibit@@ 31
zz@@ 31
Sw@@ 31
Pos@@ 31
exten@@ 31
sulf@@ 31
centralised 31
ories 31
opaque 31
ature 31
liqu@@ 31
focus 31
omyc@@ 31
sa 31
dog@@ 31
carefully. 31
specified 31
Women 31
core 31
gar@@ 31
referral 31
hot 31
014 31
010 31
pack. 31
med 31
rh@@ 31
film@@ 31
milky. 31
a's 31
ie 31
microgram 31
ock@@ 31
middle 31
UC@@ 31
NO@@ 31
cam@@ 31
asked 31
ides, 31
der, 31
simple 31
beneficial 31
od, 31
Can@@ 31
Finland, 31
Poland, 31
extended 31
ich 31
tas@@ 31
disc@@ 31
incen@@ 31
Elderly 31
tobacco 31
instead 31
favour@@ 31
Reference 31
tors 31
legislative 31
payments 31
country. 31
second@@ 31
bri@@ 31
România 31
Now 31
5-0@@ 31
ij@@ 31
provisions 31
pollut@@ 31
shop@@ 31
pesticides 31
Union. 31
y' 31
Mc@@ 31
journe@@ 31
namely 31
cultural 31
Afric@@ 31
billion 31
pollution 31
ers? 31
ago. 31
speak@@ 31
interests 31
ve? 31
re? 31
Commissioner, 31
this? 31
(A4-04@@ 31
minute 30
Leuk@@ 30
arter@@ 30
groups, 30
stavudine 30
discontinu@@ 30
Unit 30
Symptoms 30
agonist 30
loss, 30
tide 30
regardless 30
carc@@ 30
µg 30
birds 30
severity 30
flushing 30
mp@@ 30
lex@@ 30
Type 30
(5@@ 30
Effentora 30
tox@@ 30
maternal 30
migr@@ 30
micrograms/ 30
throat 30
illness 30
extensively 30
pop@@ 30
length 30
Kineret 30
4.4@@ 30
stimulating 30
MA 30
12.@@ 30
Phase 30
eded 30
common@@ 30
mg/day) 30
functional 30
mul@@ 30
docetaxel 30
retur@@ 30
(V@@ 30
erythro@@ 30
myc@@ 30
two-@@ 30
IV 30
parent 30
pharmacological 30
grap@@ 30
resuspended. 30
clumps 30
smaller 30
P450 30
9. 30
cells, 30
discussions 30
depression, 30
audi@@ 30
spa@@ 30
ñ@@ 30
pel@@ 30
Scientific 30
coordin@@ 30
Rev@@ 30
Haem@@ 30
epilep@@ 30
minut@@ 30
disease) 30
y's 30
intest@@ 30
ts@@ 30
development, 30
influenz@@ 30
prevent@@ 30
ement@@ 30
tolerated 30
°C 30
benzalkonium 30
pression 30
examin@@ 30
seal 30
switched 30
eding 30
am. 30
encies 30
lp 30
eu 30
experim@@ 30
tail 30
syndrome. 30
suppres@@ 30
anticipated 30
vers 30
Pot@@ 30
ak 30
thes@@ 30
warm@@ 30
skin. 30
iness 30
cold 30
ary. 30
noise 30
intolerance, 30
malabsorption 30
veget@@ 30
San@@ 30
gue 30
resul@@ 30
recon@@ 30
dizziness 30
da 30
remain@@ 30
.com 30
66 30
Due 30
artificial 30
muscle. 30
Nespo 30
assessing 30
stituted 30
affinity 30
economy 30
more, 30
ther. 30
acet@@ 30
ral 30
fle@@ 30
communication 30
transparency 30
Sil@@ 30
stabil@@ 30
touch 30
d; 30
phenomen@@ 30
occurrence 30
rit 30
grounds 30
carbohydrate 30
SOL@@ 30
ries 30
toc@@ 30
excipients, 30
ffici@@ 30
Fab@@ 30
asc@@ 30
Sy@@ 30
500@@ 30
Ho@@ 30
..@@ 30
languages 30
stre@@ 30
Puh/Tel: 30
watch 30
Malta 30
F2 30
preserv@@ 30
ond@@ 30
times, 30
contraceptives 30
wid@@ 30
accordingly. 30
road@@ 30
false 30
reflect 30
exemp@@ 30
accumulation 30
half-@@ 30
hur@@ 30
ative. 30
repa@@ 30
jo@@ 30
Iscover 30
bec@@ 30
occup@@ 30
Mark@@ 30
Franc@@ 30
offer 30
measures, 30
discre@@ 30
particul@@ 30
stic@@ 30
Austria, 30
tail@@ 30
succe@@ 30
Mix@@ 30
regarded 30
promis@@ 30
putting 30
mg/24 30
Remember 30
fear 30
ANY 30
some@@ 30
ought 30
expect 30
addi@@ 30
suffered 30
ese 30
Does 30
ciprofloxacin 29
inclusion 29
benzodiazep@@ 29
medicine, 29
circul@@ 29
myocardial 29
ural 29
arthritis, 29
Trevaclyn 29
psoriatic 29
action@@ 29
avoid@@ 29
CS@@ 29
ements 29
vildagliptin 29
6. 29
HCV@@ 29
Sh@@ 29
threshold 29
0.2 29
Vis@@ 29
decreasing 29
put@@ 29
vitamins 29
y). 29
PA@@ 29
marrow. 29
≤ 29
rop@@ 29
alan@@ 29
hem@@ 29
91 29
fy 29
cytochrome 29
unlikely. 29
transfer@@ 29
xim@@ 29
ves@@ 29
acted 29
tation 29
dehydrogenase 29
sia, 29
supplement@@ 29
designated 29
Tal@@ 29
Joint 29
ute 29
suppression 29
hydr@@ 29
(approximately 29
agents. 29
prepared 29
vaccination. 29
aller@@ 29
dust 29
detailed 29
far@@ 29
ELISA 29
effect, 29
glioblastoma 29
thoughts 29
Specific 29
ited. 29
Single 29
sens@@ 29
tig@@ 29
CD@@ 29
men. 29
examinations 29
exam@@ 29
incorpor@@ 29
eu. 29
woman. 29
cholesterol, 29
ene. 29
Council, 29
clon@@ 29
dissolved 29
+49 29
charge 29
KE@@ 29
d) 29
epidermal 29
Keep 29
ide) 29
dihydrate, 29
ets, 29
Fr@@ 29
ist, 29
moist@@ 29
ust 29
Total 29
thousand 29
OX@@ 29
Pan@@ 29
Pal@@ 29
worth 29
represent 29
SARL 29
Co-@@ 29
TRI@@ 29
mur@@ 29
shar@@ 29
lad@@ 29
Met@@ 29
Nic@@ 29
Norge 29
vial, 29
deriv@@ 29
scal@@ 29
Rue 29
bag 29
lock 29
treatment@@ 29
brand 29
operation. 29
shor@@ 29
instructed 29
substantial 29
alter 29
syringes, 29
Mac@@ 29
ound 29
itary 29
wal@@ 29
TIONS 29
solvent) 29
011 29
hydroxide, 29
zi@@ 29
opposite 29
Vol@@ 29
ord@@ 29
Fondaparinux 29
film 29
lap@@ 29
atic@@ 29
í 29
hap@@ 29
Suomi/Finland 29
ler@@ 29
unborn 29
itor@@ 29
eradic@@ 29
resc@@ 29
regulations 29
practice 29
(AIDS). 29
seri@@ 29
understanding 29
obesity 29
promotion 29
hot@@ 29
LV@@ 29
term@@ 29
aspect 29
absolutely 29
relatively 29
ude 29
Clopidogrel 29
ARE 29
believed 29
soil 29
conserv@@ 29
boar@@ 29
ished. 29
again, 29
meet 29
decision. 29
meant 29
other@@ 29
Air@@ 29
tained 29
built 29
processed 29
mass 29
actual 29
alloc@@ 29
say, 29
flight 29
damaging 29
environment@@ 29
forc@@ 29
President@@ 29
travelling 29
however. 29
decisions 29
beg@@ 29
profit@@ 29
income 29
banned 29
where. 29
employe@@ 29
pollu@@ 29
penal@@ 29
goods 29
ship. 29
now, 29
edly 29
clim@@ 29
/1999) 29
do? 29
(A5-04@@ 29
Novartis 28
rate. 28
VICH 28
contribu@@ 28
R) 28
margin 28
intraven@@ 28
techniqu@@ 28
tol@@ 28
continuous 28
er) 28
foetal 28
breathing, 28
sensi@@ 28
carcinogenicity 28
rats 28
ame 28
HIV-@@ 28
measurement 28
destroyed 28
1%) 28
51 28
Rel@@ 28
body@@ 28
idation 28
interested 28
(i. 28
CEPROTIN 28
process, 28
oma, 28
alidomide 28
p=0.00@@ 28
utes 28
tap@@ 28
headache 28
reaction. 28
QU@@ 28
methotrexate. 28
components 28
atin@@ 28
micrograms/@@ 28
tests, 28
perform@@ 28
ins, 28
surviv@@ 28
essentially 28
experienc@@ 28
respectivel@@ 28
0.3 28
paclitaxel 28
resonance 28
EVRA 28
20-@@ 28
levels, 28
6-month 28
incidences 28
defer@@ 28
ophthalm@@ 28
restricted 28
ologically 28
thi@@ 28
....@@ 28
1996 28
Therap@@ 28
phen@@ 28
Development 28
Group 28
titanium 28
patches 28
act, 28
punc@@ 28
succ@@ 28
oesophag@@ 28
66@@ 28
ADMINISTRATION 28
oxy@@ 28
preventing 28
well@@ 28
introduc@@ 28
professional. 28
dysfunction, 28
anaemia. 28
ack 28
infarc@@ 28
data. 28
High@@ 28
glucos@@ 28
prote@@ 28
registered 28
swab@@ 28
ted@@ 28
secre@@ 28
Changes 28
AZ@@ 28
EU, 28
needle. 28
bovine 28
mark 28
disorder@@ 28
irreversible 28
ff 28
Mean 28
GI@@ 28
physicians 28
ographic 28
wise 28
loy@@ 28
Rare: 28
gel@@ 28
Madrid 28
mission 28
Du@@ 28
ls 28
immunisation 28
E, 28
Sp@@ 28
dest@@ 28
@@@ 28
blister@@ 28
monitor 28
ired 28
Grou@@ 28
Republic, 28
counterfe@@ 28
transp@@ 28
les. 28
Pen@@ 28
stops 28
inactive 28
mm@@ 28
disrup@@ 28
compartment 28
consul@@ 28
replac@@ 28
insec@@ 28
Neoclarityn 28
damage. 28
hand, 28
manufacturers 28
breast@@ 28
keeping 28
potassium-sparing 28
ile@@ 28
adjustments 28
fundamental 28
North 28
146/ 28
08@@ 28
369/ 28
375/ 28
377/ 28
42@@ 28
spra@@ 28
off. 28
b. 28
Kent 28
ley 28
haemodialysis 28
U. 28
provi@@ 28
Put 28
English 28
eb@@ 28
opo@@ 28
los 28
ix@@ 28
Ital@@ 28
feeding 28
released 28
FR@@ 28
obstruc@@ 28
animal@@ 28
reason@@ 28
session 28
morning. 28
equipped 28
execu@@ 28
varies 28
profession@@ 28
saf@@ 28
sequ@@ 28
Hungary, 28
crucial 28
record 28
travel@@ 28
De 28
intention 28
Bu@@ 28
replaced 28
Bri@@ 28
context 28
bad@@ 28
picture 28
pro-@@ 28
discrimin@@ 28
appreci@@ 28
distance 28
autom@@ 28
draft 28
ety 28
zero 28
challeng@@ 28
stress 28
cost@@ 28
declar@@ 28
regi@@ 28
ort@@ 28
unwanted 28
Follow 28
hard@@ 28
ough 28
programm@@ 28
prior@@ 28
Turk@@ 28
stitution 28
then, 28
ically, 28
payment 28
ing' 28
identity 28
electricity 28
everyone 28
power@@ 28
existence 28
prison@@ 28
dol@@ 28
forest@@ 28
world@@ 28
alism. 28
leav@@ 28
tradi@@ 28
priv@@ 28
bit 28
ts? 28
bad 28
fisher@@ 28
aircraft 28
!@@ 28
occur, 27
decreas@@ 27
Environ@@ 27
GL@@ 27
ready 27
compon@@ 27
pioglitazone 27
randomized 27
avir/ 27
s'@@ 27
izumab 27
hypertension, 27
tility 27
dy@@ 27
contracep@@ 27
fying 27
pooled 27
fract@@ 27
formulation 27
12-@@ 27
2), 27
events, 27
lide 27
implemented. 27
otic 27
discomfor@@ 27
Contro@@ 27
responded 27
scan@@ 27
spent 27
fix@@ 27
dic 27
er: 27
5). 27
olys@@ 27
blin@@ 27
Pegasys 27
periodic 27
looking 27
fro@@ 27
herpesvirus 27
ies@@ 27
Peripheral 27
poli@@ 27
ograp@@ 27
SE 27
six@@ 27
µg/ 27
nee@@ 27
dar@@ 27
hypertensive 27
oti@@ 27
67@@ 27
frosted 27
colourless. 27
displa@@ 27
declared 27
March 27
tendency 27
tempor@@ 27
initiatives 27
ns 27
Mag@@ 27
Up@@ 27
det@@ 27
caus@@ 27
abnorm@@ 27
illness, 27
redness, 27
chamber 27
sug@@ 27
surfac@@ 27
proc@@ 27
Non-@@ 27
bones 27
rou@@ 27
proper@@ 27
chemic@@ 27
ch-@@ 27
Ear 27
MS 27
erythema, 27
nia 27
ses, 27
Ob@@ 27
Injury, 27
97@@ 27
Doses 27
Concomitant 27
tolerated. 27
Paxene 27
shock, 27
yel@@ 27
med. 27
dl 27
implic@@ 27
collected 27
transmitted 27
sume 27
Sud@@ 27
sick@@ 27
interrup@@ 27
meetings 27
experts 27
spot@@ 27
idine 27
factor@@ 27
Del@@ 27
establish@@ 27
swallowing 27
glycerol, 27
genetic 27
supplements, 27
document@@ 27
Cer@@ 27
thereafter. 27
ats, 27
acqu@@ 27
ham 27
Ep@@ 27
solv@@ 27
aggreg@@ 27
finger 27
ms@@ 27
TAKE 27
dementia 27
ky 27
productive 27
vomiting. 27
ands 27
advice. 27
vein. 27
scheme 27
assessment. 27
opin@@ 27
drop@@ 27
IONSYS 27
once. 27
condi@@ 27
refer 27
ve. 27
Should 27
widely 27
hence 27
synthetic 27
gradual 27
ther, 27
press 27
radic@@ 27
376/ 27
97/ 27
ient 27
SoloStar 27
sun 27
year} 27
Subjects 27
180° 27
P, 27
know@@ 27
Oy 27
Four@@ 27
ink 27
meet@@ 27
Simp@@ 27
KOGENATE 27
Committe@@ 27
anding 27
contraception 27
oxidase 27
tly, 27
to. 27
periodically 27
idity 27
mention@@ 27
fruit 27
personal 27
near 27
Cur@@ 27
e's 27
exchange 27
who@@ 27
ght 27
olig@@ 27
illing 27
loratadine 27
CO2 27
choice 27
written 27
rejection 27
pointing 27
later. 27
happening 27
entr@@ 27
Latvija 27
consult@@ 27
rubb@@ 27
exceed 27
ing-@@ 27
luc@@ 27
methoxy 27
ships 27
gn@@ 27
American 27
excep@@ 27
television 27
iry 27
prospec@@ 27
change, 27
motiv@@ 27
late 27
parliam@@ 27
First, 27
accep@@ 27
Interne@@ 27
intellig@@ 27
th-@@ 27
langu@@ 27
evi@@ 27
financ@@ 27
prison 27
duty 27
million. 27
not. 27
subsidi@@ 27
principle@@ 27
?' 27
know, 27
levodopa 26
Viani 26
shock 26
titr@@ 26
82@@ 26
is) 26
am, 26
meas@@ 26
Prometax 26
encephal@@ 26
intestinal 26
grade 26
offspring 26
Star@@ 26
body's 26
4.6 26
cid@@ 26
β 26
adhes@@ 26
efforts 26
gemcitabine 26
dermati@@ 26
bos@@ 26
8) 26
confusion, 26
interfere 26
ologic 26
fluoxetine 26
12, 26
(50 26
accumul@@ 26
pill@@ 26
EV@@ 26
LT@@ 26
ography 26
CYP2@@ 26
estr@@ 26
IU/@@ 26
99 26
Novo@@ 26
esti@@ 26
Equilis 26
eye. 26
thre@@ 26
emtricit@@ 26
ovarian 26
mice 26
't 26
double-blind 26
coll@@ 26
influenza 26
covering 26
ATION 26
_ 26
ually 26
rapporteur@@ 26
faec@@ 26
tumour@@ 26
experience. 26
Conference 26
compan@@ 26
registration 26
prove 26
ely, 26
Sk@@ 26
ating. 26
sugammadex 26
appearance 26
(E17@@ 26
Centre 26
metabolit@@ 26
59 26
etary 26
oro@@ 26
Ukraine 26
congenital 26
trend 26
spinal 26
angi@@ 26
program 26
18.@@ 26
alys@@ 26
Post-marketing 26
Head@@ 26
conduct 26
symptom@@ 26
triglycerides 26
Adequate 26
rab@@ 26
1,000 26
Consi@@ 26
CP@@ 26
P) 26
reas@@ 26
liv@@ 26
431 26
web@@ 26
filgrastim 26
relates 26
criter@@ 26
Care 26
programme, 26
forwar@@ 26
aris@@ 26
ital 26
Continu@@ 26
selec@@ 26
0.2@@ 26
Industrial 26
acid@@ 26
flow@@ 26
so. 26
qualific@@ 26
remaining 26
research, 26
ve, 26
cough 26
hundred 26
ef 26
Ve@@ 26
Saint 26
entering 26
chro@@ 26
tile 26
procedu@@ 26
MP 26
ja 26
GE 26
@merck. 26
adul@@ 26
nose 26
ages, 26
simplex, 26
Treat@@ 26
ris 26
Elimination 26
pose 26
libr@@ 26
combin@@ 26
omet@@ 26
Har@@ 26
s/@@ 26
Commission. 26
continued. 26
maintain@@ 26
attention. 26
quickly. 26
tered 26
Aprovel 26
life-@@ 26
infants, 26
α@@ 26
Hu@@ 26
claim 26
of-@@ 26
gain@@ 26
network 26
past@@ 26
ets 26
ç@@ 26
child, 26
ori@@ 26
(10 26
012 26
103 26
ken 26
virus. 26
Romania 26
complet@@ 26
150@@ 26
aqu@@ 26
Cap@@ 26
able@@ 26
Z 26
Glustin 26
Hydrochlorothiazide 26
categories 26
eted 26
ali@@ 26
distingu@@ 26
serious@@ 26
a). 26
urely 26
continue/ 26
made, 26
emission 26
Econom@@ 26
protected 26
institutions 26
Chin@@ 26
side. 26
Swed@@ 26
im 26
pleas@@ 26
bes@@ 26
justifi@@ 26
fal@@ 26
space 26
Key 26
concerned. 26
Lietuva 26
gram@@ 26
accept@@ 26
vital 26
claims 26
11. 26
sitting 26
wn, 26
agg@@ 26
Ta@@ 26
Vaccines 26
Dem@@ 26
gol@@ 26
rule 26
itsel@@ 26
prov@@ 26
wast@@ 26
created 26
efficiency 26
deficit 26
man, 26
sch@@ 26
MATERIALS, 26
won@@ 26
fru@@ 26
ibility 26
argum@@ 26
promo@@ 26
resourc@@ 26
deser@@ 26
problem. 26
producers 26
cultiv@@ 26
abuse 26
Dutch 26
civil@@ 26
allotted 26
saw 26
passengers 26
passp@@ 26
tionally 26
es! 26
today, 26
ented 26
democracy 26
bomb@@ 26
arri@@ 26
be? 26
pull 25
AMMONAPS 25
infection) 25
manife@@ 25
Part 25
sus 25
peg@@ 25
latter 25
blood, 25
oxid@@ 25
older. 25
population, 25
stomach@@ 25
immunological 25
sarcom@@ 25
secretion 25
perfor@@ 25
prolong@@ 25
ting@@ 25
ct 25
va@@ 25
couple 25
esis 25
produces 25
oly@@ 25
fem@@ 25
Karvea 25
(p 25
10,000 25
Blo@@ 25
Ca@@ 25
sid@@ 25
atively 25
indicated, 25
desired 25
prop@@ 25
ULN@@ 25
140 25
resol@@ 25
administered. 25
Az@@ 25
visits 25
ther 25
postmenopausal 25
AST 25
dox@@ 25
dogs. 25
avir. 25
pharmacology 25
Cub@@ 25
uptake 25
NRTI@@ 25
apol@@ 25
electro@@ 25
benefit/ 25
itching 25
fumarate 25
ides. 25
SUTENT 25
dine 25
rosis, 25
iso@@ 25
exact 25
CPMP@@ 25
renew@@ 25
February 25
refriger@@ 25
samples 25
Le 25
1995 25
Berlin 25
Post@@ 25
Ben@@ 25
practices 25
Head 25
sell@@ 25
ath 25
aria 25
diox@@ 25
pink 25
Time 25
sucro@@ 25
54@@ 25
coli 25
ner@@ 25
provided. 25
Place 25
antigen@@ 25
Na@@ 25
tec@@ 25
gia 25
centr@@ 25
concurrent 25
altered 25
nose, 25
yiel@@ 25
oxygen 25
cellul@@ 25
licen@@ 25
electric 25
enzy@@ 25
ral@@ 25
distributed 25
pes 25
fresh 25
mentation 25
”). 25
statistical 25
Ελλάδα 25
MSD 25
61 25
dium 25
digoxin 25
els, 25
platel@@ 25
(blood 25
ugh@@ 25
din@@ 25
Mast@@ 25
................@@ 25
TO 25
Maintenance 25
bling 25
schedule 25
culture 25
Hydro@@ 25
light, 25
aggressive 25
stuff@@ 25
sex 25
marks 25
pneumon@@ 25
spas@@ 25
weak 25
elected 25
adine 25
chann@@ 25
authorities. 25
Chlamydophila 25
 25
enhanced 25
dispos@@ 25
member 25
enforc@@ 25
agency 25
pregnant, 25
NOT 25
sure. 25
neutropenia 25
AR 25
measurements 25
ages. 25
operational 25
cau@@ 25
gir@@ 25
ye@@ 25
hid@@ 25
Avonex 25
dering 25
IX@@ 25
IU@@ 25
box@@ 25
aging 25
Hou@@ 25
Intravenous 25
fertil@@ 25
Pent@@ 25
sectors 25
strong@@ 25
ible 25
ly-@@ 25
whatever 25
Hist@@ 25
ive. 25
reven@@ 25
(FCV 25
identified, 25
chickens 25
origin. 25
text. 25
Sometimes 25
exists 25
grams 25
solutions. 25
to, 25
nevertheless 25
accurate 25
processing 25
lev@@ 25
gender 25
comb@@ 25
Few 25
foreign'and 25
warfarin 25
suggests 25
pati@@ 25
design 25
significance 25
fif@@ 25
applies 25
summ@@ 25
fair@@ 25
goal 25
gri@@ 25
oe@@ 25
comply 25
appro@@ 25
extensive 25
largely 25
Six@@ 25
dead 25
imprint 25
Ukra@@ 25
get@@ 25
enormous 25
Which 25
ta, 25
glycol-epoetin 25
markets 25
Those 25
thinking 25
cosme@@ 25
+47 25
totally 25
kno@@ 25
PVC 25
án@@ 25
litre 25
wish@@ 25
Everyone 25
Vfend 25
prohib@@ 25
too, 25
crops 25
quanti@@ 25
criminal 25
poverty 25
merely 25
families 25
millions 25
compensation 25
derog@@ 25
han@@ 25
agenda 25
imagine 25
buildings 25
words, 25
legally 25
investment 25
enable 25
do, 25
itable 25
de? 25
Fourthly, 25
1/2001) 25
(A4-02@@ 25
preparations 24
buil@@ 24
glycaemic 24
D. 24
osteopo@@ 24
hazard 24
altered. 24
wording 24
irudin 24
-B@@ 24
thyro@@ 24
regional 24
B-@@ 24
78@@ 24
old@@ 24
reason, 24
sible. 24
alone. 24
0.00@@ 24
placebo, 24
fine 24
proportional 24
MD@@ 24
tent 24
see@@ 24
software 24
load@@ 24
yro@@ 24
worsen@@ 24
ify 24
uz@@ 24
35% 24
elevations 24
basel@@ 24
image 24
border@@ 24
ales 24
Results 24
Interferon 24
loxac@@ 24
take. 24
itch@@ 24
aden@@ 24
adjusted 24
microgram@@ 24
V) 24
ankylosing 24
reduced. 24
baby 24
satisfactory 24
retin@@ 24
muscles 24
-24 24
sensitiv@@ 24
famil@@ 24
hydrolys@@ 24
carcinogen@@ 24
bilirub@@ 24
predic@@ 24
involve 24
Gi@@ 24
lec@@ 24
industry, 24
1999 24
ocon@@ 24
maraviroc 24
micro-@@ 24
precipit@@ 24
less, 24
potassi@@ 24
Ur@@ 24
uron@@ 24
Gener@@ 24
Hal@@ 24
SAR@@ 24
portion 24
organised 24
lenses. 24
finished 24
trig@@ 24
Virus 24
A., 24
exceptional 24
hypokal@@ 24
epi@@ 24
companies. 24
manufacture 24
diagnosed, 24
meaning 24
asth@@ 24
controlled, 24
situation. 24
Muscle 24
Hypo@@ 24
ations: 24
Long-term 24
BSE@@ 24
COM@@ 24
ology, 24
ja@@ 24
gloves 24
BASAL 24
du 24
inspection 24
glutam@@ 24
precautionary 24
representatives 24
missible 24
consultation 24
level@@ 24
fus@@ 24
recip@@ 24
irregular 24
Animal 24
need, 24
93 24
substanc@@ 24
FOR@@ 24
orph@@ 24
IM@@ 24
calves 24
vas@@ 24
a), 24
glucose-galactose 24
chem@@ 24
Pas@@ 24
output 24
arm. 24
ols 24
Mus@@ 24
O. 24
acceptable. 24
eful@@ 24
eliminate 24
026 24
č@@ 24
TIV@@ 24
ils 24
infections. 24
periods 24
sick 24
optic 24
2800 24
discarded 24
topic 24
peptide 24
business@@ 24
Spec@@ 24
sex@@ 24
aled 24
Opinion 24
b) 24
talking 24
coagulation 24
self 24
ible, 24
GA 24
hospital. 24
cat 24
tives 24
conclus@@ 24
(E 24
Street 24
Uxbridge 24
els. 24
interfer@@ 24
draw 24
ements. 24
variant 24
alization 24
recycling 24
Mart@@ 24
150/ 24
EU/1/0@@ 24
276/ 24
435/ 24
death@@ 24
damaged. 24
soya 24
aluminium 24
ingredi@@ 24
sheep 24
d'@@ 24
Aldurazyme 24
Thyrogen 24
al? 24
Mixtard 24
000, 24
aling 24
injection@@ 24
inciner@@ 24
erup@@ 24
re: 24
Gar@@ 24
tra-@@ 24
Lou@@ 24
ou 24
structural 24
addic@@ 24
dimin@@ 24
solution@@ 24
sumed 24
tubular 24
O-@@ 24
ES@@ 24
credi@@ 24
tives. 24
sal 24
ans@@ 24
dialysis 24
ried 24
priority 24
ble. 24
floor 24
Bro@@ 24
Austria 24
ony 24
hr@@ 24
2005. 24
enterpris@@ 24
carries 24
hu@@ 24
follows: 24
meals 24
fron@@ 24
precisely 24
bus 24
ration 24
Fo@@ 24
ership 24
Almost 24
individu@@ 24
thrown 24
psychological 24
thigh@@ 24
cab@@ 24
Bal@@ 24
ish, 24
mes@@ 24
carrier 24
obviously 24
area. 24
defences) 24
Several 24
be, 24
ung@@ 24
alism, 24
fra@@ 24
sent@@ 24
ances. 24
vulnerable 24
First 24
capital 24
policies 24
151/ 24
one's 24
regist@@ 24
Author@@ 24
city 24
call@@ 24
Iraq@@ 24
Polish 24
cred@@ 24
suff@@ 24
Constitu@@ 24
perfec@@ 24
His 24
screening 24
entail@@ 24
obstac@@ 24
journal@@ 24
toys 24
escap@@ 24
dign@@ 24
ing! 24
contradic@@ 24
citiz@@ 24
tru@@ 24
hypocris@@ 24
Maybe 24
Engl@@ 24
claim@@ 24
revolu@@ 24
though, 24
!' 24
absur@@ 24
sanc@@ 24
/2002) 24
gem@@ 23
X-@@ 23
patent 23
guid@@ 23
stations 23
unusual 23
indin@@ 23
dispose 23
followed, 23
numbness 23
FA@@ 23
attempt 23
(and 23
ing). 23
Exforge 23
staff@@ 23
gal@@ 23
6). 23
noea 23
BMD 23
Pelzont 23
toxin 23
1.4 23
chel@@ 23
ation). 23
pent@@ 23
van@@ 23
concept 23
uncertain@@ 23
77@@ 23
54 23
point. 23
RA 23
selected 23
l-@@ 23
Vel@@ 23
patient-@@ 23
(100 23
MI@@ 23
reversible 23
1A@@ 23
histamine 23
DV@@ 23
avian 23
87@@ 23
OT@@ 23
Betaferon 23
alter@@ 23
antidiabetic 23
genoty@@ 23
MB@@ 23
meaningful 23
2004 23
subjects, 23
mmol 23
examined. 23
74@@ 23
thiaz@@ 23
suit@@ 23
WHO@@ 23
Department 23
1990 23
Luxembourg, 23
Pap@@ 23
nal 23
H. 23
Dec@@ 23
nail 23
feel@@ 23
Wa@@ 23
familiar 23
January 23
ress 23
spi@@ 23
ril 23
ROUTE(S) 23
formal 23
Jap@@ 23
deterioration 23
GFR@@ 23
ffic@@ 23
supplementary 23
ger 23
sustain@@ 23
fit 23
visit 23
ger@@ 23
ix 23
e- 23
embryos 23
orthopaedic 23
ambrisentan 23
limiting 23
line, 23
exceeding 23
Pharmacokinetic 23
legs 23
bat@@ 23
dark@@ 23
too. 23
(200@@ 23
EXJADE 23
intensity. 23
hyp@@ 23
acetyl@@ 23
.. 23
ific@@ 23
RAP@@ 23
eable 23
alized 23
oedema@@ 23
Pradaxa 23
pancre@@ 23
fields 23
bottle. 23
computer 23
science 23
sci@@ 23
PL 23
interim 23
ilit@@ 23
Char@@ 23
amin 23
reconstitu@@ 23
eye@@ 23
atul@@ 23
performed, 23
gall@@ 23
rous 23
eder@@ 23
SK@@ 23
insuffici@@ 23
children@@ 23
oth@@ 23
tooth 23
stil@@ 23
Less 23
ling, 23
ston@@ 23
therap@@ 23
reflec@@ 23
upset 23
terfenadine 23
gens 23
strain)@@ 23
........................@@ 23
ospor@@ 23
és 23
strength@@ 23
establishment 23
moved 23
phenyl@@ 23
ke. 23
outcom@@ 23
physician. 23
set@@ 23
pum@@ 23
categor@@ 23
burn@@ 23
withdrawn. 23
plunger 23
maintaining 23
Peg@@ 23
level, 23
Rob@@ 23
BeneFIX 23
consump@@ 23
pathy 23
atively, 23
asis 23
mission@@ 23
Hel@@ 23
Via 23
E-@@ 23
013 23
046/ 23
door 23
Republic 23
Excipients: 23
dig@@ 23
state, 23
South 23
Laboratoire 23
Data 23
requested 23
TESLASCAN 23
j 23
MU/ 23
ver. 23
solu@@ 23
elements: 23
battery 23
iel@@ 23
wood 23
accelerated 23
divide 23
Pioglitazone 23
wing 23
essenti@@ 23
financing 23
anded 23
ins. 23
ously, 23
increase, 23
guar@@ 23
bearing 23
linear 23
together. 23
Second@@ 23
necessarily 23
ones. 23
ards 23
qualified 23
rich 23
emphas@@ 23
drinks 23
wav@@ 23
ox 23
shape 23
ding. 23
analys@@ 23
er-@@ 23
memb@@ 23
piece 23
main@@ 23
measures. 23
margin@@ 23
hous@@ 23
systems. 23
loading 23
secure 23
row 23
forecast@@ 23
warn@@ 23
breed@@ 23
Accidental 23
raw 23
justi@@ 23
arrest@@ 23
dates 23
desc@@ 23
connected 23
campaign@@ 23
report. 23
else@@ 23
unacceptable 23
side, 23
dish@@ 23
". 23
line. 23
ades 23
scheme. 23
weakened 23
Tor@@ 23
isc@@ 23
provided, 23
domin@@ 23
CT13 23
9NJ 23
faul@@ 23
bom@@ 23
arti@@ 23
threat 23
replace 23
uniform 23
West@@ 23
famili@@ 23
turned 23
Nor 23
ession 23
vod@@ 23
checked 23
atmosph@@ 23
ation' 23
heard 23
brut@@ 23
punish@@ 23
voted 23
Sad@@ 23
HIV/@@ 23
him@@ 23
climate 23
message 23
condem@@ 23
discrimination 23
scand@@ 23
destin@@ 23
presidency 23
perspec@@ 23
disabled 23
imprison@@ 23
genetically 23
worst 23
ent? 23
er? 23
+45 22
Ms 22
69 22
HI@@ 22
event, 22
HC@@ 22
filled 22
non- 22
IF@@ 22
included. 22
]. 22
ets. 22
will@@ 22
aspir@@ 22
leb@@ 22
Kivexa 22
anxiety, 22
placebo@@ 22
uncommonly 22
suic@@ 22
mic 22
postnatal 22
sites. 22
exposure. 22
hypoglycaem@@ 22
Syndrome 22
amma@@ 22
6.1 22
4.3 22
ES 22
earlier 22
Atripla 22
75% 22
controls. 22
proximal 22
physi@@ 22
ical@@ 22
8/ 22
(AL@@ 22
actions. 22
82 22
dopamine 22
pursu@@ 22
ULN 22
Fasturtec 22
ate-@@ 22
ab. 22
National 22
remission 22
EP@@ 22
104 22
wom@@ 22
cles. 22
Prequenza 22
1.7 22
aminotransferase 22
tum@@ 22
squ@@ 22
hair@@ 22
rum@@ 22
embry@@ 22
exposu@@ 22
ED 22
F, 22
Penfill 22
Thromboembolic 22
rosiglitazone 22
litres 22
ole, 22
otoxic 22
DATE 22
otide 22
modi@@ 22
NAME} 22
foc@@ 22
biliary 22
ician 22
assistant 22
Mont@@ 22
eric@@ 22
aspects 22
Technical 22
1997, 22
etravirine 22
Sup@@ 22
facilities 22
statement 22
MI 22
destruction 22
est, 22
assay 22
passive 22
immun@@ 22
tongue, 22
technique 22
ng@@ 22
e/ 22
ia/ 22
MAO@@ 22
LE 22
proteins 22
consciousness, 22
behaviour@@ 22
hypotension 22
HCV 22
calc@@ 22
environment, 22
COVERSYL 22
applicable 22
ACT@@ 22
ograph@@ 22
routes 22
neurotoxin 22
43 22
erlotinib 22
swallow@@ 22
30-@@ 22
transferase 22
To@@ 22
infect 22
(at 22
ticul@@ 22
sis, 22
vascul@@ 22
MM@@ 22
comprehensive 22
ply. 22
EU. 22
hic@@ 22
Caution 22
undertak@@ 22
aria, 22
surance 22
associ@@ 22
appetite 22
antipsychotic 22
acter@@ 22
apart 22
CAR@@ 22
adjuv@@ 22
atics 22
(which 22
dexamethasone 22
amine, 22
ATE 22
faster 22
hydrochloride 22
Units) 22
arma 22
pressed 22
vial) 22
osis) 22
prompt 22
writing 22
ada 22
ever@@ 22
Yor@@ 22
ex. 22
colourless 22
nas@@ 22
DNA@@ 22
aps 22
adjustment) 22
guidel@@ 22
Buc@@ 22
W 22
pil@@ 22
enia 22
kes 22
urticaria 22
opa@@ 22
usal 22
Thi@@ 22
UN 22
push@@ 22
marketed. 22
manufacturing 22
bott@@ 22
arrangements 22
ucle@@ 22
che 22
larg@@ 22
Pres@@ 22
Never 22
manner. 22
benz@@ 22
ek 22
assist@@ 22
gad@@ 22
dict@@ 22
ino@@ 22
prescri@@ 22
cimetidine 22
newbor@@ 22
sions, 22
concep@@ 22
labell@@ 22
Greece 22
end-@@ 22
selectively 22
64@@ 22
MT@@ 22
ab 22
027 22
metal 22
BA@@ 22
stream 22
than@@ 22
015 22
021 22
028 22
016 22
orodispersible 22
(2 22
81 22
unnecessary 22
deliver@@ 22
anhydrous, 22
anda 22
ause 22
ica 22
contaminated 22
comprising 22
phys@@ 22
fill 22
enhance 22
trained 22
pin@@ 22
comprim@@ 22
billi@@ 22
nes@@ 22
Ren@@ 22
orange 22
ino 22
astro@@ 22
TIW) 22
pregnant. 22
budgetary 22
inducing 22
engine@@ 22
impair@@ 22
killing 22
ession@@ 22
hazardous 22
Vic@@ 22
psych@@ 22
tren@@ 22
eph@@ 22
amoun@@ 22
assessments 22
caught 22
g/@@ 22
sum 22
poison@@ 22
OptiSet. 22
trou@@ 22
SoloStar, 22
700 22
misleading 22
Yes, 22
info@@ 22
begin@@ 22
ity-@@ 22
Jo@@ 22
bid 22
onin 22
diuretics 22
approv@@ 22
presents 22
more. 22
series 22
ified 22
Sel@@ 22
ately. 22
opinion, 22
all-@@ 22
wi@@ 22
heav@@ 22
proven@@ 22
permit 22
external 22
black@@ 22
lawy@@ 22
nutritional 22
teaching'the 22
anced 22
managed 22
consumption. 22
substances. 22
enab@@ 22
voc@@ 22
ange 22
complaints 22
sad@@ 22
Alzheimer@@ 22
placing 22
accur@@ 22
Porte 22
giv@@ 22
at-@@ 22
promote 22
polici@@ 22
legisl@@ 22
Haarlem 22
constantly 22
Union@@ 22
trad@@ 22
Bos@@ 22
knows 22
cust@@ 22
Sen@@ 22
illnesses 22
there, 22
excessively 22
nutri@@ 22
countr@@ 22
virtually 22
Christi@@ 22
chemicals 22
neighbour@@ 22
judic@@ 22
truth@@ 22
sustainable 22
flag 22
relig@@ 22
victim@@ 22
quota 22
1 @@ 22
beyond 22
batt@@ 22
here, 22
suffe@@ 22
ier 22
jum@@ 22
bann@@ 22
me? 22
inno@@ 22
colleagu@@ 22
bank 22
slaughter 22
igu@@ 22
beings 22
scienti@@ 22
game 22
massac@@ 22
imposed 22
Pakist@@ 22
GMOs 22
abandon@@ 22
biofu@@ 22
it! 22
Wednes@@ 22
6-0@@ 22
entis 21
ys. 21
overed. 21
discontinued, 21
%; 21
to-@@ 21
iness, 21
shorter 21
ation), 21
achieved. 21
alysis, 21
lansoprazole 21
abat@@ 21
medicine) 21
4.9 21
were: 21
fatigue, 21
Posaconazole 21
exposures 21
yoursel@@ 21
era 21
Cetrotide 21
firm 21
transpa@@ 21
Financial 21
reporting 21
1.25 21
candidiasis, 21
depressive 21
escal@@ 21
umab 21
is-@@ 21
orrhoe@@ 21
DR@@ 21
CYP3A@@ 21
aemic 21
(Cmax 21
community 21
kg/week 21
compound 21
VF@@ 21
capsul@@ 21
allo@@ 21
regim@@ 21
ane@@ 21
myalgia, 21
felis 21
episod@@ 21
function@@ 21
unchanged 21
Kno@@ 21
allergy 21
=@@ 21
fractures. 21
ine/ 21
slaughtered 21
capsu@@ 21
exagg@@ 21
cro@@ 21
dil@@ 21
SPRYCEL 21
reproduction 21
strength 21
data, 21
duloxetine 21
ase-@@ 21
BI@@ 21
TION@@ 21
acetate 21
bridg@@ 21
covers 21
Paediatric 21
present. 21
its. 21
oty@@ 21
senior 21
STATEMENT 21
aemia. 21
Alcohol 21
80, 21
ily. 21
acne, 21
Equ@@ 21
feas@@ 21
alle@@ 21
emotional 21
TNF 21
ists. 21
otoxic@@ 21
sweating, 21
2005 21
rod@@ 21
gres@@ 21
vent@@ 21
ones, 21
splen@@ 21
septic 21
committe@@ 21
contrac@@ 21
dyspep@@ 21
13.@@ 21
wound 21
investigations 21
es), 21
Handling 21
opathic 21
intr@@ 21
titrated 21
offered 21
heart, 21
targets 21
urtic@@ 21
points. 21
Professor 21
pregnancies 21
Objective 21
ne, 21
woun@@ 21
J. 21
Deutschland 21
Bec@@ 21
Protection 21
youn@@ 21
in-line 21
inu@@ 21
signific@@ 21
surgeon 21
governmental 21
sy 21
sparing 21
Minist@@ 21
E-mail: 21
…………@@ 21
publish@@ 21
coc@@ 21
advantage 21
abdom@@ 21
aci@@ 21
epidemic 21
other, 21
deposit 21
Keppra 21
arsen@@ 21
granu@@ 21
dise@@ 21
Abnormal 21
Sodium 21
Estonia 21
Ban@@ 21
II. 21
tis. 21
atten@@ 21
sensation 21
ements, 21
region@@ 21
ai 21
Limited, 21
acul@@ 21
rapporteur 21
She 21
es-@@ 21
lose 21
inactivated 21
udine 21
rub@@ 21
oured 21
approved? 21
quality, 21
sample 21
enhancing 21
deterior@@ 21
doubt 21
union 21
NovoSeven 21
PM@@ 21
compoun@@ 21
tetrac@@ 21
fung@@ 21
breast-feed. 21
prin@@ 21
fen@@ 21
recommend 21
accounts 21
precau@@ 21
Tit@@ 21
og 21
Erbitux 21
rosis 21
Sev@@ 21
nitro@@ 21
017 21
EU/1/06/357@@ 21
358/ 21
Initi@@ 21
mucos@@ 21
cartridge, 21
Inspec@@ 21
yl-@@ 21
)-@@ 21
lamivud@@ 21
transplantation 21
Route 21
asse 21
penetr@@ 21
FCV 21
weg 21
Articles 21
Programme 21
ured 21
aph@@ 21
speech 21
ná 21
equival@@ 21
resolve 21
Slovenija 21
epoetin 21
fiel@@ 21
intoler@@ 21
served 21
Nobilis 21
SME@@ 21
och@@ 21
adver@@ 21
degenerative 21
articles 21
metre 21
first-@@ 21
monoamine 21
images 21
infants. 21
transported 21
tives, 21
prevented 21
Four 21
explains 21
differ 21
mam@@ 21
transplant@@ 21
malignanc@@ 21
lives. 21
wild 21
TAN@@ 21
Change 21
pric@@ 21
comfor@@ 21
ek@@ 21
OptiSet, 21
asse@@ 21
fas@@ 21
apparently 21
ardis@@ 21
sets 21
sumption 21
ouris@@ 21
ord 21
differenti@@ 21
ics, 21
date. 21
unable 21
smoke 21
reaching 21
centres 21
Asi@@ 21
construction 21
nal@@ 21
continuation 21
exceeded 21
relevant. 21
team 21
likelihood 21
identification 21
adoption 21
welcom@@ 21
man. 21
forese@@ 21
overe@@ 21
Ven@@ 21
(2) 21
sat@@ 21
answers 21
Pure@@ 21
statements 21
aimed 21
wait 21
Africa 21
pla@@ 21
t; 21
ders. 21
end, 21
Court 21
MERIAL 21
consideration. 21
dealing 21
Wel@@ 21
flavour@@ 21
effective. 21
easier 21
Mor@@ 21
gave 21
exper@@ 21
Parkinson@@ 21
raise 21
Ramsgate 21
orders 21
studies? 21
enough. 21
embryo 21
sty 21
enough@@ 21
Romani@@ 21
think@@ 21
Russian 21
sources 21
Αγίου 21
Δημητρίου 21
democratic 21
cross-border 21
statis@@ 21
where, 21
children's 21
technologies 21
compulsory 21
directive. 21
ots 21
Mu@@ 21
Europe's 21
contamin@@ 21
z, 21
combat 21
ake 21
happ@@ 21
people's 21
alleg@@ 21
zone 21
civil 21
welcome 21
Braz@@ 21
sters 21
unfortun@@ 21
phrase 21
where@@ 21
ince 21
EU's 21
wind 21
process@@ 21
desper@@ 21
ians 21
ideas 21
later, 21
rer@@ 21
arth@@ 21
question, 21
ł@@ 21
employees 21
No, 21
(H-04@@ 21
3/2001) 21
2/2001) 21
88 20
these, 20
ules 20
io@@ 20
9/ 20
in: 20
follic@@ 20
gastroenteritis, 20
aesthesia, 20
neur@@ 20
ischaem@@ 20
varic@@ 20
Circ@@ 20
colitis 20
pre- 20
displac@@ 20
lymph 20
comparator 20
iro 20
constant 20
Hum@@ 20
substitution 20
F-@@ 20
moderate, 20
tra 20
weeks) 20
bow@@ 20
infliximab 20
joints 20
trace 20
compare 20
pravastatin 20
bringing 20
fatty 20
inhalation 20
MED@@ 20
reach@@ 20
mmH@@ 20
al) 20
ing), 20
17% 20
grad@@ 20
techniques 20
transamin@@ 20
improving 20
UG@@ 20
Sur@@ 20
heart@@ 20
icin 20
cisplatin 20
ation; 20
Survival 20
mmol@@ 20
additive 20
yclin@@ 20
9) 20
response, 20
excell@@ 20
seizure 20
EMEND 20
Remicade 20
dose) 20
lymphocytes 20
vaccinated. 20
ulin 20
uria 20
efavirenz, 20
abine, 20
(N=@@ 20
triglycer@@ 20
antihypertensive 20
leng@@ 20
tolcapone 20
sildenafil 20
toxicity. 20
rence 20
fib@@ 20
omatous 20
wash@@ 20
literature 20
reports, 20
CYP@@ 20
details 20
offici@@ 20
EMEA@@ 20
extend 20
anorex@@ 20
mala@@ 20
examples 20
Mun@@ 20
ology. 20
BS@@ 20
Ministry 20
networks 20
stres@@ 20
smo@@ 20
atide 20
breakdown 20
vinyl 20
PC@@ 20
Au@@ 20
1), 20
MRLs 20
advise 20
sweating 20
m) 20
Porc@@ 20
expertise 20
µg/@@ 20
ible. 20
plication 20
leafle@@ 20
cir@@ 20
etr@@ 20
set. 20
icidal 20
labyrinth 20
tel 20
poll@@ 20
resistance. 20
extrem@@ 20
lactation 20
ORENCIA 20
cirrhosis 20
SEN@@ 20
diges@@ 20
embolism 20
cutaneous 20
intrac@@ 20
extrac@@ 20
new@@ 20
ma. 20
confirm 20
blind 20
trim@@ 20
skeletal 20
(or 20
events. 20
dog 20
atine 20
parame@@ 20
hamster 20
saquin@@ 20
retinopathy, 20
onaz@@ 20
util@@ 20
bronchitis, 20
personnel 20
label/ 20
dail@@ 20
cholesterol@@ 20
ines, 20
Radi@@ 20
atur@@ 20
characteristic 20
lasting 20
hypersensitive 20
de-@@ 20
aft 20
refractory 20
tongue 20
steroid@@ 20
sore 20
TION 20
stiff@@ 20
figh@@ 20
College 20
tification 20
Lim@@ 20
Docetaxel 20
Medical 20
lingu@@ 20
mTc@@ 20
aking 20
rial 20
Weight 20
sten@@ 20
operative 20
MAN@@ 20
kilogram 20
UK@@ 20
ny 20
ING@@ 20
di 20
tell@@ 20
parenteral 20
action, 20
exer@@ 20
oring 20
least@@ 20
GY@@ 20
tee 20
Services 20
vaginal 20
want@@ 20
dizz@@ 20
Fungal 20
musculoskeletal 20
spots 20
shot 20
marg@@ 20
ensi@@ 20
Inf@@ 20
antibodies. 20
bios@@ 20
reaches 20
pyr@@ 20
indicators 20
mer 20
EU-@@ 20
authorisations 20
features 20
Bon@@ 20
Germany. 20
affair@@ 20
Chair@@ 20
ices 20
alpha@@ 20
investigated. 20
flushed 20
hydration 20
uted. 20
(hyperglycaem@@ 20
intolerance 20
appropriate, 20
dispen@@ 20
chances 20
J 20
ford 20
UB@@ 20
kill 20
Remove 20
excipi@@ 20
formed. 20
isot@@ 20
consequence 20
clude 20
Hold 20
magnitude 20
Need@@ 20
orrhea, 20
oud 20
Jos@@ 20
Set@@ 20
agents, 20
independ@@ 20
fundament@@ 20
laws 20
thresh@@ 20
IU) 20
tubes 20
EU/1/00/132@@ 20
134/ 20
152/ 20
XXX 20
415/ 20
cle 20
/2@@ 20
yed 20
temperatures 20
cep@@ 20
ethan@@ 20
bic@@ 20
30, 20
rid@@ 20
windo@@ 20
Wilzin 20
indicator 20
lon@@ 20
wards. 20
Lis@@ 20
Actraphane 20
Form@@ 20
cats 20
degradation 20
East 20
cann@@ 20
lied 20
equally 20
ria 20
mos@@ 20
ders, 20
printed 20
Christian 20
aim@@ 20
Medi@@ 20
educational 20
rot@@ 20
glut@@ 20
ex 20
derivatives 20
rem@@ 20
avir, 20
cli@@ 20
emul@@ 20
justify 20
IB 20
chap@@ 20
letter 20
Protaphane 20
Fun@@ 20
window 20
regularly. 20
(HIV-1), 20
t's 20
host 20
location 20
TRISENOX 20
differently 20
hes@@ 20
REACH 20
10. 20
distribution. 20
planned 20
(MAOI@@ 20
solely 20
future. 20
Janssen-Cilag 20
thanks 20
oh@@ 20
guil@@ 20
est. 20
dered 20
ya 20
composed 20
5%, 20
liter@@ 20
sors 20
shoc@@ 20
counted 20
ong@@ 20
contrib@@ 20
eptic@@ 20
rings 20
mobile 20
versions 20
gence 20
wn. 20
authority 20
rates. 20
mou@@ 20
tific@@ 20
sales 20
react@@ 20
reimbur@@ 20
deter@@ 20
safely 20
finger@@ 20
hero@@ 20
tial 20
Concerned 20
ai@@ 20
sell 20
compu@@ 20
Where@@ 20
encourag@@ 20
raising 20
lie 20
ADDRESS 20
ini 20
critic@@ 20
ming 20
retard@@ 20
town 20
Prac-tic 20
myself 20
GIVEN 20
ently. 20
If, 20
father 20
instruments 20
arise 20
imper@@ 20
seas@@ 20
programme. 20
soldi@@ 20
diversity 20
contracts 20
murdered 20
stocks 20
Sou@@ 20
example. 20
responsib@@ 20
Kosov@@ 20
welfare 20
playing 20
hardly 20
killed. 20
believ@@ 20
dialogue 20
centuri@@ 20
champ@@ 20
civili@@ 20
court 20
sentence 20
justice 20
pestic@@ 20
election 20
reality 20
other. 20
ago, 20
Fren@@ 20
cheap@@ 20
injure@@ 20
Amendments 20
Presidency 20
spoke 20
writ@@ 20
bear 20
redund@@ 20
supposed 20
ted? 20
ly? 20
ities? 20
square 20
(A5-03@@ 20
Swedish 19
impl@@ 19
HbA1c 19
inhibitor@@ 19
formula 19
ng/ 19
rotic 19
3000 19
hygiene 19
Close 19
FSH 19
ility, 19
ritis, 19
neuropathy, 19
transf@@ 19
H) 19
necrosis 19
rats, 19
allergy, 19
metabolite. 19
zed 19
RNA 19
acept 19
joints, 19
inflamm@@ 19
7%) 19
(un@@ 19
met. 19
injuries 19
Glivec 19
memantine 19
AT 19
residue 19
iloprost 19
remained 19
tam@@ 19
detectable 19
months) 19
22% 19
completely. 19
osph@@ 19
individuals. 19
carbox@@ 19
contraindic@@ 19
581 19
tubercul@@ 19
improvements 19
bron@@ 19
days) 19
olanzapine 19
adren@@ 19
media, 19
59@@ 19
(1,000/1,200 19
classified 19
consolid@@ 19
bilirubin 19
’). 19
days@@ 19
Sim@@ 19
BR@@ 19
Rebetol 19
C/ 19
1,200 19
perit@@ 19
ira 19
spondylitis 19
Si@@ 19
ithromyc@@ 19
fibrosis 19
(MRI@@ 19
atazanavir 19
Zometa 19
dropped 19
chromosomal 19
Viet@@ 19
ating, 19
calci@@ 19
hypercalcaem@@ 19
background 19
mellitus, 19
responding 19
Actr@@ 19
(VTE) 19
mob@@ 19
entan 19
maxim@@ 19
mask 19
date, 19
Dar@@ 19
Date 19
SION 19
Jul@@ 19
Virological 19
tingling 19
field, 19
photosensitivity 19
disappear. 19
industry. 19
Brussel@@ 19
practition@@ 19
France. 19
Coun@@ 19
/E@@ 19
Secret@@ 19
rences 19
Good 19
diarrhoea. 19
discol@@ 19
neuromuscular 19
ods 19
metric 19
electrical 19
nerv@@ 19
discharge, 19
write 19
obal@@ 19
geal 19
Agency’s 19
breaking 19
numer@@ 19
tetanus 19
meningiti@@ 19
advance 19
phosphor@@ 19
syndrome) 19
investigate 19
Kal@@ 19
intrav@@ 19
ly). 19
autoimmune 19
ho 19
urine. 19
ification 19
radiolab@@ 19
desirable 19
2%) 19
Immuno@@ 19
arial 19
creation 19
pneumonia 19
draf@@ 19
range. 19
Vascular 19
voluntary 19
Appro@@ 19
cattle. 19
results, 19
ml). 19
ics. 19
neon@@ 19
http://www.@@ 19
------------@@ 19
iver@@ 19
diabetes. 19
low, 19
sible, 19
invol@@ 19
diagno@@ 19
dental 19
Parliament, 19
nel 19
pension@@ 19
lithium 19
resolved 19
install@@ 19
ia). 19
therapies 19
Fort 19
Optisulin 19
ops 19
System@@ 19
strategic 19
properly. 19
ancy 19
atitis 19
didanosine 19
dream@@ 19
Reduction 19
dermal 19
dam 19
alfa-2@@ 19
q 19
Usu@@ 19
meals. 19
blo@@ 19
eigh@@ 19
insulin) 19
compliance 19
show@@ 19
mature 19
Polysorbate 19
Recommend@@ 19
Tallinn 19
ading 19
Roche 19
transporters 19
vastatin, 19
Flu@@ 19
ry, 19
ADRs 19
scar@@ 19
depos@@ 19
layer 19
breaks 19
multipack 19
or) 19
ALT@@ 19
Pre-filled 19
Spain. 19
spectrum 19
identical 19
concentrations. 19
arthral@@ 19
EMADINE 19
Active 19
hazards 19
va 19
Bor@@ 19
stration 19
aus@@ 19
USA 19
inadequate. 19
bacteri@@ 19
zal@@ 19
assistance. 19
type@@ 19
suspected, 19
organs 19
enza 19
Viread 19
compatibility 19
administering 19
serve 19
operation, 19
Gem@@ 19
convinc@@ 19
LIST@@ 19
esc@@ 19
available, 19
label@@ 19
cleare@@ 19
(particularly 19
pet@@ 19
amlodip@@ 19
HEXAL 19
propylene 19
ero@@ 19
(0.2% 19
blu@@ 19
Sar@@ 19
Madrid, 19
refer@@ 19
Soliris 19
armac@@ 19
Coordination 19
mus 19
inserted 19
cumulative 19
dipl@@ 19
urea 19
EU/1/00/131@@ 19
/003 19
018 19
019 19
024 19
025 19
108 19
07@@ 19
01@@ 19
ZYPREXA 19
box. 19
transferring 19
Phys@@ 19
effectiven@@ 19
deltoid 19
assi@@ 19
yester@@ 19
his@@ 19
fla@@ 19
ocytic 19
Py@@ 19
avenue 19
ft 19
below: 19
Wilson@@ 19
Oedema 19
avir) 19
mach@@ 19
Som@@ 19
Puh/ 19
(EEC) 19
ves, 19
breast- 19
thrombocytopen@@ 19
metal@@ 19
ov 19
Fre@@ 19
km 19
Unless 19
ta. 19
base 19
Calicivirosis 19
-2-@@ 19
shaken 19
Institute 19
August 19
possib@@ 19
fails 19
worl@@ 19
Temodal 19
worthy 19
flexible 19
rising 19
switch 19
ish. 19
obes@@ 19
Tevagrastim 19
G, 19
ten, 19
eties 19
benef@@ 19
Child-Pugh 19
processes 19
quo@@ 19
tap 19
Intervet 19
injured 19
influ@@ 19
But@@ 19
Having 19
wer 19
coli. 19
ied 19
SO@@ 19
(0.9%) 19
infra@@ 19
40% 19
human. 19
implement 19
with, 19
800@@ 19
San 19
systems, 19
cloudy. 19
ease 19
ano@@ 19
extre@@ 19
opinions 19
historical 19
gent@@ 19
entry 19
20. 19
encourage 19
precur@@ 19
dru@@ 19
acidosis, 19
implementing 19
eous 19
Anti-@@ 19
lyophil@@ 19
quarter 19
ogenous 19
reasons. 19
session@@ 19
Riv@@ 19
located 19
Security 19
vehic@@ 19
Sit@@ 19
code 19
integration 19
sive. 19
ze 19
dres@@ 19
guard 19
small@@ 19
NutropinAq 19
disper@@ 19
destroy 19
understood 19
Christ@@ 19
distinc@@ 19
alities 19
bond 19
Commission’s 19
enjo@@ 19
countri@@ 19
capsules, 19
salmon@@ 19
wage 19
neither 19
restaur@@ 19
Alpes 19
pa 19
ull 19
cons@@ 19
rates, 19
ks. 19
land, 19
opportunities 19
roun@@ 19
symbol 19
faced 19
nu@@ 19
alternatives 19
Out 19
Sandwich 19
Brit@@ 19
catch 19
ko 19
intend 19
schem@@ 19
out? 19
charges 19
num@@ 19
destroy@@ 19
spend 19
care, 19
hat@@ 19
green 19
paragraph@@ 19
disabil@@ 19
Western 19
track 19
GR-174 19
Άλιμος 19
30-210 19
terroris@@ 19
trag@@ 19
dying 19
calls 19
consumers. 19
subsidies 19
prac@@ 19
earth@@ 19
convic@@ 19
terrorist@@ 19
iliation 19
banks 19
mountain@@ 19
dang@@ 19
trace@@ 19
ague 19
funded 19
ed! 19
weapons 19
subsid@@ 19
Zimbab@@ 19
legitim@@ 19
elapsed, 19
replied 19
represents 19
stipul@@ 19
newspaper 19
agriculture 19
rers 19
tonn@@ 19
obligation 19
patri@@ 19
fate 19
hec@@ 19
flood@@ 19
catastroph@@ 19
al' 19
Indi@@ 19
stig@@ 19
ship, 19
infring@@ 19
inven@@ 19
dangers 19
Islam@@ 19
monopol@@ 19
competitiv@@ 19
atis@@ 19
peoples 19
Israeli 19
Tues@@ 19
Mad@@ 19
flag@@ 19
ment? 19
Nonetheless, 19
ate? 19
compromise 19
(A4-03@@ 19
03 18
mox@@ 18
ifloxacin 18
Trizivir 18
initiated. 18
happens, 18
c) 18
IS@@ 18
fell 18
knee 18
response@@ 18
Philadelphia 18
osition 18
-4@@ 18
circumstances, 18
growth, 18
palpit@@ 18
hos@@ 18
Imprida 18
cycle@@ 18
arly, 18
ardi@@ 18
Oc@@ 18
open-label 18
helping 18
test. 18
(under 18
Tredaptive 18
max 18
gain. 18
defence 18
venti@@ 18
analy@@ 18
old, 18
thrombin 18
tho@@ 18
haemorrhagic 18
insulin, 18
inadver@@ 18
(90Y) 18
lop@@ 18
amphotericin 18
fluvastatin 18
’) 18
pharyng@@ 18
ison 18
in). 18
falls 18
24-@@ 18
ES, 18
gy@@ 18
(mean 18
ained 18
behavioural 18
reaction@@ 18
obese 18
depressed 18
109/ 18
Son@@ 18
I-@@ 18
treatment-@@ 18
encephalopathy 18
phenylbut@@ 18
ine; 18
prec@@ 18
cogn@@ 18
fluoro@@ 18
indicated. 18
kg@@ 18
double-@@ 18
yclines 18
Week 18
mL 18
rated 18
OSSE@@ 18
8). 18
eggs 18
recover@@ 18
quantit@@ 18
MAR@@ 18
itidine 18
transitional 18
y), 18
abr@@ 18
abapentin 18
artan@@ 18
pramipexole 18
limb 18
MIRAPEXIN 18
aly@@ 18
intracellular 18
paraesthesia, 18
pseudoephedrine 18
RENEWAL 18
al: 18
complex@@ 18
technological 18
critical 18
Johnson 18
Publications 18
Rome 18
chemotherapy. 18
releas@@ 18
5. 18
EURO@@ 18
governing 18
Simil@@ 18
lactate 18
confus@@ 18
Gl@@ 18
constitute 18
thin 18
stear@@ 18
designation 18
passing 18
moderately 18
conjug@@ 18
epilepsy 18
warned 18
cou@@ 18
harmonised 18
assa@@ 18
whit@@ 18
impaired, 18
terro@@ 18
ostatic 18
thyroidis@@ 18
ul 18
tar 18
VR 18
lig@@ 18
membran@@ 18
heparin 18
lovastatin 18
Reduc@@ 18
glomer@@ 18
immunosuppres@@ 18
antiepileptic 18
conduc@@ 18
Aranesp 18
encies. 18
ally-@@ 18
Excessive 18
Inflammation 18
somnolence 18
dissemin@@ 18
AE@@ 18
albumin 18
experiments 18
humans, 18
organ 18
phthal@@ 18
specialist 18
infiltrates, 18
ng 18
ride 18
warr@@ 18
obser@@ 18
inner 18
anaphy@@ 18
Levemir 18
yme 18
Admini@@ 18
CV 18
salts 18
lessness 18
isation, 18
thesia, 18
weakness, 18
volunteers. 18
dose). 18
vitro@@ 18
Vomiting 18
aten 18
Gmb@@ 18
ρ@@ 18
TAC@@ 18
Indinavir 18
Placebo 18
pt@@ 18
hydrochlor@@ 18
facilit@@ 18
corpor@@ 18
Science 18
(300 18
Produc@@ 18
onom@@ 18
Guideline 18
Warszawa 18
acu@@ 18
limbs 18
back, 18
ón 18
title 18
Ger@@ 18
Organisation 18
ano 18
initis 18
sympathomime@@ 18
Tim@@ 18
bath@@ 18
Shelf 18
Thromb@@ 18
loose 18
uth 18
lined 18
mot@@ 18
+37@@ 18
c. 18
,5 18
š@@ 18
pot 18
anaesthes@@ 18
haz@@ 18
effects: 18
facial 18
uncommon 18
Cere@@ 18
itchy 18
asis, 18
pain. 18
lessness, 18
Viral 18
more@@ 18
candidiasis 18
procedure, 18
diure@@ 18
endocrine 18
alizumab 18
Mos@@ 18
composite 18
ad, 18
Excipi@@ 18
(PLI 18
graft 18
Regi@@ 18
nom@@ 18
technology, 18
FU@@ 18
transcriptase 18
greatest 18
agencies 18
Harmonisation 18
education. 18
point, 18
Combination 18
therm@@ 18
uxim@@ 18
ares 18
discarded. 18
gastro-intestinal 18
displayed 18
sunlight 18
Nervous 18
aticall@@ 18
Sav@@ 18
quinol@@ 18
antibiotic@@ 18
delivered 18
manufactured 18
pancreatic 18
continuing 18
50-@@ 18
CC@@ 18
Cast@@ 18
ac 18
emis@@ 18
Age 18
With@@ 18
delayed. 18
ylation 18
discharg@@ 18
32@@ 18
r-@@ 18
dela@@ 18
rhinotracheitis, 18
ril@@ 18
Median 18
CV@@ 18
harmonisation 18
VII 18
teratogenic 18
/002 18
020 18
022 18
023 18
/3@@ 18
tablets) 18
366/ 18
EU/1/07/425@@ 18
EU/1/08/484@@ 18
ace@@ 18
Neu@@ 18
sorbitol 18
ose, 18
{month/ 18
broached, 18
Vial 18
06 18
AND@@ 18
Dublin 18
herbal 18
riton@@ 18
region. 18
prevents 18
Bus@@ 18
yn 18
ercent 18
(HDPE) 18
collection 18
ining 18
arian@@ 18
Capsule, 18
City 18
Icel@@ 18
occ@@ 18
consists 18
organizač 18
zlož 18
ME 18
thri@@ 18
erythropoiesis 18
VISTIDE 18
newborn 18
neuropath@@ 18
ong 18
strain): 18
HEXAVAC 18
promoting 18
etc. 18
proposal. 18
Saf@@ 18
Sant@@ 18
tice 18
naturally 18
reno@@ 18
shaped 18
hex@@ 18
form. 18
arterial 18
and-@@ 18
history, 18
hour. 18
207 18
rea 18
pieces 18
bab@@ 18
definit@@ 18
contin@@ 18
mg/ml 18
ark 18
esom@@ 18
pressu@@ 18
prime 18
17, 18
cloudy, 18
rele@@ 18
Lap@@ 18
Stockholm 18
chi@@ 18
r.@@ 18
57 18
defects 18
mad@@ 18
mm 18
mun@@ 18
army 18
opi@@ 18
lep@@ 18
astern 18
plays 18
6.2 18
Nobivac 18
ifi@@ 18
mg/l 18
foods 18
intim@@ 18
ical, 18
sor 18
calici@@ 18
800,000 18
demands 18
chains 18
horiz@@ 18
wed 18
tric@@ 18
Bet@@ 18
oxone 18
preced@@ 18
elimin@@ 18
women@@ 18
gover@@ 18
antibiotics. 18
anticip@@ 18
instrument 18
single-@@ 18
worldwide 18
ba 18
Sha@@ 18
ss 18
revis@@ 18
ration@@ 18
simil@@ 18
guaranteed 18
grow 18
Len@@ 18
expec@@ 18
drin@@ 18
offers 18
path 18
fiv@@ 18
cohe@@ 18
Ros@@ 18
tured 18
Cre@@ 18
containers 18
thetic 18
gap 18
scenari@@ 18
implement@@ 18
burden@@ 18
pu@@ 18
purch@@ 18
quality. 18
servic@@ 18
glycosidic 18
explan@@ 18
laun@@ 18
ap 18
Austri@@ 18
l'Avi@@ 18
om, 18
allocated 18
yours. 18
PC 18
METHOD 18
custom@@ 18
ann 18
b, 18
Pat@@ 18
withdraw 18
Turkey 18
ANO@@ 18
technolog@@ 18
pitting 18
Egyp@@ 18
ethnic 18
tures 18
Soci@@ 18
comment 18
2008 18
exclus@@ 18
companies, 18
Barro@@ 18
wife 18
of, 18
suddenly 18
page 18
costs. 18
inqu@@ 18
batter@@ 18
ud 18
(cells 18
effective, 18
rog@@ 18
disput@@ 18
arrested 18
ust, 18
freedom 18
alarm@@ 18
mercury 18
them? 18
powers 18
felt 18
trading 18
construc@@ 18
tank@@ 18
drivers 18
ethical 18
sport@@ 18
famous 18
perfectly 18
cigarett@@ 18
operators 18
Air 18
flights 18
voting 18
-friend@@ 18
accident. 18
lands 18
dictator@@ 18
denied 18
currency 18
writing. 18
answered 18
dialogu@@ 18
holid@@ 18
Balk@@ 18
conflic@@ 18
basis, 18
negotiations 18
uranium 18
cast 18
Have 18
es’ 18
island 18
comments 18
export@@ 18
Palestinian 18
ishing 18
Indones@@ 18
pip@@ 18
erger 18
friend@@ 18
us? 18
abduc@@ 18
Be 18
money@@ 18
6/98) 18
ø@@ 17
pharyngitis 17
Combivir 17
zidovud@@ 17
delay. 17
(8@@ 17
age-@@ 17
WHO 17
abov@@ 17
6%) 17
ogenetic 17
(18@@ 17
recor@@ 17
mph@@ 17
NSAID 17
pruritus 17
tle 17
(15 17
analysis, 17
17.@@ 17
acetylsalicylic 17
INO@@ 17
O, 17
intensity 17
QT 17
Agency's 17
immunoglobulin 17
anaphylactic 17
plase 17
0.8@@ 17
5%) 17
arm, 17
Program@@ 17
× 17
(N 17
rashes 17
ratios 17
somnolence, 17
together, 17
letters 17
clott@@ 17
130 17
amen@@ 17
models 17
pation 17
alfa. 17
LY@@ 17
CYP2D@@ 17
saquinavir 17
ritonavir, 17
nM@@ 17
exacerbation 17
restriction 17
great@@ 17
inary 17
kg/week) 17
itive 17
penicill@@ 17
estim@@ 17
glycer@@ 17
111 17
HBe@@ 17
adefovir 17
fibrozil 17
intermedi@@ 17
CN@@ 17
intravitreal 17
Lucentis 17
comparing 17
3%) 17
320 17
promotes 17
2.6 17
azol@@ 17
disease-modifying 17
azole 17
enzym@@ 17
e/@@ 17
delay@@ 17
Sprimeo 17
ded@@ 17
two-year 17
granul@@ 17
sted 17
LDL-@@ 17
ic/ 17
15.@@ 17
ard) 17
FIRST 17
ility. 17
defic@@ 17
blurred 17
hypotension. 17
degrees 17
Italian 17
Dru@@ 17
Pharmacology 17
chemistr@@ 17
vide@@ 17
vec@@ 17
anxi@@ 17
(by 17
High 17
atitis, 17
conjunctivitis, 17
azep@@ 17
CI) 17
tively 17
Eudra@@ 17
fire@@ 17
(3.@@ 17
mineral 17
values. 17
valid@@ 17
°@@ 17
C). 17
castor 17
-resistant 17
reservo@@ 17
subst@@ 17
emphasis 17
pneumonitis, 17
etic 17
ribavir@@ 17
inhibitors, 17
away. 17
sinus 17
sants 17
Rules 17
vul@@ 17
permit@@ 17
loaded 17
ron 17
soun@@ 17
emergence 17
supported 17
cow@@ 17
Fos@@ 17
ary@@ 17
pharmacodynamic 17
reveal 17
Zen@@ 17
troph@@ 17
adolescent@@ 17
injectable 17
 17
135 17
conside@@ 17
2001. 17
VA 17
microspheres 17
proteinuria 17
analysed 17
ese, 17
posing 17
rists 17
Sinus@@ 17
rash) 17
liferative 17
dissemination 17
atives 17
edema@@ 17
pares@@ 17
sist@@ 17
aggres@@ 17
glas@@ 17
separated 17
Suomi/ 17
op 17
before@@ 17
Dep@@ 17
lock@@ 17
fold. 17
DG 17
appetite, 17
Diacomit 17
Stev@@ 17
night, 17
glycine, 17
hypoten@@ 17
deple@@ 17
lowing 17
lips 17
idence 17
oil, 17
(9 17
potassium-containing 17
substit@@ 17
oil@@ 17
allergies 17
vice 17
...... 17
Amster@@ 17
rob@@ 17
techneti@@ 17
en) 17
ain, 17
La 17
Chi@@ 17
Inhibitors 17
humanitarian 17
rifamp@@ 17
storage, 17
unc@@ 17
ivi@@ 17
neumon@@ 17
Improvement 17
attach@@ 17
4). 17
improves 17
monohydrate, 17
(E4@@ 17
Α@@ 17
Holdings 17
är@@ 17
SARL, 17
3A@@ 17
dark 17
breath, 17
ina, 17
text@@ 17
sigh@@ 17
thickening 17
ise. 17
abolic 17
ma, 17
memor@@ 17
seeing 17
Cat@@ 17
abs@@ 17
Increase 17
shire, 17
irrig@@ 17
thrombin@@ 17
dihydro@@ 17
pandemic 17
Regul@@ 17
rich@@ 17
dimen@@ 17
with: 17
Janu@@ 17
combinations 17
ez@@ 17
Lond@@ 17
alcohol, 17
chloro@@ 17
ula 17
immedi@@ 17
molecules 17
suspic@@ 17
compounds 17
Metalyse 17
Intr@@ 17
paras@@ 17
Systems 17
HIV@@ 17
glin@@ 17
enth 17
expose 17
facing 17
schedu@@ 17
protein. 17
coronary 17
artery 17
line@@ 17
locked 17
hil@@ 17
contrast@@ 17
go. 17
cure 17
25-@@ 17
blocker 17
for. 17
enz@@ 17
Neutro@@ 17
atel@@ 17
progenitor 17
ó 17
Vacc@@ 17
F. 17
Yttriga 17
PAC@@ 17
var@@ 17
/001 17
137/ 17
ept 17
broad 17
revised 17
events/ 17
worsen, 17
content. 17
>@@ 17
zinc 17
precise 17
decom@@ 17
pens@@ 17
chur@@ 17
expl@@ 17
GM 17
Turn 17
shire 17
Ath@@ 17
Copenhagen 17
Manufacturer: 17
Filgrastim 17
Sing@@ 17
bags 17
Tél@@ 17
mostly 17
conditions: 17
remov@@ 17
400@@ 17
shell 17
l'@@ 17
Well@@ 17
alised. 17
Cardoreg 17
oxib. 17
mann 17
loxacin 17
iliary 17
applied, 17
Ibra@@ 17
doctor@@ 17
gained 17
that@@ 17
Tacrolimus 17
first@@ 17
Parliament's 17
Parliament@@ 17
kidneys 17
removing 17
prefer@@ 17
preparing 17
asses 17
antifungal 17
Aspergill@@ 17
wounds 17
disappear@@ 17
ambient 17
operations 17
ived 17
TP 17
Lithuania, 17
1990@@ 17
dispenser 17
novel@@ 17
automatic 17
cautiously 17
za 17
holders 17
OTHER 17
diame@@ 17
galactose 17
protein) 17
Ultratard 17
WI@@ 17
extending 17
Ongoing 17
tyros@@ 17
alk@@ 17
transparent 17
[N 17
Ciprofloxacin 17
bac@@ 17
creating 17
darbepoetin 17
tural 17
rapid@@ 17
Meth@@ 17
sts, 17
acceptable, 17
iling 17
relief 17
natur@@ 17
soluble 17
transfus@@ 17
part, 17
task 17
Tas@@ 17
40-@@ 17
breeding 17
claimed 17
factory 17
Ranexa 17
Ombuds@@ 17
US@@ 17
cyclo@@ 17
Zyrtec 17
mechan@@ 17
ave 17
isers 17
noti@@ 17
ocr@@ 17
traum@@ 17
reve@@ 17
conclusions 17
Shire 17
Long 17
confidenti@@ 17
Tenofovir 17
e-mail 17
shell@@ 17
Report@@ 17
errors 17
send 17
legislation. 17
mand@@ 17
packaging. 17
ania, 17
effectively. 17
report@@ 17
sever@@ 17
transition 17
demand. 17
largest 17
cancers 17
cum@@ 17
fail 17
throw 17
rememb@@ 17
options 17
altogether 17
hibition 17
rail@@ 17
regulation. 17
consequences. 17
secu@@ 17
sourc@@ 17
closing 17
spor@@ 17
six-@@ 17
substanti@@ 17
uff@@ 17
surveys 17
aj@@ 17
Mari@@ 17
plat@@ 17
admitted 17
ask@@ 17
proven 17
missed 17
000. 17
commis@@ 17
house@@ 17
is? 17
remind 17
ain. 17
Atlantic 17
perfect 17
falsi@@ 17
happen, 17
hand. 17
follow. 17
crim@@ 17
unanim@@ 17
ean 17
supplies 17
explain@@ 17
alling 17
Twenty-@@ 17
checks 17
Natur@@ 17
weap@@ 17
tried 17
soldiers 17
town@@ 17
peace 17
So, 17
opposed 17
tragic 17
domestic 17
stock@@ 17
ground@@ 17
fraud 17
exec@@ 17
moun@@ 17
es'. 17
terrorists 17
Terro@@ 17
Mediterranean 17
Hungarian 17
ambi@@ 17
dump@@ 17
People 17
ning. 17
Albani@@ 17
Sum@@ 17
beef 17
ter? 17
girls 17
train 17
Anyone 17
important. 17
whereby 17
cast@@ 17
year-old 17
opt-@@ 17
book 17
freed@@ 17
GDP 17
China 17
summer 17
adox@@ 17
controversi@@ 17
deliber@@ 17
traged@@ 17
protection@@ 17
terrorist 17
fisheries 17
imports 17
touris@@ 17
Convention 17
farmer 17
now. 17
referendu@@ 17
confid@@ 17
nick@@ 17
forest 17
-in-@@ 17
genuine 17
assass@@ 17
undertake 17
discipl@@ 17
fraud@@ 17
foodstuffs 17
petro@@ 17
accused 17
selling 17
speaker 17
Chamb@@ 17
Category 17
remark@@ 17
will, 17
thers 17
MEP@@ 17
criminals 17
appoint@@ 17
Iran@@ 17
kilome@@ 17
red? 17
ement? 17
agus 17
speaking, 17
(A5-02@@ 17
Danmark 16
48@@ 16
Bir@@ 16
DK-2@@ 16
postpon@@ 16
(glucose) 16
ray 16
malnutrition 16
'(@@ 16
aesthesia 16
CNS 16
metast@@ 16
diagnostic 16
(in 16
trex@@ 16
celecoxib 16
ills 16
represented 16
ellul@@ 16
eves 16
interval@@ 16
cyto@@ 16
Privigen 16
Ari@@ 16
foot 16
ICH 16
Guidelines 16
molec@@ 16
cutting 16
hin@@ 16
ling. 16
aryngeal 16
vir 16
actively 16
accounting 16
tigo, 16
hallucin@@ 16
MRI 16
olol 16
swell@@ 16
min, 16
omas@@ 16
ated) 16
adalimumab 16
umab, 16
ziconotide 16
Os. 16
rasburic@@ 16
IV, 16
CYP1A2, 16
HT@@ 16
chron@@ 16
unknown, 16
atory, 16
mg/day), 16
51@@ 16
microgram/@@ 16
releasing 16
evident 16
indicates 16
institution 16
eczema, 16
random@@ 16
h/ 16
ids, 16
intolerant 16
anthrac@@ 16
Cancer 16
beta-1@@ 16
sclerosis, 16
alendron@@ 16
Lum@@ 16
Te 16
alin 16
leak@@ 16
-derived 16
hist@@ 16
single-dose 16
ugrel 16
Tarcev@@ 16
Liver 16
adiol 16
morph@@ 16
attributed 16
olic 16
110 16
Insul@@ 16
sweet@@ 16
(CYP@@ 16
inspections 16
thick@@ 16
pseud@@ 16
contributes 16
fertilit@@ 16
biotechnology 16
discolour@@ 16
insom@@ 16
Kaposi's 16
fist@@ 16
graduate 16
Dublin. 16
Mis@@ 16
Vien@@ 16
1993 16
Chem@@ 16
ferenc@@ 16
↔ 16
NSAID@@ 16
Need 16
Sm@@ 16
weakness@@ 16
reduced, 16
muscular 16
irrespective 16
handed 16
pressing 16
Applications 16
electroly@@ 16
bate 16
sant 16
ribos@@ 16
Por@@ 16
partners 16
ura 16
submitted: 16
methyl 16
discolour 16
dilu@@ 16
aplastic 16
orrha@@ 16
Post 16
reduction, 16
Der@@ 16
fur 16
sugges@@ 16
Significant 16
Packs 16
haematomas 16
Chronic 16
cervical 16
seg@@ 16
thrombocytopenia 16
purpur@@ 16
chaired 16
committees 16
applicant 16
sy. 16
Bio@@ 16
flushing, 16
exen@@ 16
mid-@@ 16
Repe@@ 16
toxicity, 16
sof@@ 16
er; 16
4%) 16
side-effects 16
Ir@@ 16
wheez@@ 16
well, 16
ton. 16
enhanc@@ 16
adversely 16
sper@@ 16
contribution 16
adalafil 16
Infectious 16
fibrill@@ 16
weighed 16
ably. 16
dex 16
iod@@ 16
War@@ 16
Fuzeon 16
ster, 16
ulcer, 16
omyel@@ 16
fatality, 16
Interactions 16
Aclasta 16
acin 16
bowel 16
borderline 16
immunosuppressive 16
ashes 16
ote 16
fluo@@ 16
-term 16
eutic@@ 16
shop 16
15, 16
Crohn@@ 16
fibr@@ 16
Dodge 16
radioactivity 16
Tan@@ 16
Two 16
withdraw@@ 16
Update 16
iving 16
knowledg@@ 16
IA 16
MU@@ 16
resist@@ 16
valpro@@ 16
vet@@ 16
fit@@ 16
Compared 16
ways, 16
tness 16
osis@@ 16
regression 16
Royal 16
ons. 16
veterin@@ 16
fec@@ 16
dn@@ 16
entation 16
Estate 16
tos 16
torate 16
(13@@ 16
progest@@ 16
Musculoskeletal 16
°C) 16
region, 16
Director 16
BO@@ 16
choler@@ 16
Neulasta 16
prefilled 16
facil@@ 16
bottle@@ 16
Duration 16
Like 16
rhin@@ 16
scale, 16
egg 16
dural 16
SA. 16
Portu@@ 16
6676 16
Baltic 16
+370 16
atan 16
inflammation, 16
uria, 16
al/ 16
glioma 16
med, 16
ovary 16
n't 16
ater@@ 16
thiazide 16
lic 16
IX. 16
stay 16
recept@@ 16
cephal@@ 16
ester@@ 16
tor. 16
affec@@ 16
'and 16
neuri@@ 16
puber@@ 16
(44-20) 16
mail@@ 16
Strasse 16
requests 16
sector. 16
manual 16
Swit@@ 16
mepi@@ 16
characteris@@ 16
junc@@ 16
Metformin 16
incretin 16
atroph@@ 16
reaction). 16
insert 16
certain@@ 16
short-@@ 16
Pop@@ 16
FOSA@@ 16
suppor@@ 16
scheduled 16
tioned 16
important, 16
of< 16
expected. 16
goals 16
recommen@@ 16
usage, 16
need. 16
pepti@@ 16
curren@@ 16
— 16
imatin@@ 16
220 16
itis) 16
§, 16
Diskus 16
NT 16
+351 16
shiel@@ 16
fructose 16
ultras@@ 16
zonisamide 16
recur 16
LA@@ 16
dicul@@ 16
thumb 16
specific, 16
uncontrolled 16
metastatic 16
denafil 16
tising 16
EU/0/00/000/000 16
/004 16
Tablet@@ 16
(S) 16
EU/1/08/464@@ 16
EU/1/08/465@@ 16
98/ 16
lay@@ 16
freez@@ 16
exists. 16
{MM/ 16
S.@@ 16
Bla@@ 16
rightly 16
sulphonam@@ 16
ps. 16
Fendrix 16
entan@@ 16
Mat@@ 16
88@@ 16
Flex@@ 16
Fol@@ 16
Operation 16
Rapporteur@@ 16
Latvi@@ 16
calib@@ 16
ā@@ 16
Jean-@@ 16
REYATAZ 16
maybe 16
-8@@ 16
ered. 16
ž 16
____________________@@ 16
genes 16
arel@@ 16
fill@@ 16
Vice-@@ 16
At@@ 16
e-mail@@ 16
imesulide 16
viv@@ 16
variable 16
risk-benefit 16
prohibited 16
second-@@ 16
element 16
Alert 16
theore@@ 16
direction 16
Altern@@ 16
barrier 16
bud@@ 16
insufficiency. 16
carers 16
forward. 16
Of@@ 16
but, 16
magnes@@ 16
justification 16
Infanrix 16
tane@@ 16
chamb@@ 16
ome 16
toral 16
Kingdom@@ 16
himself 16
chicken@@ 16
Sep@@ 16
usual. 16
DE 16
quick@@ 16
CELSENTRI 16
Yttrium 16
west 16
cen@@ 16
ok 16
Do@@ 16
rose 16
KG 16
Vit@@ 16
2000, 16
review@@ 16
EEIG 16
stin@@ 16
necessity 16
conversion 16
inevit@@ 16
interrupted 16
massive 16
characteristics. 16
degraded 16
Caucas@@ 16
ables 16
spac@@ 16
subject@@ 16
ir, 16
Ul@@ 16
ers; 16
dan@@ 16
innovative 16
omin@@ 16
ared 16
established, 16
fatten@@ 16
Proce@@ 16
actor 16
weaker 16
views 16
corresponds 16
wanted 16
sing. 16
criteri@@ 16
serotype 16
Fra@@ 16
Labelling 16
obtaining 16
option 16
institu@@ 16
appeal 16
neglig@@ 16
Mas@@ 16
Pierre 16
anese 16
Ze@@ 16
committed 16
known, 16
piec@@ 16
Adult 16
gest 16
sodium, 16
whenever 16
coffe@@ 16
Sug@@ 16
the-@@ 16
surg@@ 16
ope 16
ined 16
emed 16
ported 16
HIV, 16
ites 16
worth@@ 16
itors 16
infrastructure 16
state. 16
bonds 16
eting 16
hung@@ 16
Slovak 16
expendit@@ 16
news 16
lifestyle 16
discuss 16
FC@@ 16
operator 16
substance(s) 16
world, 16
Super@@ 16
missions 16
race 16
wishes 16
evol@@ 16
term, 16
skills 16
Spot-on 16
mine 16
ASE@@ 16
attenuated 16
o? 16
HUMALOG 16
desir@@ 16
atives. 16
ania 16
nearly 16
Otherwise, 16
while, 16
ners 16
organiz@@ 16
2010 16
ning, 16
abortion 16
closer 16
ety. 16
scrap@@ 16
balanc@@ 16
with. 16
story 16
simpl@@ 16
territor@@ 16
earli@@ 16
houses 16
safeguar@@ 16
another. 16
igno@@ 16
hundreds 16
refuge@@ 16
dies 16
tonnes. 16
mere 16
disaster 16
haul@@ 16
tack@@ 16
impres@@ 16
gious 16
'S@@ 16
pun@@ 16
sport 16
over, 16
cover@@ 16
devast@@ 16
vation 16
disappoint@@ 16
Parliament. 16
Votes 16
leaders 16
businesses 16
interesting 16
bureaucracy. 16
opposition 16
jeop@@ 16
democ@@ 16
passeng@@ 16
privileg@@ 16
safe, 16
sions. 16
advertising 16
commerci@@ 16
are. 16
dies@@ 16
passenger 16
driver 16
wonder 16
taken, 16
And@@ 16
manip@@ 16
NATO 16
victim 16
grand@@ 16
dom 16
crop@@ 16
Wine 16
inhabitants 16
weather 16
ECU 16
issue. 16
instrum@@ 16
losses 16
entitled 16
distor@@ 16
ion? 16
Hung@@ 16
crimin@@ 16
teen@@ 16
cost-@@ 16
livestock 16
collapse 16
secut@@ 16
landfill 16
grac@@ 16
aims 16
homosex@@ 16
Gaz@@ 16
customs 16
director@@ 16
negotiating 16
sman 16
-and-@@ 16
newspap@@ 16
ated? 16
proposing 16
major@@ 16
Despite 16
strateg@@ 16
Eor@@ 16
place@@ 16
le? 16
report? 16
ded? 16
(A4-016@@ 16
adrenaline 15
recently, 15
yourself. 15
sulfon@@ 15
dietary 15
pertussis 15
arthri@@ 15
56% 15
VE 15
HER@@ 15
alendronate 15
2%, 15
Cyanok@@ 15
thigh 15
rosis. 15
37.@@ 15
arrhyth@@ 15
ender 15
alopecia, 15
fatal. 15
cytarabine 15
5'-@@ 15
infiltr@@ 15
steroid 15
(AC@@ 15
Kaplan-Meier 15
Figure 15
TN@@ 15
27.@@ 15
excretion. 15
Fron@@ 15
secon@@ 15
tremor, 15
ard. 15
⋅ 15
atio 15
partnership 15
hepar@@ 15
Otherwise 15
concern. 15
plasma, 15
overdose, 15
specially 15
aminogly@@ 15
yc@@ 15
encies, 15
corticosteroids. 15
kidne@@ 15
amino@@ 15
11.@@ 15
5.3). 15
depart@@ 15
INVE@@ 15
adal@@ 15
erec@@ 15
embol@@ 15
tended 15
latent 15
ocardi@@ 15
CYP2C19, 15
Rey@@ 15
5; 15
AUC) 15
neumococcal 15
Form 15
esis, 15
catabolism 15
(‘ 15
Cmin 15
HPV-@@ 15
dipivox@@ 15
lipoprotein 15
lipo@@ 15
DMAR@@ 15
IMP@@ 15
FIRMAGON 15
disability 15
suggestive 15
chemotherapy, 15
lung@@ 15
cough@@ 15
paralysis 15
Eye 15
application, 15
GANFORT 15
pregnanc@@ 15
air. 15
hoc 15
volunte@@ 15
)) 15
cyste@@ 15
184@@ 15
selection 15
complement@@ 15
AUC0@@ 15
meal. 15
Rasilez 15
Riprazo 15
nilotinib 15
Seven 15
(DV@@ 15
juvenile 15
phal@@ 15
mouth. 15
bed. 15
aphane) 15
crushed, 15
agen 15
undergoes 15
um) 15
attributable 15
SUR@@ 15
atinib 15
__@@ 15
anaemia, 15
Cour@@ 15
Between 15
Heal@@ 15
1985 15
epidemi@@ 15
cellular 15
Laboratory 15
Irel@@ 15
multin@@ 15
rap 15
monitor@@ 15
Thus 15
ten. 15
post-operative 15
TW@@ 15
ard, 15
reversal 15
volu@@ 15
tiredness 15
ousness 15
through@@ 15
ep 15
eli@@ 15
ior 15
ophobia, 15
conjunctival 15
bisphosphon@@ 15
fluor@@ 15
0.9 15
Warfarin 15
erythem@@ 15
Ery@@ 15
Vari@@ 15
injury, 15
ab, 15
antic@@ 15
myelo@@ 15
limit. 15
documents. 15
penetrate 15
ways. 15
Losartan 15
conclusion 15
respectively 15
hydrogen@@ 15
anth@@ 15
pression, 15
Win@@ 15
pancyt@@ 15
fain@@ 15
cope 15
orth@@ 15
virologic 15
Ras@@ 15
orig@@ 15
gut 15
haemarthro@@ 15
donors 15
begun 15
CMV 15
conclude 15
cholest@@ 15
tening 15
Decre@@ 15
rate, 15
TEL@@ 15
39% 15
asone 15
Exper@@ 15
mes 15
Pac@@ 15
mutagen@@ 15
TRAVATAN 15
complications. 15
Subsequ@@ 15
alfa-2b, 15
pens. 15
Cle@@ 15
emea.@@ 15
----------------@@ 15
s.@@ 15
Emselex 15
Cel@@ 15
fati@@ 15
taken. 15
cluding 15
AV@@ 15
workload 15
considering 15
jec@@ 15
aphy@@ 15
neutropenic 15
Respon@@ 15
take: 15
Signs 15
anxiety 15
ered 15
EMEA/@@ 15
Κ@@ 15
facilitate 15
he/ 15
temperature. 15
12. 15
interruption 15
congestion 15
counts, 15
Gra@@ 15
London. 15
Univer@@ 15
2004. 15
cartridges. 15
depri@@ 15
Docum@@ 15
inet@@ 15
Phil@@ 15
info@@@ 15
qualification 15
Authorisation(s) 15
Netherlands. 15
ody 15
spoon@@ 15
micrograms, 15
Dou@@ 15
constipation, 15
Fa@@ 15
tho 15
Mel@@ 15
pain) 15
Urine 15
x1 15
HE@@ 15
Mono@@ 15
administered, 15
DuoTrav 15
Shelf-life 15
ecological 15
kines@@ 15
rexia, 15
gastro@@ 15
bol@@ 15
m-cresol, 15
isomer@@ 15
Effect 15
shortness 15
menstrual 15
ying, 15
Bl@@ 15
surface, 15
tests. 15
sh 15
(shock) 15
H). 15
eye: 15
Pharmacodynamic 15
FORSTE@@ 15
an's 15
VII@@ 15
ABILIFY 15
Hungary 15
Guid@@ 15
acchar@@ 15
vej 15
incineration 15
4.8. 15
receptors, 15
ote@@ 15
Sor@@ 15
ruption 15
os. 15
oestro@@ 15
opening. 15
ordin@@ 15
SCH@@ 15
WE@@ 15
Resistance 15
79@@ 15
len 15
doses) 15
lights 15
ativ@@ 15
ercept 15
Silapo 15
wiped 15
stopped, 15
supervision. 15
CRIXIV@@ 15
accompanying 15
typical 15
suspended 15
notify 15
ons, 15
ne. 15
entecavir 15
HAAR@@ 15
Cardiac 15
InductOs 15
removed. 15
stopper. 15
2007, 15
endor@@ 15
carb@@ 15
pare 15
plement@@ 15
changed. 15
vehicles. 15
ulin@@ 15
ls, 15
converting 15
channel 15
preserved 15
ene, 15
phenothiaz@@ 15
Att@@ 15
ling@@ 15
blisters) 15
426/ 15
95/ 15
protoc@@ 15
surge@@ 15
ps, 15
bubbles 15
carefully, 15
ha 15
carbon@@ 15
vaccine@@ 15
Alc@@ 15
Lane 15
Hav@@ 15
ve: 15
focused 15
exercising 15
NEVER 15
bottle, 15
ki 15
syringe. 15
bottles 15
anti- 15
Pregn@@ 15
clothing 15
sty@@ 15
rue 15
Activel@@ 15
asthen@@ 15
aes@@ 15
metabolism, 15
°C. 15
Green 15
White, 15
coma, 15
info@gsk@@ 15
elig@@ 15
newly 15
integrated 15
concern@@ 15
gon@@ 15
analogue 15
pointed 15
lus@@ 15
ses@@ 15
structur@@ 15
starts 15
4-91 15
Association 15
Tylvalosin 15
Secretariat 15
HIV. 15
issues, 15
pack, 15
labor@@ 15
clospor@@ 15
lit 15
cleared 15
Xeom@@ 15
arabine 15
Vectibix 15
measure. 15
failed 15
ators. 15
etan@@ 15
consen@@ 15
molecule 15
mandate 15
substitute 15
donor 15
5-fold 15
sulfate 15
INC@@ 15
Immun@@ 15
Infec@@ 15
Escherichia 15
Infusion 15
Vimpat 15
Aerius 15
1%). 15
haemodi@@ 15
changed, 15
cov@@ 15
TE 15
val 15
nica 15
duoden@@ 15
Á@@ 15
Italia 15
materials. 15
Ris@@ 15
inser@@ 15
Absolute 15
otox@@ 15
potential. 15
laugh@@ 15
shado@@ 15
meti@@ 15
l/ 15
often, 15
Plus 15
exceeds 15
Tun@@ 15
metabolism. 15
compl@@ 15
(The 15
smoking, 15
tamper@@ 15
expan@@ 15
je 15
hydroxy-@@ 15
inib 15
Simultaneous 15
improvement. 15
weighing 15
fourth 15
cigarettes 15
sheep@@ 15
interpretation 15
automatically 15
gas@@ 15
cub@@ 15
Annex@@ 15
lys@@ 15
rolling 15
135@@ 15
principal 15
reform 15
regulator 15
was@@ 15
substitutions 15
standardis@@ 15
inhibitors) 15
quarters 15
wed@@ 15
cyanide 15
aberration 15
risk/ 15
Rotigotine 15
vig@@ 15
Mann@@ 15
VIRACEPT 15
Sand@@ 15
reviewed 15
ames 15
driven 15
tionary 15
cigarette 15
ury. 15
entirely 15
risen 15
dynam@@ 15
Dy@@ 15
aked 15
rif@@ 15
Recon@@ 15
pedi@@ 15
stage. 15
institutions. 15
ruled 15
("@@ 15
art 15
being, 15
151 15
enveloped 15
introducing 15
thinks 15
themselves, 15
(3) 15
tory 15
elder@@ 15
apply. 15
blistered 15
belong 15
diab@@ 15
divis@@ 15
updat@@ 15
arom@@ 15
fied, 15
F-69800 15
hibi@@ 15
dangerous. 15
ck@@ 15
Ku@@ 15
incorrect 15
sla@@ 15
handled 15
analyse 15
remin@@ 15
added. 15
recycl@@ 15
alls 15
African 15
bid@@ 15
ith 15
6/@@ 15
tanks 15
Hampshire 15
docum@@ 15
diagnos@@ 15
table, 15
grant@@ 15
notification 15
ful. 15
Synagis 15
ensuring 15
afraid 15
valued 15
Regulations 15
done, 15
worse, 15
better. 15
woman, 15
holiday 15
mits 15
decline 15
Effective 15
references 15
define 15
participants 15
tool 15
Let. 15
feeding@@ 15
nobody 15
print 15
Tηλ.: 15
summit@@ 15
ury 15
doz@@ 15
compreh@@ 15
consequenc@@ 15
advertis@@ 15
tend 15
flame 15
bureauc@@ 15
symb@@ 15
sentenced 15
taxes 15
celebr@@ 15
cock@@ 15
temp@@ 15
describe 15
found@@ 15
kilometres 15
exceptions 15
workplace 15
decl@@ 15
look@@ 15
USD 15
coast 15
barbar@@ 15
conflict 15
murde@@ 15
ani 15
urban 15
schools 15
territ@@ 15
Tobacco 15
doct@@ 15
feder@@ 15
Nap@@ 15
stands 15
crime 15
arrive 15
iff 15
reply 15
spok@@ 15
hotel 15
sive, 15
hectares 15
that? 15
honour@@ 15
imported 15
treaty 15
prisoner 15
regar@@ 15
sports 15
trium@@ 15
philosoph@@ 15
bank@@ 15
OEC@@ 15
olive 15
requis@@ 15
secret 15
fighting 15
hab@@ 15
Austrian 15
rural 15
ultimately 15
cloning 15
Iran 15
jour@@ 15
lement 15
wrong@@ 15
immigrants 15
expor@@ 15
asbe@@ 15
gentle@@ 15
unfortunate 15
directive, 15
right. 15
wants 15
oks 15
trust 15
provoc@@ 15
infl@@ 15
Iraq 15
wron@@ 15
condemned 15
ongside 15
Islamic 15
dangerous, 15
plain@@ 15
illeg@@ 15
proposal, 15
minor@@ 15
WTO 15
others, 15
question. 15
forces 15
say: 15
whis@@ 15
detention 15
come, 15
er! 15
then? 15
impose 15
that! 15
Strasbourg 15
-year-old 15
ski 15
ither 15
tive? 15
advant@@ 15
preliminary 15
What@@ 15
year? 15
Any@@ 15
augh@@ 15
94 14
Wil@@ 14
DK@@ 14
disinfect@@ 14
diphther@@ 14
implanted 14
CVMP@@ 14
hypox@@ 14
entered 14
mg). 14
etc@@ 14
joint@@ 14
alte@@ 14
dehydration, 14
situations. 14
ated@@ 14
mig@@ 14
Helicobacter 14
synthes@@ 14
Prof@@ 14
alopec@@ 14
complete, 14
proteins, 14
dasatinib 14
brady@@ 14
malignancies 14
fibrin@@ 14
zap@@ 14
insomnia, 14
enoxaparin 14
Norm@@ 14
GIST 14
otoxicity 14
survived 14
brain, 14
rency, 14
irac@@ 14
small, 14
aptanib 14
0.9@@ 14
H-@@ 14
128 14
infusion@@ 14
significantly. 14
album@@ 14
filtr@@ 14
drowsiness, 14
add-on 14
field. 14
16% 14
patient-years 14
venlafaxine 14
program@@ 14
ulceration 14
11.1% 14
OPTR@@ 14
propor@@ 14
bodyweight 14
consti@@ 14
phosphatase 14
pioglitazone. 14
ophthal@@ 14
randomiz@@ 14
antibiotic 14
cholinergic 14
carbam@@ 14
ylase 14
subset 14
600@@ 14
530 14
Scale 14
anaesthe@@ 14
kg) 14
HPV-16 14
TORISE@@ 14
0.6 14
85@@ 14
ipo@@ 14
37/ 14
CD 14
Ka@@ 14
iser 14
Tasign@@ 14
relapses 14
47% 14
Betafer@@ 14
steady-@@ 14
glucocorticoid@@ 14
VTE 14
circulation 14
form, 14
mercur@@ 14
below). 14
Xol@@ 14
0.5@@ 14
sity, 14
rheumatic 14
eosinophil@@ 14
intranasal 14
aspart@@ 14
Invir@@ 14
consecutive 14
fat, 14
a/ 14
SIFRO@@ 14
vo 14
79 14
Diffe@@ 14
relax@@ 14
(to 14
450 14
pandem@@ 14
AUC@@ 14
variation 14
AU@@ 14
........@@ 14
20/ 14
burning 14
arily 14
gender, 14
inducers 14
CYP3A4, 14
}@@ 14
turi@@ 14
Servic@@ 14
Hospit@@ 14
1987, 14
director 14
join@@ 14
éné@@ 14
consultant 14
VER@@ 14
rocuronium 14
ade. 14
tigmine 14
lymphoblastic 14
zan@@ 14
submission 14
Meeting 14
Ask 14
2002, 14
1,7@@ 14
tes 14
collect 14
elap@@ 14
played 14
trib@@ 14
breast-fe@@ 14
REF@@ 14
polysaccharide 14
itol 14
hyperglycaemia 14
collabor@@ 14
induces 14
intern@@ 14
Summaries 14
ts: 14
glucagon 14
inase 14
anti-cancer 14
Ny@@ 14
nervousness, 14
Swine 14
intra@@ 14
TNF@@ 14
diffuse 14
p-value 14
imit@@ 14
pigment@@ 14
aber@@ 14
farm 14
relev@@ 14
tes@@ 14
blood-@@ 14
Elev@@ 14
abnormal@@ 14
agranulocyt@@ 14
iac 14
OB@@ 14
Diarrhoe@@ 14
Abdominal 14
PRCA 14
fluoroquinol@@ 14
Fern@@ 14
K) 14
TY@@ 14
sim@@ 14
pronounced 14
Multiple 14
thal@@ 14
probable 14
incontinence, 14
Ble@@ 14
hyperuric@@ 14
glyco@@ 14
agen@@ 14
rodents 14
foet@@ 14
HM@@ 14
vid@@ 14
sitagliptin 14
8. 14
metabolite, 14
tubing 14
determination 14
phosphat@@ 14
omy@@ 14
Infections 14
Intron@@ 14
simultaneous 14
----------------------------------------------------------------@@ 14
--- 14
Sweden, 14
passage 14
preservative 14
Dam@@ 14
ographical 14
'(a 14
10) 14
oedema. 14
consistency 14
approach. 14
ion-@@ 14
Propos@@ 14
Driving 14
Application 14
Careful 14
Photosensitivity 14
lesion 14
Cros@@ 14
rats. 14
stent 14
oproliferative 14
Myel@@ 14
caution. 14
transmit@@ 14
(s) 14
itic 14
Monitoring 14
Discard 14
Genzyme 14
Lt@@ 14
SHARP 14
Str. 14
radiolabelling 14
Dr@@ 14
muscle@@ 14
assembly 14
motion 14
R. 14
aprepit@@ 14
Gly@@ 14
flav@@ 14
sia 14
EID@@ 14
anaem@@ 14
neutrophil@@ 14
PhD 14
unde@@ 14
UK. 14
Barcelona 14
omas 14
46@@ 14
Corpor@@ 14
del 14
ska 14
ativity 14
alfa@@ 14
List 14
tering 14
mouthpiece 14
noea, 14
epistaxis, 14
Poly@@ 14
Mé@@ 14
selective, 14
trav@@ 14
Upon 14
unique 14
patches. 14
variations 14
ums 14
Gy@@ 14
ols, 14
perversion 14
opharyng@@ 14
maculopapular 14
(r@@ 14
Test@@ 14
Global 14
Chang@@ 14
runny 14
Park@@ 14
alli@@ 14
Efex@@ 14
Ant@@ 14
om. 14
paroxetine 14
brovascular 14
trouble 14
eczema 14
specifi@@ 14
cles, 14
eing 14
legs, 14
exhaust@@ 14
butt@@ 14
bleed@@ 14
(Seen 14
(itchy 14
fragile 14
Kon@@ 14
ink@@ 14
genicity 14
(EPAR). 14
Hepat@@ 14
Reproductive 14
failure@@ 14
sugar, 14
(905 14
FeLV 14
pharmacovigil@@ 14
Infection 14
aux@@ 14
stimulate 14
rises 14
cataly@@ 14
highlighted 14
experiences 14
about. 14
pregnancy, 14
presentations 14
conform@@ 14
Immunodeficiency 14
Greec@@ 14
argument 14
initiate 14
kg. 14
Vildagliptin 14
long-acting 14
prothrombin 14
antidote 14
develops 14
pylori 14
Transferring 14
plenty 14
spite 14
challenge 14
suggesting 14
saline 14
antacids 14
resolved. 14
Bond@@ 14
resto@@ 14
decision-@@ 14
hypoglycaemic 14
grant 14
EX 14
doses, 14
Child@@ 14
suffici@@ 14
breastfeeding 14
lymp@@ 14
Extavia 14
sement 14
gonadotroph@@ 14
The@@ 14
intra-@@ 14
Sik@@ 14
ß@@ 14
tained. 14
Fed@@ 14
Gliolan 14
matrix 14
heparin) 14
compromised 14
Epivir 14
relieve 14
drawn 14
ureth@@ 14
light-@@ 14
burning, 14
Placebo@@ 14
estimates 14
harvest@@ 14
atives, 14
oxide, 14
atal 14
subcutane@@ 14
post-menopausal 14
apone 14
photosensi@@ 14
0/ 14
/005 14
101 14
386/ 14
EU/1/98/069/00@@ 14
EU/1/98/070/00@@ 14
X/ 14
XX/ 14
XXX/ 14
Cri@@ 14
Cardiovascular 14
dehydr@@ 14
stretch 14
band@@ 14
patients: 14
preferred 14
e., 14
hydrate 14
6.1. 14
Oste@@ 14
enced 14
F-9@@ 14
da. 14
CHM@@ 14
indicator. 14
Cartridges 14
(Pro@@ 14
deliver 14
Investigations 14
transplan@@ 14
ratioph@@ 14
premis@@ 14
Wal@@ 14
Staff 14
risk, 14
Lithuania 14
ona 14
TRO@@ 14
FIN-0@@ 14
Eckenheimer 14
60318 14
femal@@ 14
Heart 14
hepatomegal@@ 14
Nas@@ 14
Rh@@ 14
disturbance 14
Smoking 14
neutral 14
cyclic 14
atislava 14
lets 14
CYSTAGON 14
BC 14
pathway 14
ity: 14
BV 14
blast 14
void 14
renc@@ 14
rand@@ 14
lots 14
peti@@ 14
haemorrha@@ 14
cot@@ 14
wool 14
Government 14
(FHV 14
Lda 14
Mid@@ 14
dysphonia, 14
pep@@ 14
nationally 14
components. 14
Eur@@ 14
Health@@ 14
Belgian 14
brief@@ 14
today. 14
Mit@@ 14
belonging 14
dementia. 14
antigen) 14
borne 14
blocked 14
promp@@ 14
SINGULAIR 14
emerge. 14
disproportion@@ 14
above. 14
manage 14
receives 14
ophy@@ 14
feed. 14
Not@@ 14
benefici@@ 14
special@@ 14
antibiotics, 14
cetirizine 14
lay 14
avail@@ 14
habit@@ 14
modifications 14
Latvia, 14
Norway, 14
gras@@ 14
Community, 14
challenges 14
West 14
Inc@@ 14
Optim@@ 14
TV 14
hospital, 14
Eating 14
(23 14
markedly 14
matter. 14
ANCE 14
+386 14
fluids 14
ú 14
ket 14
adapted 14
Ga@@ 14
burg 14
Ol@@ 14
computer@@ 14
enclosed 14
Farmacê@@ 14
contract@@ 14
Sus@@ 14
summarises 14
Cas@@ 14
VIR@@ 14
(International 14
Tam@@ 14
equip@@ 14
electron@@ 14
Norvir 14
typically 14
express 14
implants 14
aug@@ 14
ute. 14
chosen 14
/dexamethasone 14
seroton@@ 14
accessible 14
initially 14
teleph@@ 14
rooms 14
whole, 14
distal 14
pend@@ 14
Analysis 14
well-known 14
Pir@@ 14
individually 14
ad. 14
successfully 14
80% 14
questions. 14
specul@@ 14
depth 14
depend 14
damaged, 14
relate 14
architec@@ 14
amectin 14
pes@@ 14
Orfadin 14
word@@ 14
yme@@ 14
effort 14
B) 14
puri@@ 14
ot 14
{Name 14
{fa@@ 14
Reconcile 14
Bou@@ 14
chocol@@ 14
deeply 14
encouraging 14
accession 14
twenty 14
silic@@ 14
lying 14
puts 14
recruited 14
launched 14
alf@@ 14
s’. 14
illness@@ 14
ateral 14
(FR) 14
sts. 14
TM@@ 14
systematically 14
") 14
volati@@ 14
So@@ 14
50. 14
ounds 14
irs 14
differenc@@ 14
directions 14
mechanical 14
respective 14
OVIST 14
-off 14
Frequencies 14
she@@ 14
sely 14
propag@@ 14
virtu@@ 14
coverage 14
safety, 14
coordinated 14
ordinary 14
itted 14
fulfil 14
doctor’s 14
commod@@ 14
É@@ 14
stitute 14
relatives 14
generate 14
Looking 14
roughly 14
clinic 14
fifth 14
equipment, 14
safe. 14
GB@@ 14
scrutin@@ 14
agend@@ 14
poorly 14
Pen. 14
Poland 14
dou@@ 14
observe 14
Cher@@ 14
Mol@@ 14
Ram@@ 14
ée 14
Waarderweg 14
Lyon 14
Mex@@ 14
part-@@ 14
simple@@ 14
down, 14
save 14
subjected 14
Lisbon 14
OPAT@@ 14
ori 14
reserve 14
thy 14
Espoo/Esbo 14
DOSA@@ 14
iter@@ 14
kne@@ 14
bread 14
definitive 14
instructions. 14
intensive 14
possibil@@ 14
successful, 14
nel. 14
zones 14
family, 14
eless 14
May@@ 14
scientific@@ 14
andel@@ 14
tence 14
Soviet 14
Belar@@ 14
(alu) 14
tious 14
example: 14
alisation. 14
bever@@ 14
Union's 14
traordinary 14
commodity. 14
ches, 14
'? 14
registr@@ 14
sulphur 14
retire@@ 14
tonnes, 14
sidi@@ 14
prices. 14
successes 14
mium 14
p.m. 14
century 14
driver@@ 14
cohes@@ 14
ill-@@ 14
modern 14
agenda. 14
genu@@ 14
standard@@ 14
agreements 14
involved, 14
pers 14
bought 14
Afghanist@@ 14
refugees 14
cheap 14
marri@@ 14
-one 14
smil@@ 14
whatso@@ 14
Bis@@ 14
facts 14
inhabit@@ 14
tobacc@@ 14
fish, 14
sole 14
country@@ 14
women's 14
envisaged 14
Britain 14
Muslim@@ 14
volcan@@ 14
sit 14
Nothing 14
Greek 14
home. 14
ticle 14
attitude 14
comprehen@@ 14
olds 14
cloned 14
ake, 14
roads 14
t! 14
sentenc@@ 14
autum@@ 14
Has 14
blame 14
million, 14
cadmium 14
carro@@ 14
ext? 14
smuggl@@ 14
deal@@ 14
refin@@ 14
said@@ 14
Liber@@ 14
concrete 14
sense. 14
barome@@ 14
Cro@@ 14
India 14
ember, 14
again@@ 14
Coc@@ 14
murder 14
a' 14
seat 14
envis@@ 14
kidnapp@@ 14
who, 14
scapego@@ 14
work? 14
suggest@@ 14
earth 14
premi@@ 14
paying 14
result? 14
profits 14
strategy 14
foreign@@ 14
ever-@@ 14
bh@@ 14
ding@@ 14
opol@@ 14
ence? 14
Did 14
not? 14
in? 14
ments? 14
ency? 14
aeroplan@@ 14
age? 14
tions? 14
introduce 14
aircraf@@ 14
4-0@@ 14
market? 14
(A4-@@ 14
1/98) 14
/2001): 14
3/98) 14
5/2001) 14
(1) 13
102 13
swa@@ 13
gran@@ 13
instead@@ 13
discontinued. 13
abrup@@ 13
lopinavir/ 13
stopped. 13
required, 13
restart 13
cerebrovascular 13
3/@@ 13
arms. 13
anomal@@ 13
stead@@ 13
convulsions, 13
correspond 13
(SD) 13
levetiracetam 13
pilot 13
cess@@ 13
ZI@@ 13
circum@@ 13
Luver@@ 13
mem@@ 13
root 13
(CNS) 13
opathy, 13
arotene 13
rectal 13
aggression, 13
58% 13
event. 13
enfuvir@@ 13
nodes 13
des. 13
Copalia 13
varying 13
renic@@ 13
static 13
Liv@@ 13
durable 13
long. 13
homocy@@ 13
sufficient. 13
3.3 13
(from 13
past. 13
skin). 13
neonates 13
MS, 13
'that 13
babies 13
Myozyme 13
surveill@@ 13
ycin 13
management, 13
shock@@ 13
ofo@@ 13
attaches 13
disab@@ 13
0.02@@ 13
2.5@@ 13
bortezomib 13
myeloma 13
zoster 13
follow-@@ 13
transferases 13
ZO@@ 13
123 13
agitation, 13
omal@@ 13
partially 13
methotrex@@ 13
501 13
aspergillosis 13
baseline. 13
twelve 13
metfor@@ 13
NeoRecormon 13
extravas@@ 13
damage, 13
(5.@@ 13
(total 13
intrathecal 13
ison@@ 13
montelukast 13
insulin-@@ 13
oV@@ 13
years), 13
ovascul@@ 13
exacerbations 13
afungin 13
understood. 13
clus@@ 13
Scandin@@ 13
C/@@ 13
dl, 13
(0@@ 13
monthly 13
calicivirus 13
-day 13
our, 13
drops 13
2001, 13
8%) 13
documented 13
(p=@@ 13
(MM@@ 13
profiles 13
PT@@ 13
-containing 13
icy@@ 13
1.3 13
min) 13
44% 13
calorie 13
1,0@@ 13
-fat 13
Enbrel@@ 13
populations. 13
aliskiren 13
Tekturna 13
arcinogen@@ 13
gate 13
murine 13
amine. 13
antibody. 13
R-@@ 13
6), 13
ceftriax@@ 13
conaz@@ 13
inactive. 13
inhibiting 13
orlistat 13
Rem@@ 13
Hypericum 13
perforat@@ 13
AUTHORISATION@@ 13
learning 13
plasma. 13
advances 13
mechanism@@ 13
Agener@@ 13
Ken@@ 13
ologist 13
Brussels, 13
relations 13
bladder, 13
sessions 13
predictable 13
(up 13
PRI@@ 13
gol 13
oration 13
epith@@ 13
5.2 13
baby, 13
provider 13
oesopha@@ 13
reflu@@ 13
lun@@ 13
predicted 13
Internet. 13
Haemophilus 13
Neisseria 13
dis 13
ilis 13
stream@@ 13
Strauss 13
trial. 13
modul@@ 13
ould, 13
tract. 13
r, 13
Labor@@ 13
rency. 13
lessen 13
ellular 13
hepatitis, 13
upri@@ 13
map@@ 13
Herpes 13
foli@@ 13
ae, 13
generalised 13
adjunc@@ 13
closu@@ 13
presentation 13
mucous 13
biotechnolog@@ 13
thrombocyt@@ 13
e.g. 13
cler@@ 13
nephrotic 13
SSRI@@ 13
's. 13
epileptic 13
ity) 13
mycophenolate 13
new-@@ 13
asymptom@@ 13
G-@@ 13
/4@@ 13
ventricular 13
contacts 13
newly-diagnosed 13
or-@@ 13
attempting 13
vastat@@ 13
randomised, 13
aer@@ 13
n=@@ 13
valdec@@ 13
paralys@@ 13
jaun@@ 13
cramp@@ 13
adol@@ 13
atic, 13
icon@@ 13
lipid 13
medications 13
exercise, 13
ria, 13
conducted. 13
Long@@ 13
CYP2C9 13
micronucle@@ 13
foetus. 13
atrial 13
lysis 13
devices 13
buprenorphine 13
ascular 13
ribavirin, 13
Virafer@@ 13
--------@@ 13
YYYY} 13
org 13
Benz@@ 13
ulcerative 13
ifen@@ 13
diseases) 13
myopathy, 13
ocyte 13
observations 13
naive 13
ACE@@ 13
volum@@ 13
syring@@ 13
fluctuations 13
kidneys. 13
Macu@@ 13
format 13
mandatory 13
hiv@@ 13
disorders), 13
Gad@@ 13
pale 13
letharg@@ 13
papil@@ 13
ire@@ 13
oglobin@@ 13
GIST@@ 13
acid. 13
tired 13
Houtenlaan 13
1381 13
proxim@@ 13
gle 13
blephar@@ 13
Progres@@ 13
SS) 13
DOHME 13
GMBH 13
4561 13
2612 13
Infocenter@msd. 13
nucle@@ 13
(these 13
participate 13
adopt 13
Tw@@ 13
Emp@@ 13
VI 13
gricul@@ 13
decreased, 13
ysis, 13
Ef@@ 13
tricit@@ 13
SE) 13
ands, 13
below@@ 13
dabig@@ 13
transport@@ 13
heartbe@@ 13
attention, 13
sucrase-isomaltase 13
University. 13
over. 13
pharmaceuticals 13
TIVE 13
Potassium 13
Tél: 13
Dox@@ 13
02 13
ARS 13
Therapeutic 13
COMM@@ 13
(EC) 13
oestrogen 13
alleviate 13
cirrhosis, 13
cramps 13
indop@@ 13
March@@ 13
ane, 13
stone 13
TIN@@ 13
Minister 13
drops, 13
oprost 13
ids. 13
phenyto@@ 13
correct. 13
Dynastat 13
rhinitis, 13
34-@@ 13
ECALTA 13
farms 13
Educ@@ 13
Fil@@ 13
Ó@@ 13
182 13
estonia@gsk.com 13
667 13
11-@@ 13
401 13
hepatic, 13
interest, 13
sta@@ 13
Ceplene 13
tear 13
tenecte@@ 13
shift 13
Thrombo@@ 13
elimination. 13
cium 13
PV 13
pox 13
tissues. 13
thel@@ 13
Let@@ 13
sidase 13
childhood 13
exerc@@ 13
mill@@ 13
mild, 13
analges@@ 13
wild@@ 13
structures 13
eudra@@ 13
ires 13
ach, 13
berg 13
heads 13
acknowledged 13
exclusively 13
projects. 13
Technolog@@ 13
follow-up@@ 13
ecit@@ 13
gluc@@ 13
11% 13
drugs, 13
encouraged 13
rinse 13
Transfer 13
epo@@ 13
resolv@@ 13
Panretin 13
necess@@ 13
scler@@ 13
datab@@ 13
{INVENTED 13
mothers. 13
diuretic@@ 13
CA@@ 13
Creat@@ 13
unt 13
corrected 13
RIX 13
DP@@ 13
otropic 13
Ensure 13
ally@@ 13
barrels 13
column 13
support, 13
formed, 13
simplex 13
explain 13
intoxic@@ 13
YMDD 13
follitropin 13
spreading 13
calicivirosis 13
acids, 13
firmly 13
Prime 13
rex@@ 13
caem@@ 13
relapsing-remitting 13
Aden@@ 13
filgrastim@@ 13
pt 13
Km 13
f-@@ 13
inappropriate 13
7%), 13
otor 13
CRF 13
foref@@ 13
fluctu@@ 13
OD@@ 13
029 13
341/ 13
NUMB@@ 13
EU/1/99/1@@ 13
ultr@@ 13
tight 13
Fl@@ 13
phosphok@@ 13
Too 13
olu@@ 13
trometam@@ 13
histid@@ 13
Examples 13
compensated 13
itrac@@ 13
Martin 13
1995. 13
ra, 13
fracture. 13
Es@@ 13
oud@@ 13
Catal@@ 13
ton, 13
Bol@@ 13
SUBSTANCE(S) 13
300@@ 13
ror 13
per. 13
Rhinotracheitis 13
104.9 13
strains)@@ 13
emo@@ 13
restim@@ 13
attach 13
Fle@@ 13
handle 13
burg. 13
MAC@@ 13
compres@@ 13
Holland 13
Lat@@ 13
Slovakia 13
Landstraße 13
Frankfurt 13
lactat@@ 13
injection-site 13
desire 13
vent 13
Psychiatric 13
card. 13
feet 13
Hard 13
gold 13
green@@ 13
saliv@@ 13
nature. 13
Enter@@ 13
sulphonylurea 13
stimulation 13
utropin 13
cultures 13
wind@@ 13
-fe@@ 13
Pet@@ 13
ham, 13
uro 13
proceedings 13
restructuring 13
blister. 13
Intrav@@ 13
Journal 13
England 13
Growth 13
kal@@ 13
ifene 13
ind@@ 13
division 13
atom 13
growth. 13
considers 13
Subst@@ 13
hyperstimulation 13
3), 13
reminded 13
remembered 13
Card 13
Telmisartan 13
receptor. 13
ute@@ 13
Cholestag@@ 13
etoric@@ 13
casting 13
Stand@@ 13
CIALIS 13
adequ@@ 13
atically 13
plen@@ 13
visually 13
crises 13
fever@@ 13
swallow 13
suc@@ 13
Gaul@@ 13
breathe 13
probenecid 13
5.0 13
sevoflurane 13
plasma-derived 13
disappears. 13
Estonia, 13
fibrin 13
babies. 13
position. 13
Sirolimus 13
Patients) 13
ermin 13
irregular@@ 13
Repeatedly 13
tender@@ 13
Nause@@ 13
iodine 13
allergies. 13
John@@ 13
Integr@@ 13
INSTRUC@@ 13
neph@@ 13
Last 13
Ljubljana 13
suscepti@@ 13
biom@@ 13
nominal 13
(0)8 13
+39 13
iche@@ 13
AB, 13
deli@@ 13
regulation, 13
dedicated 13
boost@@ 13
vac@@ 13
ski@@ 13
desloratadine 13
Produtos 13
utic@@ 13
ylated 13
hypoc@@ 13
Individual 13
veness 13
search 13
meaning@@ 13
PHARMA 13
nitrogen 13
phase. 13
distribution, 13
pathogens 13
resus@@ 13
Nplate 13
clarified. 13
alcoholic 13
azosin 13
depends 13
notably 13
Rit@@ 13
leader 13
Gam@@ 13
–@@ 13
12% 13
hr 13
Leave 13
solvents 13
Tritazide 13
rus 13
widespread 13
death, 13
weigh 13
prophylactic 13
ney 13
medium-sized 13
donated 13
preventive 13
enrich@@ 13
institutional 13
strug@@ 13
antimicrobial 13
involv@@ 13
arbit@@ 13
crisis, 13
Osi@@ 13
helped 13
Protop@@ 13
requ@@ 13
Slovakia, 13
labels 13
lip 13
aving 13
ī@@ 13
Latvijā 13
discovered 13
restrict 13
Characteristic, 13
Neurontin 13
dure 13
supervisory 13
successful@@ 13
ellite 13
support. 13
incident 13
help. 13
reinforced 13
Protec@@ 13
males 13
(7.5 13
institution@@ 13
iqu@@ 13
arbitr@@ 13
subjec@@ 13
40, 13
schizophren@@ 13
compart@@ 13
poultry 13
procedures. 13
OptiClik. 13
termed 13
records 13
pattern@@ 13
powered 13
Waste 13
shortcom@@ 13
maiz@@ 13
sight 13
jug@@ 13
necessitate 13
TIN 13
oked 13
consumers, 13
started. 13
functions 13
84@@ 13
Malignant 13
icious 13
sers 13
lists 13
suggested 13
Psori@@ 13
Twenty 13
reasonable 13
marine 13
spread@@ 13
Vil@@ 13
UK, 13
rese@@ 13
content, 13
disturb 13
learn 13
account. 13
dle 13
íne@@ 13
Israel 13
vessel 13
drink@@ 13
PB 13
generic 13
However 13
profil@@ 13
Jer@@ 13
product), 13
preval@@ 13
frame@@ 13
Thus, 13
must, 13
tors. 13
ran 13
gul@@ 13
rs, 13
Il@@ 13
358-@@ 13
squeeze 13
shi@@ 13
reasons, 13
home@@ 13
recru@@ 13
authorization 13
esp@@ 13
Strada 13
otype 13
stas@@ 13
street 13
traces 13
Stal@@ 13
abroad@@ 13
entally 13
hn@@ 13
sexually 13
have, 13
don 13
gases 13
Sander@@ 13
leaving 13
person, 13
swine 13
eck@@ 13
honey 13
specif@@ 13
relation@@ 13
past, 13
fitted 13
(first 13
plant@@ 13
urity. 13
sought 13
crossing 13
do. 13
training. 13
You@@ 13
powerful 13
erro@@ 13
websites 13
justic@@ 13
reject 13
somewhere 13
lux@@ 13
Nig@@ 13
defe@@ 13
summit 13
banning 13
ometer 13
minerals 13
solidar@@ 13
club@@ 13
steel 13
Statistics 13
fish. 13
wine-@@ 13
services. 13
entrepre@@ 13
recycle@@ 13
attacked 13
technically 13
ommunic@@ 13
wood@@ 13
him. 13
lives, 13
mentioned. 13
reci@@ 13
pornograph@@ 13
impos@@ 13
discour@@ 13
risks, 13
cool@@ 13
money. 13
expectancy 13
deaths. 13
barg@@ 13
constrain@@ 13
referendum 13
methane 13
packaging, 13
armed 13
try, 13
enthusias@@ 13
disadvant@@ 13
occu@@ 13
nets 13
aid, 13
weal@@ 13
hood. 13
realis@@ 13
writing@@ 13
tach@@ 13
oj@@ 13
technology. 13
produced. 13
parliamentary 13
right, 13
keep@@ 13
decisions. 13
Os 13
acks 13
Amne@@ 13
alists 13
tual 13
year-@@ 13
surve@@ 13
'the 13
tit@@ 13
drough@@ 13
door@@ 13
fan@@ 13
xenophob@@ 13
said, 13
terrib@@ 13
tion! 13
Inde@@ 13
nonethel@@ 13
asylum 13
directives 13
university 13
pesticide 13
explanation 13
politically 13
Shar@@ 13
a! 13
counter-@@ 13
hang@@ 13
catches 13
prud@@ 13
metals 13
independence 13
success@@ 13
magaz@@ 13
record@@ 13
criticism 13
Obes@@ 13
tuna 13
rad@@ 13
tackle 13
ala 13
mist@@ 13
able? 13
Chechny@@ 13
yourselves 13
wrec@@ 13
Finnish 13
prev@@ 13
borrow@@ 13
debt 13
vor@@ 13
seats 13
yet, 13
rail 13
resign@@ 13
kets 13
listen 13
ause, 13
kind. 13
beautiful 13
assu@@ 13
Unfortun@@ 13
signat@@ 13
whom? 13
bio-@@ 13
meat, 13
talked 13
en? 13
sovereign@@ 13
Or, 13
tomor@@ 13
hear 13
Nobody 13
airport 13
deci@@ 13
nex@@ 13
important@@ 13
Why, 13
mean? 13
(A5@@ 13
(A5-020@@ 13
8/2001) 13
5/97) 13
sanofi-av@@ 12
sinusitis, 12
purposes, 12
pressure@@ 12
two. 12
alu@@ 12
CONST@@ 12
seve@@ 12
chemi@@ 12
tremors, 12
virapine 12
ival@@ 12
agul@@ 12
glycol@@ 12
tissu@@ 12
secretion. 12
character@@ 12
mann@@ 12
tom 12
tender 12
surroun@@ 12
FS@@ 12
treated. 12
pig 12
pimec@@ 12
questionna@@ 12
diarrhoe@@ 12
galact@@ 12
tigecycline 12
safety. 12
receptors. 12
recovered 12
respir@@ 12
regimen@@ 12
urac@@ 12
verte@@ 12
HAR@@ 12
rams 12
retina 12
sperm 12
tipran@@ 12
trough 12
walk@@ 12
substantially 12
triglycerides, 12
prandial 12
lastic 12
ring. 12
vals@@ 12
rimonab@@ 12
temperat@@ 12
tachycardi@@ 12
pic 12
Offic@@ 12
shops 12
glucose-@@ 12
blur@@ 12
sion) 12
ancer 12
resource 12
tg@@ 12
dissol@@ 12
polyox@@ 12
off-@@ 12
orient@@ 12
sta 12
stitial 12
phy@@ 12
DO@@ 12
includ@@ 12
Dos@@ 12
haemophil@@ 12
recur@@ 12
otrig@@ 12
testing. 12
peridone 12
polymer@@ 12
phosphate, 12
ra. 12
inium 12
themsel@@ 12
viable 12
useful@@ 12
omer@@ 12
skelet@@ 12
--------------------------------@@ 12
rhythm 12
vacu@@ 12
untary 12
Hepati@@ 12
oler@@ 12
otechnolog@@ 12
time-@@ 12
aneous 12
signal 12
gram 12
website. 12
sert 12
spar@@ 12
Fac@@ 12
fumar@@ 12
solve 12
een 12
outcomes. 12
ecu@@ 12
refrigerator 12
ussions 12
treatment: 12
stom@@ 12
reat@@ 12
Q 12
alogue 12
Λ@@ 12
estonia@gsk@@ 12
@merc@@ 12
works. 12
Ci@@ 12
ts) 12
thrombocy@@ 12
oglobin 12
INE 12
raf 12
activated 12
menopa@@ 12
switching 12
feed@@ 12
orm@@ 12
UTE@@ 12
Intro@@ 12
ticular 12
antly. 12
enh@@ 12
permanently 12
previ@@ 12
onc@@ 12
intramus@@ 12
vom@@ 12
apar@@ 12
residual 12
osing 12
Applic@@ 12
prescribing 12
Consequ@@ 12
bridge 12
public. 12
”, 12
reflected 12
ib 12
ovul@@ 12
transpl@@ 12
incre@@ 12
mitting 12
undergo 12
rel 12
oxetine 12
p) 12
vasculitis 12
similar@@ 12
Bot@@ 12
stell@@ 12
ID 12
working. 12
ská 12
ι@@ 12
ret 12
vägen 12
NG 12
select 12
atropin 12
realistic 12
term. 12
mac@@ 12
locyt@@ 12
Ten@@ 12
Pfi@@ 12
ung 12
publications 12
prescrip@@ 12
standardisation 12
teeth 12
ë@@ 12
recruit@@ 12
when, 12
chick@@ 12
ques 12
anted 12
survive 12
Fran@@ 12
acknowledg@@ 12
thrombo@@ 12
tacrolim@@ 12
ply 12
prescrib@@ 12
accel@@ 12
simul@@ 12
bility 12
respect. 12
omen@@ 12
opraz@@ 12
oth 12
sodium@@ 12
ild 12
stake@@ 12
vely 12
ery@@ 12
telephone 12
subsc@@ 12
reddening 12
ín 12
retroviral 12
sevent@@ 12
scap@@ 12
än@@ 12
Sain@@ 12
prodrug 12
chec@@ 12
kilog@@ 12
same. 12
support@@ 12
uste@@ 12
degre@@ 12
ped. 12
values, 12
stronger 12
semi@@ 12
sively 12
uncertain 12
counter@@ 12
priorities 12
ā 12
proceed 12
verse 12
safe@@ 12
psoriasis 12
Jun@@ 12
Clin@@ 12
bis@@ 12
injuri@@ 12
severe@@ 12
satisfactor@@ 12
sities 12
propyl@@ 12
yst@@ 12
paraffin 12
ying. 12
stage, 12
rently 12
circ@@ 12
progress. 12
ptoc@@ 12
struction 12
munic@@ 12
Objec@@ 12
´s 12
speech@@ 12
supervised 12
specialists 12
programme@@ 12
reconstruction 12
vax 12
synerg@@ 12
tened 12
radio 12
resist 12
uth@@ 12
}> 12
somebody 12
suspect 12
ufacturing 12
properly, 12
taining 12
uble 12
bub@@ 12
strö@@ 12
percep@@ 12
ward@@ 12
zation 12
rigorous 12
phylaxis 12
trains 12
Exc@@ 12
ş@@ 12
ti 12
ă@@ 12
ift 12
track@@ 12
systematic 12
suffers 12
this: 12
Aug@@ 12
willing@@ 12
strategies 12
destro@@ 12
youth 12
worker 12
worrying 12
time? 12
t' 12
s', 12
view. 12
stringent 12
renewable 12
vill@@ 12
sold. 12
rs 12
shir@@ 12
streets 12
symbol@@ 12
textile 12
purchas@@ 12
workers, 12
quote 12
remot@@ 12
suppos@@ 12
wning 12
agricul@@ 12
tion' 12
prevention, 12
reperc@@ 12
perpetr@@ 12
transportation 12
waste@@ 12
stems 12
udge 12
said. 12
obvi@@ 12
scho@@ 12
ty? 12
fortun@@ 12
suffer@@ 12
se! 12
search@@ 12
£@@ 12
becom@@ 12
impro@@ 12
viewed 12
tonne 12
success. 12
property 12
cig@@ 12
– @@ 12
peaceful 12
pure 12
watching 12
restrain@@ 12
thered 12
storm@@ 12
protest@@ 12
rain 12
vehicles, 12
village 12
ties? 12
saving 12
scientists 12
scop@@ 12
voters 12
æ@@ 11
Ce@@ 11
antipsycho@@ 11
poten@@ 11
metr@@ 11
TA 11
agit@@ 11
lox@@ 11
sinus@@ 11
ocor@@ 11
sligh@@ 11
opro@@ 11
fam@@ 11
apo 11
ki@@ 11
alog@@ 11
mater@@ 11
kg/@@ 11
Concer@@ 11
”@@ 11
Medic@@ 11
ment: 11
ram 11
conjunctivi@@ 11
BM@@ 11
mon 11
Hep@@ 11
Lab@@ 11
Haemophil@@ 11
cos@@ 11
corticosteroid@@ 11
inflixim@@ 11
http:/@@ 11
rhyth@@ 11
Pax@@ 11
cef@@ 11
til 11
icill@@ 11
inuria 11
Syn@@ 11
calcit@@ 11
(hyper@@ 11
EXUB@@ 11
esp 11
Í@@ 11
Indu@@ 11
ocial 11
Colleg@@ 11
arian 11
straße 11
tech@@ 11
SS@@ 11
SPECI@@ 11
º@@ 11
surger@@ 11
Eston@@ 11
w.@@ 11
Common@@ 11
ringing 11
pass@@ 11
azide 11
creatin@@ 11
quin@@ 11
descri@@ 11
levod@@ 11
Unit@@ 11
Cont@@ 11
Wy@@ 11
partner@@ 11
omat@@ 11
enol@@ 11
netic 11
biv@@ 11
essive 11
partic@@ 11
ulo@@ 11
Tru@@ 11
-filled 11
Associ@@ 11
ximately 11
Sever@@ 11
lymphocyt@@ 11
NU@@ 11
cents 11
ld 11
Tem@@ 11
deliv@@ 11
Alb@@ 11
Gli@@ 11
§ 11
etro@@ 11
β@@ 11
anu@@ 11
sym@@ 11
Combin@@ 11
ild@@ 11
ior@@ 11
ampren@@ 11
RELE@@ 11
THER 11
ORI@@ 11
cirrh@@ 11
psycho@@ 11
iber@@ 11
fum@@ 11
uring 11
pub@@ 11
mation 11
pharmacokine@@ 11
phr@@ 11
ushed 11
zon@@ 11
thum@@ 11
ycline 11
mati@@ 11
compul@@ 11
i.@@ 11
180@@ 11
when@@ 11
inj@@ 11
acter 11
volun@@ 11
tention 11
supervis@@ 11
GD@@ 11
mass@@ 11
uni@@ 11
compli@@ 11
pers@@ 11
ount 11
mortal@@ 11
devic@@ 11
tively. 11
utri@@ 11
--@@ 11
ost 11
ich, 11
acces@@ 11
quar@@ 11
forgot@@ 11
Cz@@ 11
Lithu@@ 11
orts 11
Counc@@ 11
stoc@@ 11
foodstuff@@ 11
fut@@ 11
oms 11
Palest@@ 11
lav@@ 11
OVI@@ 10
ipraz@@ 10
catt@@ 10
resuspen@@ 10
olan@@ 10
UF@@ 10
AVA@@ 10
ofovir 10
elecoxib 10
inic 10
genit@@ 10
dementi@@ 10
sity 10
atedly 10
hepatic@@ 10
auc@@ 10
±@@ 10
Mixt@@ 10
isation@@ 10
f-life 10
Further@@ 10
inactiv@@ 10
ordination 10
CCID@@ 10
wise, 10
submit@@ 10
Tc@@ 10
Post-@@ 10
xi@@ 10
Tev@@ 10
seud@@ 10
ingu@@ 10
glycaem@@ 10
sodi@@ 10
Peri@@ 10
compati@@ 10
proce@@ 10
suspec@@ 10
Agency@@ 10
mail 10
pren@@ 10
ody@@ 10
ech 10
π@@ 10
anosine 10
fficul@@ 10
Dub@@ 10
OptiC@@ 10
…@@ 10
Los@@ 10
à 10
rine 10
VAT@@ 10
ococc@@ 10
alum@@ 10
Ε@@ 10
Hamp@@ 10
assemb@@ 10
Kwik@@ 10
concomit@@ 10
rist@@ 10
adj@@ 10
rolim@@ 10
immunoglob@@ 10
ocol@@ 10
include@@ 10
Pul@@ 10
sympath@@ 10
packag@@ 10
oint@@ 10
open-@@ 10
ampou@@ 10
† 10
Care@@ 10
yethylene 10
omal 10
ν@@ 10
386 10
VANCE 10
rash@@ 10
reti@@ 10
ž@@ 10
utro@@ 10
AST@@ 10
→ 10
nia, 10
S). 10
exact@@ 10
ophil@@ 10
solid@@ 10
wea@@ 10
fent@@ 10
Dev@@ 10
free@@ 10
regular@@ 10
conges@@ 10
Pugh 10
siglitazone 10
atard 10
ffe@@ 10
adily 10
č 10
racetam 10
σ@@ 10
ciclospor@@ 10
ferti@@ 10
entit@@ 10
refrig@@ 10
idom@@ 10
milk@@ 10
scr@@ 10
posed 10
Sta@@ 10
'-@@ 10
clu@@ 10
supple@@ 10
tivi@@ 10
plung@@ 10
benecid 10
etal 10
ulative 10
add@@ 10
pran@@ 10
manufacture@@ 10
susp@@ 10
ety, 10
There@@ 10
agement 10
Luxembour@@ 10
Pu@@ 10
stem@@ 10
Span@@ 10
tern@@ 10
concer@@ 10
logical 10
REAC@@ 10
enorm@@ 10
proceed@@ 10
answe@@ 10
enty-@@ 10
poul@@ 10
hecta@@ 10
eth 10
exces@@ 10
exce@@ 10
detail@@ 10
campa@@ 10
a.@@ 10
telev@@ 10
ellit@@ 10
Boe@@ 10
industr@@ 10
mone@@ 10
Israel@@ 10
Octob@@ 10
wo@@ 10
tetan@@ 9
ock 9
gast@@ 9
rolimus 9
gastroenter@@ 9
utr@@ 9
9%) 9
egg@@ 9
inflam@@ 9
p=@@ 9
aconazole 9
CY@@ 9
wered 9
sess@@ 9
NAME@@ 9
genital 9
resi@@ 9
rants 9
ascul@@ 9
econ@@ 9
degener@@ 9
Af@@ 9
04@@ 9
XX@@ 9
Atri@@ 9
asal 9
Trac@@ 9
Prepar@@ 9
ύ@@ 9
your@@ 9
anos@@ 9
neutropen@@ 9
endoc@@ 9
lax@@ 9
Potassi@@ 9
cular 9
Ple@@ 9
urit@@ 9
wel@@ 9
aven@@ 9
45@@ 9
sle@@ 9
valosin 9
osinophil@@ 9
odium 9
vigil@@ 9
Β 9
OG@@ 9
bum@@ 9
headach@@ 9
iris 9
haemorrhag@@ 9
rough@@ 9
swit@@ 9
Opin@@ 9
Tracle@@ 9
ren 9
defenc@@ 9
regres@@ 9
PT 9
Pati@@ 9
Stra@@ 9
ê@@ 9
lin 9
♦ 9
INVENTED 9
gene@@ 9
arcom@@ 9
patch@@ 9
malign@@ 9
zapine 9
odynam@@ 9
ific 9
rece@@ 9
inclu@@ 9
Effentor@@ 9
entary 9
ib. 9
itate 9
clud@@ 9
grav@@ 9
tival 9
angu@@ 9
bal 9
inver@@ 9
fer 9
Med@@ 9
solvent@@ 9
distur@@ 9
lish 9
Acl@@ 9
sorbit@@ 9
sam@@ 9
egal@@ 9
typ@@ 9
ī 9
squeez@@ 9
leth@@ 9
oled 9
excre@@ 9
princip@@ 9
anaes@@ 9
ond 9
plate 9
pril 9
mab 9
dish 9
scheme@@ 9
Rus@@ 9
cel@@ 9
preci@@ 9
ė 9
Harmon@@ 9
hood 9
stead 9
ven 9
uniform@@ 9
withdra@@ 9
First@@ 9
semin@@ 9
beli@@ 9
vest@@ 9
tivel@@ 9
exha@@ 9
vulner@@ 9
Mediterran@@ 9
antic 9
necessar@@ 9
mber 9
legis@@ 9
mend@@ 9
fundam@@ 9
attit@@ 9
Infl@@ 9
ially 9
Palestini@@ 9
Sept@@ 9
promot@@ 9
dings 9
Ombud@@ 9
sump@@ 9
preh@@ 9
thly, 9
prob@@ 9
oS@@ 8
Org@@ 8
Imp@@ 8
(EMEA@@ 8
Trizi@@ 8
initis, 8
oci@@ 8
BYET@@ 8
cytar@@ 8
percent@@ 8
phylax@@ 8
emplo@@ 8
monteluk@@ 8
tim 8
lopin@@ 8
placebo-@@ 8
antibodi@@ 8
summar@@ 8
herpes@@ 8
Kep@@ 8
has@@ 8
γ 8
Leafle@@ 8
YYYY@@ 8
Aran@@ 8
parenter@@ 8
perid@@ 8
Incre@@ 8
europa@@ 8
menopausal 8
exclu@@ 8
REYAT@@ 8
painf@@ 8
incontin@@ 8
psori@@ 8
lansopraz@@ 8
Sci@@ 8
aviren@@ 8
noe@@ 8
lin. 8
orr@@ 8
² 8
TRA@@ 8
esopha@@ 8
iness@@ 8
Ρ@@ 8
VIRACE@@ 8
usu@@ 8
phylactic 8
Solo@@ 8
adoles@@ 8
tid@@ 8
munolog@@ 8
NR@@ 8
misartan 8
achi@@ 8
½ 8
Kine@@ 8
lifer@@ 8
barrel@@ 8
ilep@@ 8
poetin 8
º 8
crush@@ 8
citabine 8
20) 8
adjustment@@ 8
ή@@ 8
Tηλ@@ 8
Pack@@ 8
SUBSTANCE@@ 8
ï@@ 8
Mul@@ 8
myal@@ 8
sudden@@ 8
PHAR@@ 8
flush@@ 8
tog@@ 8
SY@@ 8
cyan@@ 8
pathogen@@ 8
ariat 8
vacc@@ 8
rastim 8
methox@@ 8
bral 8
AI@@ 8
° 8
udin 8
efaviren@@ 8
je@@ 8
Sc@@ 8
uv@@ 8
acavir 8
ί@@ 8
traindic@@ 8
etine 8
alidom@@ 8
dulox@@ 8
roph@@ 8
barri@@ 8
idov@@ 8
ife@@ 8
epide@@ 8
Pel@@ 8
feat@@ 8
residu@@ 8
eva 8
Zi@@ 8
ife 8
artan 8
correspon@@ 8
iconotide 8
Denmark@@ 8
/Tel: 8
fore, 8
sz@@ 8
froz@@ 8
forg@@ 8
spring 8
Joh@@ 8
agon 8
vel 8
Τ@@ 8
antly 8
alogu@@ 8
widespre@@ 8
incin@@ 8
udg@@ 8
gun 8
survi@@ 8
controver@@ 8
stak@@ 8
LIF@@ 8
princi@@ 8
refu@@ 8
NAT@@ 8
conv@@ 8
migrants 8
inev@@ 8
annel 8
eful 8
ag 8
refe@@ 8
ided. 8
agrap@@ 8
compani@@ 8
Every@@ 8
Third@@ 8
о@@ 8
wik@@ 8
omi@@ 7
Tac@@ 7
adin 7
whil@@ 7
perpe@@ 7
ventric@@ 7
Trudex@@ 7
polys@@ 7
(1,000@@ 7
Luc@@ 7
idog@@ 7
inyl 7
tast@@ 7
Anim@@ 7
≤@@ 7
laz@@ 7
graph@@ 7
AUTHORI@@ 7
otec@@ 7
cispl@@ 7
exacer@@ 7
interv@@ 7
INI@@ 7
(HD@@ 7
erythropoie@@ 7
glycaemia 7
tigec@@ 7
ww@@ 7
pram@@ 7
oglob@@ 7
exacerb@@ 7
hyperten@@ 7
ulinum 7
menstr@@ 7
Barcel@@ 7
Recom@@ 7
aryng@@ 7
cartridg@@ 7
stim@@ 7
ïve 7
agulation 7
Ano@@ 7
Ques@@ 7
SL@@ 7
corne@@ 7
vast@@ 7
Eg@@ 7
Asp@@ 7
oter@@ 7
ameth@@ 7
ether 7
RISPERD@@ 7
neutro@@ 7
monit@@ 7
cortico@@ 7
yeth@@ 7
Gastro@@ 7
bour@@ 7
15/ 7
ents: 7
onazole 7
{month@@ 7
ο@@ 7
HOL@@ 7
eve 7
Cardi@@ 7
antimic@@ 7
icul@@ 7
Espo@@ 7
Frequ@@ 7
EMENT 7
muc@@ 7
ye 7
˚ 7
inadequ@@ 7
ges@@ 7
Depart@@ 7
imumab 7
Swe@@ 7
oside 7
accord@@ 7
Candi@@ 7
Neverthel@@ 7
understo@@ 7
atric 7
ococcal 7
Karve@@ 7
(MAO@@ 7
STR@@ 7
mysel@@ 7
ã@@ 7
š 7
lotinib 7
opa 7
cholester@@ 7
Ade@@ 7
predomin@@ 7
osin@@ 7
hazard@@ 7
accharide 7
ancyt@@ 7
espec@@ 7
amination 7
aspec@@ 7
urity 7
lafaxine 7
Febru@@ 7
Å@@ 7
udi@@ 7
enrol@@ 7
avo@@ 7
pyl@@ 7
anhydro@@ 7
Oper@@ 7
Portug@@ 7
sus@@ 7
Beta@@ 7
ata 7
wip@@ 7
distribu@@ 7
Republic@@ 7
Main@@ 7
st-@@ 7
69800 7
Ø 7
ite, 7
vitamin@@ 7
Sandw@@ 7
laan 7
TERI@@ 7
Subjec@@ 7
colum@@ 7
tish 7
Frank@@ 7
fare 7
ross 7
oric@@ 7
hygi@@ 7
risk-@@ 7
hund@@ 7
Govern@@ 7
belong@@ 7
;@@ 7
awaren@@ 7
â@@ 7
ury, 7
debate) 7
à@@ 7
resp@@ 7
lf@@ 7
consi@@ 7
stret@@ 7
vie@@ 7
preven@@ 7
chos@@ 7
techn@@ 7
howe@@ 7
may@@ 7
lantic 7
poor@@ 7
Dut@@ 7
Amend@@ 7
Accor@@ 7
Isra@@ 7
(A4@@ 7
cis@@ 6
natal 6
impai@@ 6
trium 6
marro@@ 6
idis@@ 6
Induct@@ 6
rite 6
UMA@@ 6
ERA 6
stitu@@ 6
Prot@@ 6
 6
________________@@ 6
dial 6
essor 6
iden@@ 6
ICAL 6
ification, 6
stav@@ 6
TING 6
chemo@@ 6
aglip@@ 6
Develop@@ 6
EXJ@@ 6
omegal@@ 6
onary 6
litaxel 6
eding. 6
alkonium 6
ectin 6
spondyli@@ 6
ος 6
oclon@@ 6
Syndro@@ 6
micron@@ 6
Strasbour@@ 6
dated 6
W) 6
thereaf@@ 6
ocy@@ 6
Thro@@ 6
istax@@ 6
ped, 6
Μ@@ 6
Stock@@ 6
tase 6
tiva 6
otinic 6
physici@@ 6
Opti@@ 6
analogu@@ 6
forec@@ 6
cic@@ 6
vomit@@ 6
dicated 6
Nob@@ 6
Viraferon@@ 6
lix 6
ording 6
anium 6
eletal 6
forme@@ 6
nolog@@ 6
----@@ 6
ampoul@@ 6
estro@@ 6
η@@ 6
Alduraz@@ 6
Calici@@ 6
PE) 6
tite 6
prurit@@ 6
YO@@ 6
NA 6
tus@@ 6
hepati@@ 6
Neo@@ 6
pation, 6
pha@@ 6
terat@@ 6
HAT 6
STI@@ 6
epis@@ 6
Kiv@@ 6
monary 6
BeneF@@ 6
Injec@@ 6
SPRYCE@@ 6
monito@@ 6
cholin@@ 6
å@@ 6
Tob@@ 6
19, 6
func@@ 6
blad@@ 6
Frankfur@@ 6
ς 6
triax@@ 6
flur@@ 6
modifying 6
fovir 6
Slo@@ 6
gue, 6
γ@@ 6
ority 6
Prac@@ 6
Adul@@ 6
Phot@@ 6
logic 6
rency 6
-on 6
tron@@ 6
Ultr@@ 6
beha@@ 6
nex 6
bon 6
cimeti@@ 6
did@@ 6
ylene 6
dun@@ 6
Num@@ 6
τ@@ 6
precis@@ 6
bod@@ 6
lithi@@ 6
ammadex 6
ateg@@ 6
itreal 6
circumst@@ 6
flec@@ 6
Malign@@ 6
ycl@@ 6
ć 6
Prim@@ 6
ERS 6
trache@@ 6
double@@ 6
ο 6
Characteris@@ 6
side-@@ 6
suring 6
danger@@ 6
Slovak@@ 6
tting 6
ey 6
Roy@@ 6
bov@@ 6
circumstanc@@ 6
EUR@@ 6
Bul@@ 6
wee@@ 6
ively 6
element@@ 6
kid@@ 6
example@@ 6
invas@@ 6
ults 6
bureaucrac@@ 6
highligh@@ 6
ophob@@ 6
hou@@ 6
ultim@@ 6
leagu@@ 6
itiz@@ 6
neverthel@@ 6
stly 6
sity. 6
uly 6
HO 6
tably 6
Merc@@ 6
this@@ 6
alia 6
ego@@ 6
/98@@ 6
decid@@ 6
Amon@@ 6
s @@ 6
scen@@ 6
igh 6
ephal@@ 5
Effec@@ 5
STELAR@@ 5
duct@@ 5
e.@@ 5
ledg@@ 5
AMMONAP@@ 5
consecu@@ 5
sche@@ 5
TRISENO@@ 5
(CN@@ 5
Exta@@ 5
____@@ 5
Other@@ 5
Statis@@ 5
ADE 5
Remic@@ 5
pheny@@ 5
Improv@@ 5
Whar@@ 5
MIR@@ 5
mellit@@ 5
alyse 5
epistax@@ 5
-site 5
edema 5
ambris@@ 5
Simul@@ 5
ogn@@ 5
lish@@ 5
dexameth@@ 5
hydrate, 5
imin@@ 5
Farmac@@ 5
……@@ 5
aryn@@ 5
Ran@@ 5
GR-@@ 5
irub@@ 5
Scal@@ 5
Econ@@ 5
Α 5
ffec@@ 5
ousness, 5
conjunc@@ 5
calcaem@@ 5
ited, 5
Tab@@ 5
phil@@ 5
omime@@ 5
MINI@@ 5
ents) 5
broach@@ 5
κ@@ 5
θ@@ 5
lyn 5
Import@@ 5
HV 5
YP@@ 5
uctu@@ 5
tec 5
ė@@ 5
Copenha@@ 5
candidi@@ 5
Repub@@ 5
Kap@@ 5
Plac@@ 5
· 5
Chole@@ 5
brel@@ 5
Diacom@@ 5
arthro@@ 5
(90@@ 5
const@@ 5
antibio@@ 5
edrine 5
terfen@@ 5
remitting 5
teluk@@ 5
ocardial 5
sulphon@@ 5
ercul@@ 5
s)@@ 5
duce 5
ditional 5
cloud@@ 5
ε@@ 5
CRI@@ 5
technolo@@ 5
Liet@@ 5
erythropo@@ 5
uration 5
arch 5
CA 5
zem@@ 5
oephedrine 5
flurane 5
tigotine 5
litax@@ 5
clum@@ 5
heum@@ 5
sulphonyl@@ 5
glucocortic@@ 5
das@@ 5
spectr@@ 5
usi@@ 5
imesul@@ 5
entec@@ 5
Mab@@ 5
Synag@@ 5
Vimp@@ 5
ô@@ 5
(VTE@@ 5
Thyro@@ 5
ethn@@ 5
encour@@ 5
perat@@ 5
Individu@@ 5
afil 5
Luxemb@@ 5
allevi@@ 5
eutical 5
adone 5
contra@@ 5
stac@@ 5
MERI@@ 5
vil 5
\@@ 5
@msd. 5
dispens@@ 5
redden@@ 5
Bay@@ 5
DER 5
Ö@@ 5
Sebiv@@ 5
Doh@@ 5
ricul@@ 5
Cho@@ 5
VER 5
ELI@@ 5
p.@@ 5
RESPON@@ 5
÷ 5
Š@@ 5
go, 5
ä 5
iterran@@ 5
EMA@@ 5
opha@@ 5
ionally 5
flic@@ 5
fore. 5
miner@@ 5
neigh@@ 5
Iris@@ 5
inth 5
antine 5
techno@@ 5
behin@@ 5
cyc@@ 5
ferry 5
fications 5
what@@ 5
discar@@ 5
amph@@ 5
careful@@ 5
&@@ 5
simp@@ 5
restructur@@ 5
vely, 5
valuation 5
artific@@ 5
ń@@ 5
thous@@ 5
Avi@@ 5
environ@@ 5
concre@@ 5
iring 5
sel 5
livest@@ 5
Rou@@ 5
democr@@ 5
nil@@ 5
osk@@ 5
т@@ 5
е@@ 5
leveti@@ 4
ropin 4
aspergill@@ 4
matory 4
pioglitaz@@ 4
lorat@@ 4
MabTher@@ 4
somno@@ 4
Levem@@ 4
rein@@ 4
disoprox@@ 4
More@@ 4
intrathec@@ 4
papular 4
GANFOR@@ 4
behavi@@ 4
Investig@@ 4
yli@@ 4
NutropinA@@ 4
perman@@ 4
Multi@@ 4
substitu@@ 4
ternal 4
mouth@@ 4
digo@@ 4
Tu@@ 4
diabet@@ 4
CH 4
LI 4
Epi@@ 4
Σ@@ 4
Ε 4
lodip@@ 4
ormone 4
(hypersensitiv@@ 4
Nerv@@ 4
xin 4
King@@ 4
XA 4
CCI@@ 4
stered 4
carbo@@ 4
©@@ 4
EMEN@@ 4
MIRAPEX@@ 4
TRAVAT@@ 4
ADRO@@ 4
remembe@@ 4
Inte@@ 4
Nether@@ 4
ples 4
mail: 4
Psych@@ 4
onance 4
δ@@ 4
hring@@ 4
Chlamy@@ 4
Fir@@ 4
alu) 4
film-@@ 4
™ 4
Fax@@ 4
ecte@@ 4
Capsu@@ 4
Č 4
race@@ 4
Hand@@ 4
anal@@ 4
hia 4
inistry 4
Produ@@ 4
Rese@@ 4
embolic 4
CIAL@@ 4
otes 4
ASC@@ 4
esul@@ 4
exa 4
ABILIF@@ 4
suscep@@ 4
Sign@@ 4
ł 4
ASE 4
Depo@@ 4
φ@@ 4
λ@@ 4
GlaxoSmithK@@ 4
Emsel@@ 4
bepoetin 4
fibroz@@ 4
∞@@ 4
olab@@ 4
siglit@@ 4
®@@ 4
Prome@@ 4
illed 4
auto@@ 4
Resist@@ 4
lafax@@ 4
vented 4
panleuc@@ 4
lamy@@ 4
Yondel@@ 4
Temod@@ 4
posite 4
IONSY@@ 4
legi@@ 4
cophenol@@ 4
CHAMP@@ 4
sucr@@ 4
drow@@ 4
diag@@ 4
microsphe@@ 4
known@@ 4
aline 4
antico@@ 4
plasma@@ 4
OptiClik@@ 4
strum@@ 4
Winthro@@ 4
·@@ 4
oeph@@ 4
Land@@ 4
listat 4
phylac@@ 4
Nut@@ 4
esti 4
loo@@ 4
bo 4
Nag@@ 4
Rib@@ 4
elines 4
REN@@ 4
disinfec@@ 4
Sin@@ 4
brou@@ 4
lika 4
INFORMA@@ 4
357@@ 4
amus@@ 4
phther@@ 4
cial 4
zer 4
Ο@@ 4
itarian 4
cad@@ 4
Jour@@ 4
Afgh@@ 4
bably 4
supp@@ 4
Peop@@ 4
maj@@ 4
peop@@ 4
å 4
cil 4
espre@@ 4
commer@@ 4
vention 4
sory 4
aband@@ 4
gh 4
demon@@ 4
veter@@ 4
orge 4
rying 4
firm@@ 4
poe@@ 4
­@@ 4
ő@@ 4
gn 4
Aust@@ 4
juven@@ 4
inn 4
Fig@@ 4
Deutsch@@ 4
newly-@@ 4
experti@@ 4
Gover@@ 4
comit@@ 4
damag@@ 4
bey@@ 4
om? 4
attribut@@ 4
ý 4
sust@@ 4
smug@@ 4
Techn@@ 4
с@@ 4
RIST@@ 3
molecu@@ 3
erythropoies@@ 3
~@@ 3
toge@@ 3
≥@@ 3
belo@@ 3
mol 3
ALTA 3
________@@ 3
immunolog@@ 3
gastro-@@ 3
p-@@ 3
maculo@@ 3
Experi@@ 3
oped 3
Peg 3
Intron 3
bli@@ 3
etax@@ 3
ORENCI@@ 3
Puh@@ 3
topotec@@ 3
Prad@@ 3
eczem@@ 3
oden@@ 3
 3
SINGUL@@ 3
amples 3
Φ@@ 3
Ι@@ 3
Υ 3
Tall@@ 3
Vom@@ 3
ider@@ 3
gly@@ 3
Laborato@@ 3
fractory 3
DuoTra@@ 3
SPE@@ 3
VEN 3
perc@@ 3
Scienti@@ 3
pim@@ 3
arcel@@ 3
DRE@@ 3
STE@@ 3
echan@@ 3
EU/1/06/@@ 3
EU/1/07@@ 3
EU/1/99/127@@ 3
{MM@@ 3
ße 3
MANUFACTURE@@ 3
ń 3
OptiS@@ 3
inc 3
ð@@ 3
CYP1A@@ 3
lixim@@ 3
ERD@@ 3
Glax@@ 3
otroph@@ 3
Meier 3
tez@@ 3
pertus@@ 3
Public@@ 3
viron@@ 3
benec@@ 3
travir@@ 3
travirine 3
tolcap@@ 3
isations 3
Telz@@ 3
vet 3
Pelzon@@ 3
Tredap@@ 3
Trevac@@ 3
m-@@ 3
antid@@ 3
oblast@@ 3
(AID@@ 3
atazan@@ 3
30-2@@ 3
cles 3
USE@@ 3
kiren 3
transcrip@@ 3
uss 3
Jans@@ 3
Š 3
Ripraz@@ 3
Sprime@@ 3
prenorphine 3
ronic 3
ified. 3
sevo@@ 3
orrhe@@ 3
sized 3
Cyan@@ 3
brea@@ 3
afung@@ 3
Leu@@ 3
35/ 3
Disk@@ 3
Preg@@ 3
overy 3
rivas@@ 3
uric@@ 3
tezomib 3
dispersible 3
milest@@ 3
ediatric 3
pronounc@@ 3
Stud@@ 3
ood 3
aviroc 3
ourc@@ 3
ADR@@ 3
asy@@ 3
uated 3
∞ 3
tam 3
oclonal 3
e(s) 3
CELSEN@@ 3
erv@@ 3
ugre@@ 3
nause@@ 3
HEX@@ 3
brad@@ 3
syndro@@ 3
okinetic 3
salicylic 3
Apro@@ 3
ß 3
fav@@ 3
calori@@ 3
ω 3
@gsk@@ 3
-av@@ 3
fibro@@ 3
Lipro@@ 3
sulin 3
neum@@ 3
174 3
Mix 3
dema@@ 3
@ms@@ 3
Ä@@ 3
Den@@ 3
hoe@@ 3
▲ 3
○ 3
υ@@ 3
atoid 3
ę@@ 3
ible@@ 3
MATERIAL@@ 3
VED 3
Commit@@ 3
Pub@@ 3
KE 3
CEL@@ 3
AIR 3
napp@@ 3
affin 3
ţ@@ 3
9N@@ 3
ems 3
zlo@@ 3
gies 3
tres 3
ηλ@@ 3
heim@@ 3
subsequ@@ 3
Inj@@ 3
abap@@ 3
ι 3
ribed 3
exac@@ 3
accum@@ 3
estic 3
rimon@@ 3
MAG@@ 3
bles 3
Ν@@ 3
beauti@@ 3
ř@@ 3
redi@@ 3
oking 3
risti@@ 3
adel@@ 3
aur@@ 3
stering 3
afra@@ 3
tition@@ 3
recy@@ 3
ounc@@ 3
ted: 3
illy 3
fric@@ 3
rigo@@ 3
ysel@@ 3
ige 3
attri@@ 3
ś@@ 3
envel@@ 3
arle@@ 3
ques@@ 3
goti@@ 3
/199@@ 3
asper@@ 3
offe@@ 3
amps 3
effectiv@@ 3
lot@@ 3
Categ@@ 3
requi@@ 3
Zim@@ 3
absolut@@ 3
dless 3
в@@ 3
ш@@ 3
л@@ 3
bA1@@ 2
Yttrig@@ 2
Transfer@@ 2
alog 2
HPV@@ 2
 2
IG 2
tremor@@ 2
FIN@@ 2
tachy@@ 2
ingent 2
inhib@@ 2
MRL@@ 2
heimer 2
inogen@@ 2
GONAL@@ 2
Tlf@@ 2
allucin@@ 2
Wed@@ 2
taneous 2
Ü@@ 2
gsk@@ 2
xen@@ 2
cluded 2
gal 2
glit@@ 2
Fastur@@ 2
Combi@@ 2
cipi@@ 2
Netherland@@ 2
Prequ@@ 2
ext 2
EU/1/98/069@@ 2
EU/1/98/070@@ 2
categ@@ 2
pipet@@ 2
λλ@@ 2
ύ 2
û@@ 2
ö 2
MANUFACTU@@ 2
RING 2
‡ 2
‡@@ 2
overed 2
CYST@@ 2
él@@ 2
repub@@ 2
Ã@@ 2
lobin@@ 2
ulocyt@@ 2
chromos@@ 2
bloc@@ 2
ADMINIST@@ 2
CEPRO@@ 2
′ 2
phosphon@@ 2
pregn@@ 2
†@@ 2
` 2
DISP@@ 2
Symptom@@ 2
tico@@ 2
OD 2
riz@@ 2
odynamic 2
magnit@@ 2
ý@@ 2
± 2
ONAL@@ 2
otrex@@ 2
endron@@ 2
HMG-Co@@ 2
(90Y@@ 2
agliptin 2
ņ@@ 2
HUMA@@ 2
Cetro@@ 2
Eff@@ 2
Authorisation@@ 2
hol 2
ORACE@@ 2
fruc@@ 2
otinib 2
NSA@@ 2
glycol-@@ 2
Naglaz@@ 2
zonis@@ 2
ř 2
medium-@@ 2
Cepl@@ 2
oriconazole 2
1,000@@ 2
likely. 2
Fast@@ 2
MEDIC@@ 2
ozyme 2
tose 2
ticles 2
isomaltase 2
diffe@@ 2
Ñ@@ 2
intran@@ 2
enous 2
fuvir@@ 2
enox@@ 2
alysis 2
eez@@ 2
Sloveni@@ 2
odiazep@@ 2
plement 2
orphine 2
elet@@ 2
SUB@@ 2
Neoc@@ 2
idogrel 2
TORI@@ 2
disease-@@ 2
yrinth 2
ylac@@ 2
euticals 2
VISTI@@ 2
Isc@@ 2
aesthes@@ 2
AZ 2
Pradax@@ 2
odic@@ 2
mary 2
Inflam@@ 2
SON 2
ofi-av@@ 2
ς@@ 2
Π@@ 2
ę 2
Parkin@@ 2
tol 2
FIR@@ 2
ş 2
Zyr@@ 2
ieve 2
ägen 2
µ 2
ţ 2
Accid@@ 2
Ljublj@@ 2
organiza@@ 2
epider@@ 2
Cop@@ 2
aste 2
Ingel@@ 2
TED 2
Stockhol@@ 2
Nonethel@@ 2
transcri@@ 2
Haarle@@ 2
otene 2
ό@@ 2
ω@@ 2
Τ 2
vents 2
Glob@@ 2
otine 2
enthusi@@ 2
eon 2
atislav@@ 2
prime@@ 2
pha 2
decre@@ 2
EC) 2
rison@@ 2
intel@@ 2
era@@ 2
vival 2
periodic@@ 2
ć@@ 2
riving 2
utsch@@ 2
twel@@ 2
heim 2
Kos@@ 2
pron@@ 2
manufact@@ 2
vote) 2
ň@@ 2
én@@ 2
Madri@@ 2
indu@@ 2
Ther@@ 2
philos@@ 2
dab@@ 2
reg 2
ź@@ 2
Ó 2
ë 2
elop@@ 2
Alco@@ 2
onia@@ 2
€@@ 2
asyl@@ 2
sovere@@ 2
None@@ 2
strate@@ 2
ż@@ 2
ą@@ 2
inux 2
threatening 2
#@@ 2
auti@@ 2
tric 2
rheum@@ 2
Wom@@ 2
pro 2
/99@@ 2
è 2
chall@@ 2
thusi@@ 2
œ@@ 2
Bene@@ 2
Seri@@ 2
ree 2
referen@@ 2
accompani@@ 2
Finn@@ 2
ingly. 2
Qual@@ 2
/13@@ 2
cauti@@ 2
utin@@ 2
entor@@ 2
Absol@@ 2
onium 2
ч@@ 2
а@@ 2
н@@ 2
и@@ 2
BAT@@ 2
oglitaz@@ 1
ataz@@ 1
`@@ 1
THORI@@ 1
pared 1
Assess@@ 1
TENT 1
rocur@@ 1
ogly@@ 1
http:@@ 1
/ww@@ 1
angiot@@ 1
bA1c 1
Sver@@ 1
psy@@ 1
chole@@ 1
tenance 1
Uk@@ 1
honia, 1
cresol, 1
estonia@@ 1
ABI@@ 1
Elim@@ 1
ipexole 1
« 1
» 1
Philadelph@@ 1
HMG-@@ 1
sud@@ 1
sing-remitting 1
EU/0@@ 1
FORMA@@ 1
ϖ 1
ό 1
tte 1
GlaxoSmith@@ 1
forme 1
alluc@@ 1
Inhib@@ 1
shock) 1
chlo@@ 1
Pegas@@ 1
Fung@@ 1
∗@@ 1
OL-MYERS 1
Þ@@ 1
þ@@ 1
ð 1
sen-Cilag 1
ustin 1
ε 1
Χ@@ 1
ά@@ 1
ergill@@ 1
gonad@@ 1
lospor@@ 1
(CHM@@ 1
viro@@ 1
,200 1
DepoCy@@ 1
PROD@@ 1
Fuz@@ 1
wel 1
∅ 1
buric@@ 1
 1
abdomy@@ 1
cetiriz@@ 1
recombin@@ 1
Latvij@@ 1
ņ 1
δ 1
ophila 1
Yt@@ 1
membe@@ 1
oblastic 1
anyl 1
anrix 1
χ 1
ovascular 1
Dynast@@ 1
Erbit@@ 1
Vectibi@@ 1
Lj@@ 1
ż 1
progenit@@ 1
metab@@ 1
@@ 1
YET@@ 1
Psy@@ 1
²@@ 1
TESLASC@@ 1
Smo@@ 1
delto@@ 1
swol@@ 1
so-@@ 1
Atripl@@ 1
awa 1
rhabdomy@@ 1
neti@@ 1
„@@ 1
Lietuv@@ 1
Indin@@ 1
comitant 1
ux 1
Ġ@@ 1
Č@@ 1
õ@@ 1
Ljub@@ 1
apt@@ 1
WAL 1
AUTHORISA@@ 1
culosk@@ 1
# 1
FORE 1
YY@@ 1
↑ 1
@ 1
Novar@@ 1
Ø@@ 1
³ 1
-1), 1
ocortic@@ 1
FeL@@ 1
έ@@ 1
Β@@ 1
Polys@@ 1
Ê@@ 1
Ελλάδ@@ 1
Αγ@@ 1
wder 1
entin 1
ource 1
tibi@@ 1
MATERI@@ 1
Neul@@ 1
Tevag@@ 1
SIBLE 1
RY@@ 1
OPTI@@ 1
OLOG@@ 1
BH 1
Photosensi@@ 1
· 1
Vec@@ 1
Ş@@ 1
ă 1
ň 1
REY@@ 1
izophren@@ 1
fficacy 1
drowsin@@ 1
somnol@@ 1
CYSTAG@@ 1
appetit@@ 1
♦@@ 1
MIRC@@ 1
zin 1
sphe@@ 1
(glucos@@ 1
acco 1
itec@@ 1
sbo 1
o/Esbo 1
throm@@ 1
Impri@@ 1
§@@ 1
hringer 1
reich 1
ovigil@@ 1
Trit@@ 1
OLOGICAL 1
ANCE@@ 1
athec@@ 1
ZYP@@ 1
tware 1
Signific@@ 1
(EPAR@@ 1
È@@ 1
™@@ 1
entre@@ 1
asta 1
WIT@@ 1
Θ@@ 1
Γ@@ 1
μ@@ 1
Σ 1
Ι 1
Υ@@ 1
RISP@@ 1
Suspen@@ 1
stren@@ 1
ì@@ 1
Sust@@ 1
Star, 1
lotted 1
chrome 1
Chechn@@ 1
ureauc@@ 1
Neis@@ 1
conj@@ 1
inte@@ 1
ember 1
¹@@ 1
Ţ@@ 1
ď@@ 1
STAT@@ 1
dema 1
alop@@ 1
posit 1
BAS@@ 1
porno@@ 1
accompan@@ 1
electr@@ 1
318 1
ő 1
acom@@ 1
comput@@ 1
¡@@ 1
Grow@@ 1
Inv@@ 1
î@@ 1
Ő@@ 1
mith@@ 1
ǐ@@ 1
eep 1
ï 1
Ô@@ 1
Ï 1
Fro@@ 1
olan 1
ǎ@@ 1
spap@@ 1
  1
Sovi@@ 1
CHA@@ 1
irc@@ 1
forge 1
Tek@@ 1
ould 1
otrop@@ 1
Suomi@@ 1
absol@@ 1
Summ@@ 1
fres@@ 1
hys@@ 1
civ@@ 1
$ 1
1): 1
iltr@@ 1
ò 1
dund@@ 1
Rep@@ 1
sol, 1
crimination 1
Alzheim@@ 1
Afghan@@ 1
hered@@ 1
ì 1
recomm@@ 1
metam@@ 1
$@@ 1
extrav@@ 1
phan 1
ò@@ 1
ù@@ 1
pendit@@ 1
Lith@@ 1
cile 1
lj@@ 1
procedur@@ 1
structions 1
ffic 1
€ 1
parently 1
isms 1
fore 1
okine@@ 1
porte@@ 1
О@@ 1
о 1
в 1
п@@ 1
lens@@ 1
portun@@ 1
STRUC@@ 1
ķ@@ 1
liam@@ 1
Ž@@ 1
syru@@ 1
very@@ 1
fic 1
Pak@@ 1
ü 1
Д@@ 1
б@@ 1
р@@ 1
е 1
д@@ 1
Т@@ 1
ы 1
ь 1
у@@ 1
к@@ 1
й 1
а 1
з@@ 1
ь@@ 1
minimis@@ 1
