de 60287
la 29071
et 22514
les 20954
des 20662
le 19653
à 18675
en 12689
du 10596
est 10197
une 10119
que 9323
dans 9001
un 8902
pas 8840
ou 8378
par 8314
pour 7915
a 7480
être 6832
ne 6034
sur 5972
au 5788
été 5774
qui 5205
sont 4740
vous 4538
ce 4454
plus 4360
(@@ 4132
avec 4073
chez 3739
patients 3667
d'@@ 3588
ont 3550
Les 3448
- 3355
Le 3296
il 3289
doit 3273
aux 2917
peut 2877
ces 2856
Si 2791
er 2785
se 2770
traitement 2768
l'@@ 2657
votre 2645
si 2324
, 2312
La 2273
Une 2271
l’@@ 2249
. 2237
é 2201
cette 2170
cas 1935
e, 1929
d'une 1902
e. 1901
d’@@ 1896
Un 1882
in@@ 1802
comme 1745
Pour 1736
On 1663
y 1655
ée 1633
1 1565
n'est 1557
mg 1537
après 1533
d'un 1513
ent 1504
-@@ 1483
doivent 1480
és 1460
mais 1451
Vous 1451
• 1446
dose 1432
S@@ 1427
L'@@ 1386
deux 1369
1/ 1360
ant 1353
moins 1351
on 1334
ez 1307
EU/ 1306
es, 1304
également 1277
) 1244
leur 1233
? 1231
es. 1215
taux 1208
fois 1207
"@@ 1202
Par 1196
même 1194
ation 1192
avant 1184
ées 1177
médicaments 1176
Il 1176
non 1168
peuvent 1153
risque 1147
fait 1130
2 1129
tout 1129
: 1129
s 1117
s@@ 1113
effets 1108
e 1104
T@@ 1096
était 1082
elle 1076
avez 1073
pendant 1069
nombre 1066
3 1064
es 1060
soit 1058
M@@ 1057
sans 1054
B@@ 1043
P@@ 1026
n'a 1009
utilisé 997
son 986
t@@ 986
entre 985
médecin 969
européenne 964
e@@ 959
système 958
d'autres 955
re@@ 935
comprimés 933
faire 927
d@@ 926
10 922
g@@ 917
aussi 916
ré@@ 914
sous 909
D@@ 903
rapport 902
/ 898
Commission 892
autre 891
o@@ 890
solution 888
b@@ 885
dé@@ 879
Rapport 871
mise 870
(voir 869
médicament 868
Dans 866
très 866
cours 864
% 858
A@@ 842
indésirables 841
R@@ 837
C@@ 836
o 833
c@@ 831
rubrique 829
cela 826
G@@ 822
F@@ 820
5 817
Toutefois, 813
bien 812
donc 810
s, 810
sera 805
). 804
marché 796
pays 792
contre 791
études 789
produit 787
N@@ 787
é@@ 786
personnes 785
prendre 782
er@@ 779
En 778
produits 774
al@@ 772
4 770
l@@ 769
dont 768
ement 766
autres 765
L@@ 764
n@@ 764
ti@@ 758
i@@ 754
jour 749
t 745
orale 745
traités 739
tous 738
DE 738
6 736
A 736
di@@ 734
ait 734
en@@ 731
h@@ 730
ons 730
on@@ 729
E@@ 729
V@@ 722
v@@ 719
r@@ 716
qu'il 716
m@@ 715
niveau 715
ch@@ 710
s. 709
H@@ 707
p@@ 707
avoir 706
), 704
Des 701
f@@ 699
at@@ 696
Pourquoi 692
données 691
er. 685
Ne 680
ayant 679
ainsi 674
que, 671
s'@@ 665
2@@ 664
K@@ 663
; 656
trois 656
type 648
5@@ 647
enfants 647
ses 645
augmentation 642
ine 639
or@@ 639
te 633
am@@ 628
ation, 628
k@@ 623
temps 622
Nous 621
é. 619
i 617
ans 615
Tout 615
afin 614
toute 614
présentant 613
4@@ 611
is@@ 611
3@@ 608
Voie 606
I@@ 604
ag@@ 602
ar@@ 600
exemple, 600
lors 595
! 594
«@@ 592
elles 592
é, 591
groupe 590
travail 589
ils 588
50 584
as@@ 584
al 581
ad@@ 578
ml 578
femmes 576
ée. 573
où 573
» 570
maladie 570
nous 570
7 568
im@@ 567
a@@ 561
mesures 552
ation. 549
age 549
mois 547
an@@ 545
étaient 542
n'@@ 541
certains 541
informations 539
os@@ 538
ET 538
y@@ 536
és. 535
er, 535
chaque 534
je 533
conséquent, 533
symptômes 531
ri@@ 531
forme 531
atteints 531
site 530
« 530
eur 529
L’@@ 528
prise 527
alors 525
Que 524
étude 523
ations 523
peu 523
sa 523
1@@ 522
toutes 519
06/ 518
effet 516
000 514
que. 514
8 510
100 508
mg/ 508
it@@ 506
ac@@ 506
6@@ 505
7@@ 503
ants 502
nécessaire 502
santé 500
encore 499
par@@ 498
devrait 496
association 495
sécurité 490
8@@ 489
30 488
tr@@ 487
doses 487
pourrait 486
e? 486
voie 485
Mais 484
es@@ 482
utiliser 482
fonction 480
om@@ 479
tant 478
ée, 477
l'Union 477
e) 476
réponse 476
z@@ 475
raison 473
l'utilisation 472
ceux 471
ex@@ 471
an 470
contient 469
faut 468
op@@ 467
u@@ 465
virus 464
jusqu'à 463
semaines 461
première 459
pris 458
in 458
membres 456
manière 456
eurs 456
d 455
/@@ 454
co@@ 452
leurs 451
période 450
O@@ 450
êtes 448
États 448
20 447
ol@@ 443
eux 443
point 442
vi@@ 442
jours 439
 @@ 439
+ 438
ent@@ 438
a, 434
ap@@ 432
base 432
aucun 431
résultats 431
era 431
9 430
administré 427
ale 426
hépatique 426
troubles 425
concernant 424
si@@ 423
tes 422
15 420
aucune 420
ques 419
12 418
aires 415
n'ont 414
Selon 414
és, 411
problèmes 410
aire 410
– 409
aient 409
ni 408
exemple 408
patient 407
important 407
ou@@ 407
li@@ 406
car 406
toujours 405
el@@ 405
question 405
flacon 404
terme 404
contrôle 401
00/ 396
heures 396
compris 396
qu@@ 396
ab@@ 396
ées. 395
développement 395
Tel: 395
9@@ 394
l'un 394
x 392
mesure 391
25 391
l' 391
devez 390
CAS 390
rénale 389
déjà 388
st@@ 387
seulement 386
maladies 386
on. 385
ite 384
conditions 384
ante 383
compte 382
ère 382
us 382
con@@ 381
ci@@ 381
Tous 381
ement, 380
ét@@ 379
J@@ 377
lorsque 377
DANS 375
ques, 374
substances 374
et, 374
pré@@ 373
perfusion 372
re 372
tels 372
40 372
insuffisance 372
étant 371
il@@ 371
façon 371
anti@@ 370
.@@ 370
d' 370
vos 369
diminution 368
tu@@ 367
el 365
animaux 364
g 364
ra@@ 363
eu 362
et@@ 361
long 361
réduction 361
EST-IL 360
bi@@ 359
durée 359
contenant 359
cliniques 359
trop 358
S 356
ité 356
seront 355
me 355
e: 355
possible 354
partie 354
devra 353
ni@@ 352
ine, 351
ér@@ 351
U@@ 351
C 350
pr@@ 350
r 350
ement. 349
QUEL 348
cas, 347
clinique 347
lait 346
QUE 346
mi@@ 345
l 345
0@@ 344
recommandé 344
l'on 344
Sur 343
d’une 341
Lorsque 341
millions 340
tel 339
Quelles 339
j@@ 337
sur@@ 337
réactions 335
24 335
ent. 335
production 334
ver@@ 333
fi@@ 333
ant@@ 333
montré 332
depuis 332
surveillance 331
d’un 331
De 331
pa@@ 330
quatre 328
active 328
voir 326
Conseil 326
ir@@ 324
quel 324
per@@ 323
vie 322
européen 322
ques. 321
DES 321
recommandée 320
u 320
cellules 319
besoin 319
notice 318
n’est 317
car@@ 317
au@@ 316
faible 316
ements 316
c'est 316
pouvez 315
réduire 315
mis 315
QU'EST-CE 315
" 314
Quel 314
nouvelle 313
on, 313
dis@@ 312
infection 312
risques 310
av@@ 309
n 309
qu'@@ 309
pl@@ 308
stylo 308
l'administration 307
population 307
ance 307
20@@ 305
notamment 305
immédiatement 304
su@@ 304
particulier 304
ales 304
E 304
semaine 303
injectable 303
certaines 302
place 302
selon 302
us@@ 301
ie 301
B 300
pi@@ 300
peau 300
aire, 300
administration 299
ot@@ 299
pro@@ 299
w@@ 299
personne 298
ées, 296
n'y 296
inter@@ 294
s'il 294
telle 292
celle 291
aire. 291
disponibles 291
ell@@ 290
14 290
qu'une 289
s? 289
UTILISE 289
fin 288
mé@@ 288
Z@@ 288
ers 287
T 287
facteur 287
able 287
nouveau 286
ine. 286
l'in@@ 285
ents 285
poids 284
m 284
procédure 284
présente 284
substance 283
cadre 283
avait 282
10@@ 280
syndrome 280
tri@@ 280
concerne 280
jamais 280
qualité 280
60 279
end@@ 279
gu@@ 279
questions 279
usage 278
s'est 278
injection 278
h 277
principe 277
seul 276
soient 276
plusieurs 276
al, 275
croissance 275
13@@ 275
groupes 275
protection 274
W@@ 274
lieu 273
traiter 273
vaccin 273
is 273
eur@@ 272
min@@ 272
a. 272
0,@@ 271
pharmacien. 271
ur@@ 271
s’@@ 271
telles 270
humaine 270
traitement. 268
posologie 268
ables 267
l'efficacité 267
al. 267
reçu 266
tique 266
ent, 266
moyenne 265
actif 265
cet 264
celui 263
lui 263
mettre 262
sang 262
souvent 262
événements 261
douleur 261
recherche 261
Toutes 261
utilisation 260
è@@ 260
vue 260
suspension 259
matière 259
Votre 259
qu'elle 259
ph@@ 258
formation 258
e-@@ 258
réaction 258
grand 258
ant, 258
em@@ 258
ul@@ 258
cl@@ 257
f 257
for@@ 256
te, 256
concentrations 256
az@@ 256
x@@ 255
sujets 255
ens 255
d'A@@ 255
te@@ 255
ans, 254
ill@@ 254
quantité 254
reste 253
". 253
pouvant 252
rapportés 252
ro@@ 252
ans. 252
id@@ 251
mon@@ 251
2. 251
parce 251
cour@@ 250
e), 249
quelques 249
charge 249
décision 249
c 248
importante 248
pression 248
environ 247
th@@ 247
seringue 247
ant. 246
ate 246
moyen 246
suivi 246
e). 246
tion, 245
signes 242
ale, 241
18 241
vers 241
cr@@ 241
perte 240
cu@@ 240
< 240
ale. 240
oc@@ 240
ite, 239
œ 239
ec@@ 239
mar@@ 239
tion 239
iss@@ 239
serait 239
pouvoir 239
problème 239
cinq 238
un@@ 238
donné 238
able. 238
L'utilisation 238
savoir 237
particulièrement 237
ts 237
Par@@ 237
sé@@ 237
l'objet 237
= 236
ser@@ 236
demande 236
ob@@ 236
qu'un 236
In@@ 235
l'étude 234
enti@@ 234
300 233
mo@@ 233
». 233
ines 233
sévère 233
es? 233
es) 232
essais 232
utilisés 232
de@@ 232
du@@ 232
t, 230
d’autres 230
entraîner 230
valeurs 229
19@@ 229
com@@ 229
d'insuline 229
15@@ 229
200 228
quand 228
14@@ 227
ence 227
ique 227
te. 226
én@@ 226
jour. 226
existe 225
11 224
présence 224
seule 224
nouveaux 224
bon 224
oi@@ 224
bl@@ 224
anticorps 223
mois. 223
contenu 223
fl@@ 223
cou@@ 223
laquelle 222
eur, 222
ais 222
ter 221
nouvelles 221
sein 221
70 220
médecin. 220
durant 220
Al@@ 220
jeunes 220
eur. 220
ml) 219
humain 219
cancer 219
qu'ils 219
 - 219
200@@ 218
%. 218
gi@@ 218
all@@ 218
liste 218
%) 217
début 217
aires, 217
yl@@ 217
-il 217
isation 216
ten@@ 216
beaucoup 215
res 215
ente 215
EN@@ 215
enfant 215
(A4-0@@ 215
trans@@ 214
17@@ 214
ai@@ 214
Peu 214
date 213
n’@@ 213
LES 213
l'UE 213
at 211
âgés 210
d'ex@@ 210
total 210
16@@ 210
adultes 210
els 210
actuellement 210
programme 210
gr@@ 210
(A5-0@@ 210
valeur 209
ité. 209
P 209
éviter 209
l'aide 208
efficace 208
partir 208
tion. 208
el, 208
ati@@ 208
Y@@ 207
poudre 207
80 206
> 206
and@@ 205
prenez 205
fer@@ 205
patients. 204
consommation 204
onn@@ 204
caractéristiques 204
mieux 204
traitements 203
ations, 203
(par 203
suite 203
ères 203
uniquement 203
199@@ 203
région 203
M. 203
Qu'est 203
placebo 202
graves 202
notice, 202
activités 202
fin@@ 202
Néanmoins, 202
1, 201
antes 201
termes 201
lu@@ 201
Troubles 201
va 201
indiqué 200
unique 200
Lors 200
ins 200
certain 200
instructions 199
R 199
UI 199
l'autorisation 199
Europe 199
00 198
moment 198
concentration 198
six 198
mes 198
modification 197
nombreux 197
premier 197
tolérance 197
processus 196
AN@@ 196
plan 196
3, 196
composants 196
té 196
1,@@ 195
o-@@ 195
bonne 195
port@@ 195
utilisée 194
anti-@@ 194
évaluation 194
É@@ 194
comprimé 194
ons-nous 194
et/ 193
phase 193
concomitante 193
points 193
IN@@ 193
l'Agence 193
information 193
um@@ 193
sait 193
ir 193
vo@@ 193
RE@@ 192
%, 192
hyper@@ 192
se@@ 192
aux. 192
tests 192
augmenter 192
k 192
ach@@ 191
val@@ 190
I 190
administrée 190
boîte 190
devient 190
l'A@@ 189
qu’il 189
généralement 188
gestion 188
eau 188
dès 188
ensuite 188
contact 187
75 187
e; 187
observés 187
trait@@ 187
cause 187
Re@@ 187
): 186
domaine 186
D 186
t. 186
eurs, 185
pos@@ 185
ence, 185
es: 185
sou@@ 185
-ce 185
hy@@ 184
responsable 184
déchets 184
Veuillez 184
ase 183
position 183
os 183
* 183
permettre 183
facteurs 182
indésirable 182
erait 182
Parmi 182
16 181
principal 181
as 181
possibilité 181
res@@ 181
règlement 181
ez-vous 181
d'utiliser 180
né@@ 180
comité 180
éri@@ 180
cré@@ 180
eu@@ 180
él@@ 179
28 179
en, 179
cor@@ 179
aires. 179
prises 179
ons, 179
INFORMATIONS 179
nécessaire. 178
hypo@@ 178
21 178
élevé 178
tions 178
hé@@ 178
situation 178
Plus 178
N 177
traité 177
pu@@ 177
infections 177
différents 177
ages 177
um 177
zone 177
,@@ 176
am 176
suivant 176
Royaume-Uni 176
la@@ 176
France 176
est@@ 176
présenté 175
donner 175
ants, 175
avaient 175
M 175
ue 175
ation@@ 175
remarquez 175
)@@ 174
rapidement 174
int@@ 174
is, 174
ance. 174
che 174
[@@ 173
hommes 173
Qu@@ 173
mal@@ 173
sol@@ 173
Quelle 173
/2001) 173
méthode 172
in, 172
d'administration 172
lis@@ 172
fu@@ 172
18@@ 171
hi@@ 171
recevant 171
grave 171
tin@@ 171
euses 171
l'ex@@ 171
ol 171
enne 171
ov@@ 171
pharmacocinétique 170
rares 170
ante. 170
changement 170
rée 169
ose 169
ter@@ 169
ations. 169
Effets 169
peut-être 169
rôle 169
ants. 168
spécifique 168
form@@ 168
2, 168
ve 168
X@@ 168
dernière 167
convient 167
12@@ 167
dit 167
avons 167
VI@@ 166
capacité 166
observée 166
d'évaluation 166
insuline 166
ég@@ 166
plupart 166
cul@@ 166
critères 166
volume 166
permet 166
flacons 166
transport 166
l'enfant 165
soins 165
col@@ 165
alis@@ 165
inhibiteurs 165
ins@@ 165
35@@ 164
années 164
cal@@ 164
puis 164
régime 164
ités 164
one 164
Ch@@ 164
règles 164
attention 164
A, 163
jour, 163
action 163
chronique 163
ani@@ 163
zones 163
autorités 163
présent 163
M. @@ 163
37@@ 162
trouble 162
souffrant 162
4.4). 162
corps 162
aux, 162
sous-@@ 161
2,@@ 161
ité, 161
ais@@ 161
aide 161
chlorure 161
particules 161
ribavirine 161
b 161
internet 161
its 161
enn@@ 160
dernier 160
rapide 160
no@@ 160
mentionné 160
30@@ 160
28@@ 159
parlez 159
quelque 159
is. 159
age. 159
por@@ 159
AL@@ 159
ateur 159
recevoir 159
po@@ 159
l'é@@ 159
Très 159
Toute 159
tiques 158
pourra 158
O 158
trouve 158
eux, 158
el. 158
sub@@ 158
my@@ 158
ons. 158
ic@@ 158
comment 157
dème 157
modifier 157
actu@@ 157
gl@@ 157
ru@@ 157
détaillées 157
produit, 157
importantes 156
appar@@ 156
conduire 156
provoquer 156
vol@@ 156
activité 156
n’a 156
Mar@@ 156
pourraient 156
ven@@ 156
ble 156
Titulaire 156
ailleurs, 156
supérieure 155
bu@@ 155
significative 155
13 155
ateurs 155
clairement 155
ment 155
poly@@ 155
véhicules 155
des@@ 154
mal 154
référence 154
conséquences 154
systèmes 154
d'informations 154
AVANT 154
", 154
able, 153
50@@ 153
ali@@ 153
iv@@ 153
sion 153
br@@ 153
pour@@ 152
d'insuffisance 152
ari@@ 152
dés@@ 152
bles 152
fication 152
ing@@ 152
cartouches 152
veuillez 152
lire 152
signifie 152
voies 151
atteint 151
-2@@ 151
utilis@@ 151
ris@@ 151
dou@@ 151
str@@ 151
titulaire 151
elle, 151
â@@ 151
age, 151
ass@@ 151
QUELLES 151
25@@ 150
initiale 150
état 150
(E@@ 150
cit@@ 150
membre 150
année 150
eux. 149
fréquemment 149
contrôl@@ 149
plus, 149
SONT 149
e! 149
ies 148
deuxième 148
fréquence 148
AR@@ 148
prévention 148
2,5 148
libération 148
personnel 148
susceptibles 148
relatives 148
due 148
(P@@ 148
ligne 148
conformément 148
ère. 147
0 147
l'état 147
parfois 147
réduit 147
allergique 147
TI@@ 147
nécessaires 147
LE 147
médicament, 147
Con@@ 147
d'injection 146
administr@@ 146
inhibiteur 146
kg 146
quelle 146
e/ 146
pas@@ 146
ance, 146
récemment 146
Quand 146
face 145
critère 145
ie, 145
elle. 145
ess@@ 145
ra 145
tés 145
dispositif 145
S'il 145
projets 145
aut@@ 145
en. 144
+@@ 144
test 144
ca@@ 144
douleurs 144
bo@@ 144
eurs. 144
potentiel 144
56 144
ment@@ 144
alité 144
CONNAITRE 144
Or, 144
totale 143
ox@@ 143
médicament. 143
cin@@ 143
ence. 143
métabolisme 143
bou@@ 143
qu'en 143
► 143
dû 143
http: 143
rou@@ 143
s: 143
ar 143
droit 143
ve@@ 142
AS@@ 142
pharmacocinétiques 142
ats 142
protéine 142
modifications 142
disponible 142
solvant 142
Patients 142
lo@@ 142
demandez 142
Monsieur 142
der@@ 141
observé 141
od@@ 141
cas@@ 141
limite 141
mor@@ 141
pu 141
augment@@ 141
bénéfice 141
uni@@ 141
ig@@ 141
Y 141
in. 140
prolongée 140
parti@@ 140
UI/ 140
cé@@ 140
ce@@ 140
Pas 140
Winthrop 140
Trois 140
Son 140
0,5 139
spécifiques 139
400 139
médi@@ 139
passage 139
LA 139
ang@@ 139
ak@@ 139
eront 139
L'administration 139
a-t-il 139
liés 138
présentent 138
rés 138
an. 138
22 138
Parlement 138
passer 138
of 138
solutions 138
Eesti 138
raisons 138
/97) 138
p 137
parler 137
placebo. 137
plasmatiques 137
d'in@@ 137
délai 137
ori@@ 137
emea. 137
euse 137
import@@ 137
celles 136
AC@@ 136
(S@@ 136
isme 136
liées 136
ances 136
ge 136
rec@@ 135
l'effet 135
chi@@ 135
48 135
l'arrêt 135
parmi 135
s-@@ 135
abl@@ 135
sodium 135
contr@@ 135
Pendant 135
éléments 135
N'@@ 135
vaccination 134
développer 134
général 134
non-@@ 134
'@@ 134
500 134
», 134
immunitaire 134
it, 134
analyse 134
our@@ 134
l'insuline 134
semble 134
autorisation 134
femme 134
devront 134
prix 134
Où 134
nécessité 133
it 133
ren@@ 133
ev@@ 133
surface 133
ME@@ 133
soutien 133
me@@ 133
Teva 133
quant 133
Comb 133
soci@@ 133
ritonavir 132
maximale 132
(A@@ 132
me, 132
l'activité 132
cent 132
rel@@ 132
vis@@ 132
directement 132
fonctionn@@ 132
gar@@ 132
L'objectif 132
survenue 131
oph@@ 131
ise 131
cependant 131
A. 131
600 131
d'efficacité 131
mécanisme 131
CHMP 131
propositions 131
Qu'@@ 131
associées 130
27@@ 130
difficultés 130
UK 130
man@@ 130
l'ensemble 130
Ré@@ 130
4, 130
ement@@ 130
rapports 130
/www. 130
attentivement 130
résultat 130
préparation 130
demand@@ 130
Insuffisance 130
dernières 130
Même 130
recommandée. 129
types 129
4.@@ 129
réalisée 129
es). 129
parties 129
CA@@ 129
étudié 129
s) 129
... 129
devraient 129
36@@ 128
17 128
G 128
accept@@ 128
complète 128
supplémentaires 128
ain@@ 128
L 128
principalement 128
préparations 128
34@@ 128
elles, 128
ère, 128
alisation 128
prudence 128
demander 128
minutes 127
formes 127
ER@@ 127
radi@@ 127
it. 127
associé 127
TR@@ 127
CH@@ 127
résumé 127
température 127
entr@@ 127
o, 127
aiguille 127
Traitement 127
(A5-00@@ 127
patients, 126
vari@@ 126
lesquels 126
ets 126
Su@@ 126
thérapeutique 126
ité@@ 126
crise 126
ay@@ 126
368/ 126
grande 126
/98) 126
or 125
l'hépatite 125
service 125
(1 125
amélioration 125
dos@@ 125
suffisamment 125
nom 125
150 125
obtenir 125
dire 125
jou@@ 125
lésions 124
CI@@ 124
ann@@ 124
abilité 124
tif 124
ose, 124
augmente 124
troisième 124
le@@ 124
S. 124
grossesse 124
blanc 124
pe@@ 124
avis 124
vit@@ 124
Mme 123
Dr 123
patientes 123
d'entre 123
haut 123
déc@@ 123
qu'à 123
quer 123
n'existe 123
ES@@ 123
oculaire, 123
scientifique 123
Liprolog 123
quement 123
informer 123
ables. 122
sucre 122
surdosage 122
65 122
gra@@ 122
rapport@@ 122
ves 122
prenant 122
tions. 122
ed@@ 122
faites 122
accès 122
aiguilles 122
toutefois 122
d'être 122
45 121
ble. 121
5% 121
re, 121
survie 121
ma@@ 121
nu@@ 121
L'AUTORISATION 121
ements, 121
actions 121
pelliculés 121
ini@@ 121
An@@ 121
07/ 121
respectivement 120
Di@@ 120
complètement 120
ales. 120
europa. 120
technique 120
part 120
paramètres 119
produire 119
suivants: 119
ax@@ 119
baisse 119
ist@@ 119
présenter 119
génér@@ 119
démontré 119
elles. 119
can@@ 119
do@@ 119
nation@@ 119
Hypersensibilité 119
sévères 118
ide 118
globules 118
lymph@@ 118
ues 118
inflammation 118
Tel. 118
liquide 118
microgrammes 118
dus 118
men@@ 118
ellement 118
dehors 118
puisse 118
associés 118
présent@@ 118
anomalies 118
publi@@ 118
fabricant 118
propre 118
monde 118
L'Union 118
vaccins 117
3% 117
mg, 117
vétérinaire 117
semaines. 117
meilleure 117
diabète 117
compt@@ 117
aci@@ 117
alimentaire 117
conserver 117
ard@@ 117
OU 117
progrès 117
POUR 117
Pr@@ 117
preuve 117
inform@@ 117
Affections 117
réglementation 117
juste 117
est-il 117
MP@@ 116
résistance 116
Canary 116
récepteurs 116
d'environ 116
C, 116
lesquelles 116
rées 116
dr@@ 116
(EMEA) 116
personn@@ 116
proposition 116
fon@@ 116
ordures 116
tive 115
clairance 115
9, 115
activ@@ 115
vir@@ 115
différentes 115
progression 115
passe 115
og@@ 115
cartouche 115
iste 115
marché. 115
utilisées 115
souhait@@ 115
ois@@ 115
et. 115
davantage 115
entraîne 114
l'im@@ 114
utilisant 114
-en 114
oli@@ 114
foie 114
l'exposition 114
Westferry 114
38@@ 114
3,@@ 114
continu@@ 114
agents 114
propos@@ 114
sensation 114
amin@@ 114
entes 114
ô@@ 114
vers@@ 114
d'origine 114
politique 114
l'Europe 114
an, 113
objectifs 113
réduite 113
pharmacovigilance 113
emb@@ 113
CO@@ 113
diagnostic 113
garde 113
fréquent 113
pense 113
not@@ 112
es; 112
kg/ 112
quotidienne 112
uti@@ 112
tis@@ 112
E14 112
ens@@ 112
≥ 112
35 112
hépatiques 112
administrer 112
40@@ 112
prévenir 112
á@@ 112
estime 112
ménagères. 112
maintenir 111
significativement 111
examen 111
Co@@ 111
adi@@ 111
besoins 111
supplémentaire 111
fréquents 111
réalis@@ 111
6, 111
bas@@ 111
ss@@ 111
obtenu 111
ç@@ 111
iques 111
soi@@ 111
198@@ 111
sie 111
aine 111
l'eau 111
cher 111
légère 111
rem@@ 111
90 111
fr@@ 111
conservation 111
difficile 111
exist@@ 111
heures. 110
rac@@ 110
ène 110
Circus, 110
fournie 110
connu 110
prim@@ 110
avi@@ 110
correctement 110
montre 110
tent 110
err@@ 110
Human 110
qui, 110
sorte 110
L'Europe 110
hépatite 109
de, 109
x, 109
-1@@ 109
sites 109
premières 109
Wharf, 109
U 109
rien 109
Mi@@ 109
mét@@ 109
DU 109
donn@@ 109
X 109
DI@@ 109
suivre 109
questions, 109
t-@@ 109
jours. 108
sal@@ 108
régulièrement 108
associée 108
4HB, 108
ales, 108
DE@@ 108
permis 108
élevée 108
ut@@ 108
cardiaque 108
fic@@ 108
cri@@ 108
impact 108
moyens 108
26@@ 107
ceci 107
diminuer 107
nor@@ 107
alfa-2b 107
so@@ 107
23 107
aspect 107
d'utilisation 107
Allemagne 107
ologie 107
ES 107
premiers 107
sions 107
fois, 107
protéger 107
connaître 107
ö@@ 107
l'annexe 107
— 107
mode 107
viol@@ 107
D'UTILISER 107
jetés 107
AD@@ 106
initi@@ 106
vision 106
IS@@ 106
augmenté 106
proportion 106
vitro 106
asi@@ 106
recommandations 106
mises 106
2000 106
contrôler 106
OP@@ 106
oni@@ 106
5-@@ 106
04@@ 106
Portugal 106
& 106
Elle 106
att@@ 106
intraveineuse 105
adolescents 105
air@@ 105
portant 105
ajustement 105
me. 105
té@@ 105
ques@@ 105
ml. 105
3. 105
fréquent: 105
directive 105
dix 105
L'in@@ 105
NON 105
2% 104
modèle 104
ct@@ 104
C. 104
accru 104
gen@@ 104
ez, 104
via 104
paragraphe 104
ON@@ 104
fs 104
effectuée 103
l'évaluation 103
relative 103
ette 103
protéines 103
semaines, 103
%), 103
Vi@@ 103
éti@@ 103
distribution 103
État 103
de. 103
différence 102
29@@ 102
ates 102
ites 102
ir. 102
éch@@ 102
petite 102
isé 102
carte 102
CE@@ 102
AT@@ 102
respiratoires 102
prot@@ 102
exigences 102
aff@@ 102
nos 102
esse 101
arrê@@ 101
rédu@@ 101
traitement, 101
nourriture 101
survenir 101
ure 101
autoris@@ 101
gén@@ 101
termin@@ 101
tiv@@ 101
ème 101
11@@ 101
poursuivre 101
longue 101
anc@@ 101
bio@@ 101
lement 101
d'avoir 101
tor@@ 101
ett@@ 101
aurait 101
TITULAIRE 101
ban@@ 101
MEDICAMENTS 101
Insuman 101
Pharma 100
7% 100
métabolites 100
réponses 100
cliniquement 100
seconde 100
l'association 100
destinés 100
chirurgie 100
l'infection 100
5, 100
vitamine 100
petit 100
év@@ 100
connue 100
administrés 100
documents 100
d, 100
cap@@ 100
glycémie 100
Fréquent: 100
Utilisation 100
d'eau 100
131/ 100
notre 100
ing 99
heure 99
4,@@ 99
techniques 99
Q@@ 99
lequel 99
majorité 99
cat@@ 99
sous-cutanée 99
4.5). 99
représente 99
mat@@ 99
lé@@ 99
déf@@ 99
03@@ 99
EL@@ 99
vient 99
fond@@ 99
tre 99
amélior@@ 99
í@@ 99
inf@@ 99
/99) 99
l'augmentation 98
tissus 98
pe 98
00@@ 98
chiens 98
monothérapie 98
yeux 98
lignes 98
euse. 98
tenir 98
maternel 98
aura 98
hu@@ 98
ili@@ 98
1) 97
os, 97
médicaments. 97
ce, 97
ome 97
suivants 97
Pro@@ 97
gonflement 97
dispose 97
antes. 97
rempl@@ 97
III 97
déficit 97
fil@@ 97
antibiotiques 97
d'é@@ 97
che, 97
LI@@ 97
to 97
l'aiguille 97
côté 97
CES 97
public 97
forte 97
tiers 97
politiques 97
radio@@ 96
le, 96
toxicité 96
fracture 96
inclus 96
phosphate 96
issement 96
(un 96
permettant 96
sign@@ 96
ologiques 96
restent 96
nie 96
ed 96
eaux 96
z 96
probablement 96
Quels 96
là 96
assez 96
L'expérience 96
V 95
24@@ 95
supérieur 95
ie. 95
exposition 95
normal@@ 95
Cmax 95
dét@@ 95
fonctionnement 95
); 95
L-@@ 95
observées 95
n'était 95
décès 95
évalué 95
double 95
c'est-à-dire 95
MÉDICAMENTS 95
o. 95
gn@@ 95
prend 95
mélanger 95
Insulin 95
n' 95
Plusieurs 95
l'homme 94
ï@@ 94
versus 94
a-@@ 94
Ex@@ 94
ais, 94
plaquettes 94
conduite 94
fond 94
lég@@ 94
limit@@ 94
re. 94
132/ 94
Qui 94
/2000) 94
d'effets 93
tre. 93
H 93
cy@@ 93
suffis@@ 93
conséquent 93
extr@@ 93
arrêter 93
porter 93
minimisation 93
Ce 93
régions 93
devant 93
l'une 93
flu@@ 93
structure 93
sanguines 93
généraux 93
ens, 93
ante, 93
précaution 93
Ar@@ 93
l’utilisation 93
longtemps 93
âgées 93
istes 93
qu'on 93
principaux 92
âg@@ 92
loc@@ 92
ble, 92
London 92
métabolite 92
mains 92
tension 92
idé@@ 92
26 92
19 92
artérielle 92
susceptible 92
gélules 92
patient. 92
examin@@ 92
mu@@ 92
cher@@ 92
conseil 92
précautions 92
famille 92
arm@@ 92
c’est 92
(A4-00@@ 92
possible, 91
âge 91
els. 91
glob@@ 91
différ@@ 91
assistance 91
tique, 91
cer@@ 91
ères. 91
ois 91
ez-@@ 91
l'injection 91
derniers 91
organis@@ 91
biodisponibilité 91
L'efficacité 91
(0) 91
Pfizer 91
s'agit 91
Seuls 91
Nor@@ 90
consulter 90
bles. 90
sie, 90
niveaux 90
II 90
l'am@@ 90
AB@@ 90
doute, 90
ative 90
mortalité 90
féline 90
tion@@ 90
Pays-Bas 90
pan@@ 90
précis@@ 90
arg@@ 90
chang@@ 90
direc@@ 90
acide 90
charg@@ 90
urg@@ 90
oire. 90
ents. 90
années. 90
santé, 90
Sans 90
Malheureusement, 90
sion@@ 89
pourriez 89
nécessaire, 89
cycle 89
libre 89
agit 89
l'EMEA 89
injections 89
tissu 89
lat@@ 89
ion 89
infectés 89
potassium 89
stylos 89
mort 89
services 89
classe 89
l'étiquetage 89
repas. 89
ê@@ 89
/00@@ 89
humain. 89
conserv@@ 89
s'assurer 89
faire, 89
qu' 89
considérés 88
dro@@ 88
principale 88
S, 88
extrêmement 88
proté@@ 88
d'études 88
légèrement 88
dose. 88
MI@@ 88
{Nom 88
observ@@ 88
inférieur 88
pt@@ 88
qu’@@ 88
and 88
sensibilité 88
ers, 88
autorisations 88
objec@@ 88
essi@@ 88
para@@ 88
ain 88
sérieux 88
ouv@@ 88
adaptation 87
ib@@ 87
bas 87
RISPERDAL 87
1% 87
osi@@ 87
l'I@@ 87
plasmatique 87
98 87
fondaparinux 87
inférieure 87
ements. 87
associ@@ 87
plac@@ 87
i, 87
tou@@ 87
sor@@ 87
faite 87
qués 87
enfants. 87
lumière 87
autant 87
bénéfices 87
limites 87
tes. 87
droits 87
pas, 87
aujourd'hui 87
vitesse 86
cutanées 86
plus. 86
oire, 86
l'autre 86
audi@@ 86
8, 86
l'en@@ 86
adop@@ 86
actifs 86
incluant 86
pou@@ 86
mati@@ 86
aiguë 86
cholestérol 86
menée 86
eill@@ 86
modérée 86
fait@@ 86
mani@@ 86
confiance 86
ne, 86
cam@@ 86
Le@@ 86
dénominations 86
chose 86
parl@@ 86
no 86
certaine 86
Ser@@ 85
posologique 85
3/ 85
alement 85
globale 85
5,@@ 85
sti@@ 85
cutanée 85
mainten@@ 85
auprès 85
F 85
rest@@ 85
l'E@@ 85
90@@ 85
mère 85
uniformément 85
SUR 85
changements 85
jusqu’à 85
l'O@@ 85
médicaments, 85
gé@@ 85
présidence 85
erg@@ 85
(0)@@ 85
couleur 85
utilisation. 85
garantir 85
oy@@ 85
us. 84
déterminer 84
d'au 84
que) 84
traitées 84
conservé 84
commencer 84
l'absence 84
mélange 84
conclu 84
atif 84
tes, 84
commercialisation 84
pes 84
entreprises 84
document 84
excipients. 84
dit@@ 84
pris@@ 84
impos@@ 84
font 84
L'étude 84
injecter 83
étude, 83
contrôlée 83
court 83
l'âge 83
transmission 83
situations 83
ard 83
vaccin@@ 83
bri@@ 83
rubriques 83
mag@@ 83
évalu@@ 83
33 83
indi@@ 83
For@@ 83
tifs 83
interféron 83
oï@@ 83
tableau 83
thromb@@ 83
secteur 83
pé@@ 83
Sch@@ 83
nombreuses 83
différences 83
membres, 83
capuchon 83
l'objectif 83
jet@@ 83
der 83
er? 83
citoyens 83
travailleurs 83
médicale 82
réalisées 82
800 82
tête 82
temps. 82
ane 82
s). 82
révélé 82
rénale, 82
VIII 82
essentiellement 82
évaluée 82
tot@@ 82
ans@@ 82
hor@@ 82
considéré 82
ém@@ 82
suivantes 82
TA@@ 82
l'h@@ 82
élevés 82
priv@@ 82
aliments 82
justifi@@ 82
Faites 82
puissent 82
près 82
L'ex@@ 82
Voilà 82
compr@@ 81
mois, 81
limiter 81
C) 81
rapportées 81
appropriée 81
tradu@@ 81
ras@@ 81
70@@ 81
étape 81
caus@@ 81
enregistr@@ 81
sodium, 81
ente, 81
ect@@ 81
rais@@ 81
enzymes 81
sion. 81
GmbH 81
tenant 81
lè@@ 81
d'ab@@ 81
lors@@ 81
aux@@ 81
d. 81
ep@@ 81
i. 81
mes, 81
aill@@ 81
mentionnés 81
agir 81
moitié 81
consiste 81
étudiée 81
insuffisants 81
mis@@ 81
issent 81
j'@@ 81
Rien 81
SE@@ 80
quantités 80
OR@@ 80
cliniques, 80
idées 80
l'origine 80
ouvert 80
SI@@ 80
1.@@ 80
concentr@@ 80
l'ordre 80
Trudexa 80
mg) 80
employ@@ 80
efficacité 80
enfants, 80
allait@@ 80
hydr@@ 80
section 80
principes 80
recours 80
ber@@ 80
expérimenté 80
antes, 80
consommateurs 80
qu'elles 80
large 80
ains 80
conçu 80
élev@@ 80
commun@@ 80
Premièrement, 80
Str@@ 79
arrêté 79
d'action 79
els, 79
%). 79
din@@ 79
modifi@@ 79
Gu@@ 79
s), 79
ocyt@@ 79
fé@@ 79
seul@@ 79
isol@@ 79
supérieures 79
d'éviter 79
39@@ 79
vu 79
ents, 79
limité 79
super@@ 79
considérée 79
l'absorption 79
centr@@ 79
han@@ 79
rouges 79
responsables 79
ologi@@ 79
il, 79
RI@@ 79
pon@@ 79
que@@ 79
ex. 79
représentant 79
e" 79
AB 78
assurer 78
demi-vie 78
profil 78
application 78
sains 78
ences 78
qué 78
dée 78
dur@@ 78
B. 78
»@@ 78
liée 78
euse, 78
march@@ 78
érer 78
ines, 78
stade 78
CP@@ 78
l'apparition 78
ch 78
fois. 78
lact@@ 78
produit. 78
aire@@ 78
hom@@ 78
AP@@ 78
lan@@ 78
reconstitué 78
Préparation 78
the 78
l’un 78
002 78
art@@ 78
arriv@@ 78
sujet 78
constitue 78
systémique 77
pourcentage 77
Lu@@ 77
petits 77
étudiées 77
altération 77
(T@@ 77
atten@@ 77
maximum 77
1-@@ 77
améliorer 77
che. 77
émi@@ 77
minim@@ 77
prati@@ 77
mid@@ 77
En@@ 77
ères, 77
enf@@ 77
tez 77
propriétés 77
ER 77
arr@@ 77
causes 77
issant 77
nationales 77
excessi@@ 77
ef@@ 77
rouge 77
eff@@ 77
(s) 77
antécédents 77
5.2). 77
pas. 77
land@@ 77
prom@@ 77
industri@@ 77
texte 77
+4@@ 77
cycl@@ 77
continue 77
96/ 77
ente. 77
Quelques 77
disposition 77
condition 77
respons@@ 77
législ@@ 77
voy@@ 77
a-t-elle 77
pér@@ 76
calcul@@ 76
bras 76
7,@@ 76
oxy@@ 76
ET@@ 76
] 76
.. 76
ACR 76
2) 76
espèces 76
ond@@ 76
compos@@ 76
bactéri@@ 76
(CHMP) 76
esti@@ 76
repas 76
tives 76
pompe 76
trouv@@ 76
sembl@@ 76
poser 76
manifest@@ 76
manque 76
rénaux 76
@@@ 76
annexe 76
vie. 76
veiller 76
Europe, 76
l'allaitement 76
permet@@ 76
alfa 76
voire 76
L'effet 76
001 76
sk@@ 76
char@@ 76
pays, 76
m'@@ 76
voix 76
Pourtant, 76
devons 76
ait-il 76
Notre 76
ures 75
études, 75
ml, 75
tir@@ 75
l'adulte 75
6,@@ 75
volontaires 75
4.8). 75
es), 75
nerveux 75
liaison 75
catégorie 75
four@@ 75
aï@@ 75
PR@@ 75
post-@@ 75
5.@@ 75
10% 75
populations 75
virale 75
dérivés 75
élevées 75
s’il 75
commercialis@@ 75
act@@ 75
tres 75
jours, 75
soumis 75
prescrit 75
Infection 75
qui@@ 75
jug@@ 75
langue 75
médecin, 75
transport@@ 75
Poudre 75
Olanzapine 75
oire 75
r. 75
certainement 75
Quant 75
entraîné 74
seuls 74
émie 74
virologique 74
buvable 74
procéder 74
autour 74
cation 74
faibles 74
36 74
33@@ 74
mon 74
RA@@ 74
lib@@ 74
coll@@ 74
us, 74
*@@ 74
que: 74
Ph@@ 74
enc@@ 74
établie 74
es-@@ 74
tabl@@ 74
pren@@ 74
séri@@ 74
constitu@@ 74
29 74
ture 74
Limited 74
100@@ 74
chaîne 74
ff@@ 74
l'Autorisation 74
projet 74
accor@@ 74
pres@@ 73
tions, 73
(I@@ 73
bil@@ 73
provenant 73
cellul@@ 73
estimé 73
ira 73
euses. 73
off@@ 73
hal@@ 73
maternel. 73
progressive 73
chacun 73
ens. 73
similaires 73
lar@@ 73
exprim@@ 73
02@@ 73
comprim@@ 73
2006. 73
scientifiques 73
procédures 73
influence 73
qu’une 73
donnée 73
version 73
ä@@ 73
défini@@ 73
assur@@ 73
cal 73
mêmes 73
évaluer 73
IV@@ 73
humaine. 73
St@@ 73
verre 73
pay@@ 73
fonctionne 73
tur@@ 73
pri@@ 73
cli@@ 73
devenir 73
iter 73
Ne@@ 73
ON 73
Se@@ 73
pays. 73
l'article 73
Nombre 73
Qu’@@ 73
démocrati@@ 73
ation? 73
39 72
l'incidence 72
correspond 72
8% 72
ce. 72
amine 72
appelée 72
bé@@ 72
rar@@ 72
(en 72
rom@@ 72
augmentée 72
I, 72
femmes, 72
mes@@ 72
enne. 72
ennes 72
aider 72
LU@@ 72
n’ont 72
(3 72
souches 72
atteinte 72
1000 72
Comment 72
ajou@@ 72
:@@ 72
connus 72
dél@@ 72
co-@@ 72
itu@@ 72
quée 72
Dé@@ 72
réglement@@ 72
ad 72
pli@@ 72
6.@@ 72
ju@@ 72
ent: 72
humain@@ 72
complications 72
Tr@@ 72
Ou@@ 72
considération 72
Ri@@ 72
Road 72
particulière 72
ter. 72
tro@@ 72
gènes 72
résolution 72
adresse 72
fondament@@ 72
respect@@ 72
Car@@ 72
aur@@ 72
ah@@ 72
principales 72
èrent 72
présid@@ 72
considér@@ 72
dépenses 72
amendements 72
ont-ils 72
A/ 71
84 71
envisag@@ 71
compl@@ 71
posi@@ 71
(D@@ 71
hér@@ 71
actives 71
comparaison 71
x. 71
détru@@ 71
résidus 71
crises 71
intr@@ 71
plas@@ 71
l'an@@ 71
similaire 71
és@@ 71
degré 71
créatinine 71
pal@@ 71
multipli@@ 71
ation: 71
l'université 71
Cor@@ 71
re: 71
apport@@ 71
condu@@ 71
facilement 71
mou@@ 71
humains 71
enzyme 71
établi 71
dev@@ 71
sem@@ 71
Merck 71
don@@ 71
test@@ 71
gens 71
exécu@@ 71
utilisez 71
PROVENANT 71
Leur 71
européens 71
victimes 71
/200@@ 71
Troisièmement, 71
B, 70
ouver@@ 70
étroite 70
succès 70
signal@@ 70
heur@@ 70
32 70
placebo, 70
air 70
largement 70
représent@@ 70
pir@@ 70
diminue 70
multi@@ 70
s; 70
le. 70
50% 70
allant 70
constat@@ 70
cô@@ 70
coagulation 70
bar@@ 70
contamin@@ 70
demandes 70
spéci@@ 70
cop@@ 70
conditionn@@ 70
particulières 70
he@@ 70
intéress@@ 70
journ@@ 70
diurétiques 70
ches 70
sexu@@ 70
ération 70
rénale. 70
No@@ 70
natur@@ 70
ka 70
004 70
objectif 70
grandes 70
pourquoi 70
Or@@ 69
saignements 69
travers 69
définition 69
péri@@ 69
situ@@ 69
oti@@ 69
cid@@ 69
minimum 69
irritation 69
(0,@@ 69
tendance 69
appliquer 69
1,5 69
prescription 69
ance@@ 69
ine) 69
l'information 69
calcium 69
blanche 69
postes 69
teur 69
reconstitution 69
ly@@ 69
pharmacien 69
même, 69
ables, 69
empêcher 69
l'accès 69
dys@@ 69
tampons 69
pertin@@ 69
noms 69
cas. 69
publique 69
Luxembourg 69
médecins 69
l'année 69
préremplie 69
sp@@ 69
entre@@ 69
uvre 69
capable 69
enrobés 69
LIEU 69
metformine 68
pass@@ 68
comparé 68
%@@ 68
immun@@ 68
sanguins 68
éruption 68
rén@@ 68
sanguine 68
sélec@@ 68
allergiques 68
provoque 68
hépatique. 68
ra. 68
T-@@ 68
point@@ 68
46 68
importants 68
34 68
jour) 68
160 68
l'interféron 68
peau, 68
meilleur 68
sion, 68
(C@@ 68
ide, 68
D'@@ 68
ambi@@ 68
Espagne 68
coopération 68
fait, 68
plaquette 68
société 68
taille 68
gène 68
résist@@ 68
boîtes 68
évit@@ 68
coûts 68
bles, 68
27 68
ir, 68
aus@@ 68
gaz 68
législation 68
élément 68
européenne, 68
Suspension 68
porte 68
ici 68
alité. 68
est-ce 68
Objet: 68
médical 67
cess@@ 67
voi@@ 67
atives 67
opér@@ 67
N-@@ 67
inhal@@ 67
58@@ 67
l'ac@@ 67
excessive 67
Non 67
polyarthrite 67
nerv@@ 67
d'E@@ 67
immédiatement. 67
met@@ 67
42 67
l’œ 67
Val@@ 67
q@@ 67
PegIntron 67
conduit 67
tat@@ 67
récepteur 67
sept 67
tre, 67
fer 67
197@@ 67
trop@@ 67
CE 67
Ro@@ 67
(L@@ 67
um, 67
caractère 67
VIH. 67
remettre 67
ins. 67
n'en 67
approche 67
signe 67
appropriée. 67
oul@@ 67
Irlande 67
bru@@ 67
matériel 67
mée 67
local 67
autorisé 67
individu@@ 67
conn@@ 67
mesur@@ 67
faire. 67
présentez 67
alimentaires 67
plutôt 67
ille 67
anim@@ 66
suivantes: 66
il. 66
at, 66
dépression 66
trou@@ 66
1. 66
série 66
31 66
patient@@ 66
suspect@@ 66
potentiellement 66
faiblesse 66
visi@@ 66
anné@@ 66
fix@@ 66
cons@@ 66
ate, 66
CYP2C@@ 66
PO@@ 66
Her@@ 66
Per@@ 66
ologique 66
fur@@ 66
huit 66
porcs 66
phot@@ 66
ellement, 66
insp@@ 66
bor@@ 66
éliminé 66
2002. 66
avantages 66
her@@ 66
internation@@ 66
contiennent 66
vérifier 66
rée. 66
Mal@@ 66
retirer 66
juin 66
persist@@ 66
milieu 66
France, 66
pâ@@ 66
tour@@ 66
destiné 66
mer@@ 66
Sou@@ 66
sé. 66
mer 66
003 66
atis@@ 66
ent-ils 66
que? 66
NovoMix 65
essai 65
bouche 65
comportement 65
mort@@ 65
CT@@ 65
l) 65
développ@@ 65
prof@@ 65
presque 65
relation 65
d'hypersensibilité 65
at. 65
élimin@@ 65
conséquence 65
eri@@ 65
y, 65
d'ac@@ 65
déclar@@ 65
apparition 65
spécialis@@ 65
ai 65
jeune 65
fabrication 65
effectué 65
cité 65
d'emploi 65
matières 65
instauré 65
teurs 65
habitu@@ 65
mes. 65
com 65
excipients 65
ogène 65
prolong@@ 65
appliqué 65
ré. 65
ez@@ 65
fier 65
vent 65
mondi@@ 65
milli@@ 65
ers. 65
quelles 65
abor@@ 65
connaît 65
 000 65
Rapport: 65
sévère. 64
relatif 64
ds 64
9,@@ 64
enne, 64
hémorragie 64
événement 64
des, 64
VIH 64
dura@@ 64
n'ayant 64
vas@@ 64
fins 64
considérées 64
viande 64
lié 64
étudi@@ 64
sérique 64
grâce 64
d'en@@ 64
communaut@@ 64
dépend@@ 64
acides 64
I. 64
hormone 64
é? 64
ez. 64
anci@@ 64
isant 64
produ@@ 64
04/ 64
suc@@ 64
f. 64
assu@@ 64
détermin@@ 64
har@@ 64
octobre 64
mofétil 64
élévation 64
adéquate 64
haut@@ 64
color@@ 64
bul@@ 64
santé. 64
l'ar@@ 64
flacon. 64
clés 64
utilisation, 64
dégradation 64
simple 64
équip@@ 64
travail. 64
lin@@ 64
ire 64
handicap@@ 64
Pl@@ 63
simplement 63
l'impact 63
vétérinaires 63
pathie 63
agi@@ 63
allergi@@ 63
secondaires 63
l'acide 63
ont@@ 63
tra 63
seraient 63
ami@@ 63
aggravation 63
Th@@ 63
contrôlés 63
min 63
99/ 63
éré 63
urin@@ 63
l'at@@ 63
pré-@@ 63
dosage 63
vivo 63
MISE 63
nausées, 63
éc@@ 63
tal@@ 63
prise. 63
iser 63
dul@@ 63
accord 63
oir 63
qu’elle 63
demi-@@ 63
examens 63
ud@@ 63
ty@@ 63
., 63
veill@@ 63
sommes 63
asse 63
d'absorption 63
(souche 63
éli@@ 63
cela, 63
poudre, 63
Pour@@ 63
égale 63
laisser 63
travail, 63
compéti@@ 63
l'égout 63
ablement 63
sûr 63
rait 63
clim@@ 63
re? 63
(H-0@@ 63
savons 63
2-@@ 62
ton 62
rapporté 62
blancs 62
circul@@ 62
fièvre 62
anor@@ 62
biologique 62
250 62
mg. 62
bout 62
mg/@@ 62
évo@@ 62
apparaît 62
one, 62
fort 62
ol, 62
EX@@ 62
domaines 62
Pa@@ 62
tement 62
organisation 62
sér@@ 62
organ@@ 62
ma 62
alités 62
− 62
fortement 62
tionn@@ 62
Mycophénolate 62
diagnosti@@ 62
bilité 62
insulin@@ 62
atteindre 62
obtenus 62
inhibe 62
micr@@ 62
path@@ 62
plaques 62
animaux. 62
n'auriez 62
inst@@ 62
totalement 62
Pharmaceuticals 62
hormones 62
conséquence, 62
faisant 62
LOTS 62
emp@@ 62
PE@@ 62
ie@@ 62
part@@ 62
éliminés 62
européenne. 62
exig@@ 62
veut 62
loin 62
contre, 62
on? 62
sec@@ 61
circonstances 61
lev@@ 61
ré, 61
44@@ 61
culaire 61
central 61
suicidaires 61
supérieurs 61
née 61
pen@@ 61
produits, 61
étu@@ 61
(N@@ 61
neur@@ 61
mentionn@@ 61
(n 61
classi@@ 61
ges@@ 61
attribu@@ 61
toxiques 61
limpide 61
mas@@ 61
TE@@ 61
indu@@ 61
générale 61
CPMP 61
leucémie 61
lim@@ 61
haute 61
lam@@ 61
acquise 61
nég@@ 61
port 61
pertinence 61
trouver 61
for 61
titre 61
Lilly 61
rejet@@ 61
-t-il 61
Nom 61
ts. 61
président 61
approuvée 61
eusement 61
bénéfici@@ 61
êt@@ 61
meur@@ 61
s! 61
ement? 61
   61
K 60
consultez 60
pulmonaire 60
group@@ 60
médiane 60
tomb@@ 60
chol@@ 60
tumeurs 60
contrôlées 60
induit 60
éni@@ 60
4% 60
49 60
l'élimination 60
ray@@ 60
Trans@@ 60
thérapie 60
ines. 60
AN 60
naïfs 60
évolution 60
viv@@ 60
établi@@ 60
inclu@@ 60
Enbrel 60
l'ASC 60
uri@@ 60
mélangé 60
d'am@@ 60
lorsqu'il 60
mélang@@ 60
l'animal 60
eux@@ 60
til@@ 60
coordination 60
erreur 60
conten@@ 60
L' 60
facil@@ 60
rendre 60
impossible 60
diluer 60
identifi@@ 60
ction 60
expli@@ 60
professionnels 60
nature 60
progressi@@ 60
hydroxy@@ 60
organes 60
organisations 60
ow@@ 60
emballage 60
endra 60
International 60
GlaxoSmithKline 60
tex@@ 60
Bu@@ 60
chois@@ 60
l'immunodéficience 60
FABRICATION 60
022/ 60
dispositions 60
appelé 60
ne. 60
ête 60
l’Union 60
achet@@ 60
pén@@ 60
ment, 60
parents 60
Commission, 60
L'un 60
interdiction 60
consommateur 60
l’Europe 60
journalière 59
particuli@@ 59
fixe 59
intestin@@ 59
cœ 59
poursuite 59
tandis 59
lique 59
fai@@ 59
réductase 59
rit@@ 59
oculaire 59
touch@@ 59
67 59
d'entretien 59
sclérose 59
(pour 59
TS 59
vs 59
ténofovir 59
RO@@ 59
congelé 59
UL@@ 59
sont: 59
Bo@@ 59
inc@@ 59
4.2). 59
alcool@@ 59
oss@@ 59
Lors@@ 59
tif@@ 59
fourni@@ 59
rarement 59
seringues 59
vomissements 59
maintenant 59
oires 59
consomm@@ 59
6.6. 59
présentés 59
OÜ 59
CONSTA 59
ché 59
Im@@ 59
prérempli 59
l'environnement. 59
adress@@ 59
bénéficier 59
bat@@ 59
qu’ils 59
marché, 59
temp@@ 59
danger@@ 59
capit@@ 59
e". 59
Mme @@ 59
zidovudine 58
nécessaires. 58
vasculaire 58
(R@@ 58
l'ostéoporose 58
fractures 58
95%: 58
dés 58
dor@@ 58
3) 58
quels 58
consci@@ 58
Com@@ 58
tique. 58
ve, 58
lanc@@ 58
normale 58
produite 58
AV@@ 58
fréqu@@ 58
semaine) 58
tif. 58
d'enfants 58
tient 58
3-@@ 58
ouverture 58
endommagé 58
l'expérience 58
interaction 58
prépar@@ 58
blanc@@ 58
possibles 58
dispositifs 58
phosph@@ 58
réserv@@ 58
contenus 58
masse 58
rythme 58
rapidement. 58
d'obtenir 58
contraste 58
Li@@ 58
hémat@@ 58
log@@ 58
ète 58
ü@@ 58
Durée 58
Sharp 58
BI@@ 58
déterminée 58
négatif 58
Résumé 58
sais@@ 58
nettoyants) 58
bal@@ 58
menac@@ 58
cont@@ 58
quoi 58
qu’un 58
Seul 58
." 58
pêche 58
alisme 58
 millions 58
passé 58
Peut-être 58
Cl@@ 57
accu@@ 57
l'environnement 57
diminu@@ 57
(IC 57
serv@@ 57
pur@@ 57
champ 57
modé@@ 57
accidents 57
indiqu@@ 57
st 57
signific@@ 57
temps, 57
moelle 57
montr@@ 57
tuberculose 57
génotype 57
former 57
sul@@ 57
synthèse 57
comprenant 57
rhinotrachéite 57
novembre 57
µ@@ 57
intensi@@ 57
réc@@ 57
sulf@@ 57
capacités 57
cra@@ 57
chev@@ 57
mauvais 57
directrices 57
pharmaceutiques 57
l’aiguille 57
Aucune 57
w 57
requ@@ 57
ins, 57
environnement@@ 57
distribu@@ 57
travaux 57
entreprise 57
européenn@@ 57
ana 57
human@@ 57
coup@@ 57
habituellement 57
commission 57
l'emballage 57
prét@@ 57
boissons 57
INFORMATION 57
pratique 57
oubli@@ 57
œu@@ 57
UTILISÉ 57
Qu'est-ce 57
oubliez 57
L'UE 57
ages, 57
z, 57
monde. 57
?@@ 57
fonds 57
ia 56
et/ou 56
(H@@ 56
poursuivi 56
46@@ 56
évènements 56
losartan 56
(G@@ 56
stimule 56
ence@@ 56
grav@@ 56
standard 56
ail@@ 56
]@@ 56
II@@ 56
injecté 56
8,@@ 56
Fr@@ 56
ase. 56
gan@@ 56
dues 56
écr@@ 56
détect@@ 56
maj@@ 56
second@@ 56
é: 56
-0@@ 56
l'ab@@ 56
précéd@@ 56
entes. 56
arrêt 56
ern@@ 56
blanches 56
Informations 56
/0@@ 56
indiquent 56
inqui@@ 56
hypertension 56
centre 56
chlor@@ 56
froi@@ 56
ne@@ 56
thé@@ 56
ets, 56
utilisateurs 56
*, 56
Bi@@ 56
neu@@ 56
ités. 56
ises 56
entraînant 56
révision 56
affaires 56
bouton 56
rage 56
info@@@ 56
entrer 56
aliment@@ 56
SA 56
atténué 56
jeu 56
Irbesartan 56
preuves 56
l'alcool 56
potenti@@ 56
limitée 56
RESPONSABLE 56
clair@@ 56
Eur@@ 56
financ@@ 56
quement, 56
d'im@@ 56
concerné@@ 56
ignor@@ 56
réus@@ 56
travaill@@ 56
crimin@@ 56
moi, 56
maintien 55
6% 55
randomisés 55
dessous 55
atoires 55
d'injection, 55
céphal@@ 55
ite. 55
syn@@ 55
press@@ 55
oci@@ 55
µg/ 55
cliniques. 55
score 55
UI@@ 55
bovins 55
plasma 55
matern@@ 55
l'EMEA. 55
musculaire 55
dom@@ 55
My@@ 55
2.@@ 55
000/ 55
connaiss@@ 55
rée, 55
d'anticorps 55
sant@@ 55
mill@@ 55
5) 55
calcitonine 55
sionn@@ 55
avril 55
porté 55
technologies 55
travaillé 55
divers 55
Ab@@ 55
essenti@@ 55
AG@@ 55
vin@@ 55
septembre 55
Hyper@@ 55
progressivement 55
approuv@@ 55
d'animaux 55
interrompu 55
statistiques 55
trim@@ 55
mmol/ 55
engag@@ 55
vont 55
diss@@ 55
thermoformée 55
dra@@ 55
bour@@ 55
transdermique 55
tor 55
d'effet 55
isse 55
l'application 55
soign@@ 55
san@@ 55
EN 55
fournir 55
pouss@@ 55
vou@@ 55
erez 55
réaliser 55
dû: 55
chômage 55
PI@@ 54
tera 54
ment. 54
saignement 54
avir@@ 54
corps. 54
surtout 54
simvastatine 54
correspondant 54
accrue 54
tive, 54
respiratoire 54
tifs, 54
kin@@ 54
méthotrexate 54
0,0@@ 54
ID@@ 54
dési@@ 54
LE@@ 54
trac@@ 54
EV@@ 54
réalisés 54
EP@@ 54
cad@@ 54
fum@@ 54
approximativement 54
d'inter@@ 54
oxyde 54
gélule 54
mol@@ 54
significatif 54
g/ 54
agn@@ 54
opaque 54
um. 54
effectu@@ 54
assist@@ 54
vé@@ 54
cur@@ 54
des. 54
fais@@ 54
anémie 54
visant 54
directe 54
D-@@ 54
sécheresse 54
ve. 54
ast@@ 54
Mix25 54
eant 54
expérience 54
alité, 54
onnement 54
plastique 54
of@@ 54
Dohme 54
c. 54
Am@@ 54
tif, 54
respecter 54
vention 54
63 54
006 54
55 54
années, 54
République 54
transfert 54
envisagée 54
pens@@ 54
homme 54
écar@@ 54
grand@@ 54
indiquée 54
PRECAUTIONS 54
autr@@ 54
histoire 54
(débat) 54
schéma 53
(4@@ 53
7/ 53
biologiques 53
f, 53
développé 53
simil@@ 53
semaine, 53
reproduction 53
compli@@ 53
route 53
mit@@ 53
ait, 53
erie 53
interactions 53
hum@@ 53
décidé 53
cale 53
écou@@ 53
intérêt 53
trav@@ 53
intervalle 53
cohér@@ 53
6/ 53
d'infection 53
(4 53
jour@@ 53
d’injection 53
oral 53
MM@@ 53
mutation 53
g. 53
ones 53
influ@@ 53
l'aptitude 53
ure, 53
Internet 53
irrit@@ 53
l'industrie 53
Es@@ 53
ca 53
Ad@@ 53
chimiques 53
Europe. 53
impli@@ 53
acc@@ 53
glycémie. 53
assi@@ 53
responsabilité 53
diges@@ 53
analyses 53
euses, 53
(y 53
développement. 53
compét@@ 53
E. 53
appropri@@ 53
méthodes 53
dommages 53
mil@@ 53
d'hémoglobine 53
60@@ 53
mang@@ 53
technologie 53
rev@@ 53
télé@@ 53
marque 53
pac@@ 53
sirop 53
allaitement 53
suite, 53
psych@@ 53
vin 53
mom@@ 53
confi@@ 53
entraîn@@ 53
remplac@@ 53
d-@@ 53
croiss@@ 53
mont@@ 53
î@@ 53
économique 53
supprim@@ 53
PARTICULIÈRES 53
citoy@@ 53
gouvern@@ 53
e @@ 53
es! 53
indications 52
lamivudine 52
approprié 52
suivie 52
tive. 52
marge 52
polyéthylène 52
és: 52
intervalles 52
Imprida 52
ique, 52
fréquente 52
interfér@@ 52
endre 52
l'inter@@ 52
petites 52
nausées 52
puiss@@ 52
injec@@ 52
faveur 52
dose, 52
carb@@ 52
ts, 52
veineux 52
évidence 52
révél@@ 52
poli@@ 52
180 52
fuite 52
veine 52
rougeur 52
métabolis@@ 52
ReFacto 52
1997 52
lorsqu'ils 52
noti@@ 52
ci-dessous 52
généralis@@ 52
atr@@ 52
ong@@ 52
yn@@ 52
quelqu'un 52
suppression 52
affirm@@ 52
envisager 52
apporter 52
T. 52
probable 52
000@@ 52
m. 52
hydrat@@ 52
injectables 52
ant: 52
atifs 52
frais 52
· 52
tourn@@ 52
r, 52
gue 52
dilu@@ 52
arri@@ 52
grands 52
conscience 52
Italie 52
jus@@ 52
tent@@ 52
États-Unis 52
ampoules 52
té. 52
altern@@ 52
départ 52
Neupro 52
L’utilisation 52
vraiment 52
visibles 52
rouler 52
étrang@@ 52
mê@@ 52
stérile 52
L'UTILISATEUR 52
Sa 52
PRÉCAUTIONS 52
traditionn@@ 52
j'ai 52
concurrence 52
sépa@@ 51
dem@@ 51
appliqu@@ 51
aéri@@ 51
devoir 51
MS@@ 51
gue. 51
ys@@ 51
ose. 51
Bar@@ 51
déplac@@ 51
(≥ 51
T, 51
confir@@ 51
recev@@ 51
clinique. 51
amide 51
proportionn@@ 51
IX 51
récente 51
répon@@ 51
définie 51
erci@@ 51
thérapeutiques 51
plan@@ 51
actuel 51
fantaisie} 51
sauf 51
0, 51
Si@@ 51
(M@@ 51
AF 51
trom@@ 51
cycles 51
acr@@ 51
rare 51
2002 51
connaissance 51
médecine 51
sécurité, 51
Sal@@ 51
nettoy@@ 51
sit@@ 51
ran@@ 51
corpor@@ 51
musculaires 51
outre, 51
h, 51
rester 51
auto-@@ 51
nas@@ 51
plu@@ 51
issez 51
amment 51
agissant 51
pol@@ 51
Ils 51
nom@@ 51
atteintes 51
tran@@ 51
k, 51
efficace. 51
Humalog 51
tan@@ 51
continuer 51
trice 51
l'exception 51
alimentation 51
reconnaître 51
{@@ 51
eng@@ 51
gouvernement 51
contribu@@ 51
aller 51
UTILISÉS 51
Tableau 51
budget 51
construction 51
tra@@ 51
ais. 51
peu@@ 51
PARTICULIERES 51
négoci@@ 51
Madame 51
900 50
courte 50
terme, 50
terminale 50
majeure 50
suivant@@ 50
parlez-en 50
sain@@ 50
n'apparaît 50
ept@@ 50
(de 50
3,5 50
(une 50
poids. 50
ub@@ 50
accidentelle 50
hormon@@ 50
AT 50
-1 50
document@@ 50
ques) 50
(5 50
Grossesse 50
maladie. 50
-9@@ 50
CYP3A4 50
cine 50
7,5 50
adéqu@@ 50
PRO@@ 50
ity 50
relev@@ 50
initial 50
cations 50
injection. 50
rant 50
ement: 50
analogues 50
ure. 50
infect@@ 50
cab@@ 50
(les 50
affection 50
quel@@ 50
exceptionn@@ 50
Gr@@ 50
pul@@ 50
signalés 50
(B@@ 50
Av@@ 50
puisque 50
inject@@ 50
aval@@ 50
tube 50
bactéries 50
sensi@@ 50
Mix50 50
Portugal, 50
l'i@@ 50
Après 50
électri@@ 50
37 50
vis-à-vis 50
recherch@@ 50
org@@ 50
Uni@@ 50
pensez 50
techn@@ 50
na 50
Mon@@ 50
souff@@ 50
omb@@ 50
ck@@ 50
chances 50
bouchon 50
acqu@@ 50
phénomène 50
rend@@ 50
mené 50
007 50
Suède 50
franç@@ 50
essentiel 50
échou@@ 50
L'incidence 50
entend@@ 50
UTILISES 50
 % 50
État@@ 50
assassin@@ 50
L’Europe 50
analys@@ 49
9% 49
accident 49
ost@@ 49
surveill@@ 49
comport@@ 49
difficulté 49
(avec 49
sup@@ 49
ans) 49
soigneusement 49
périodes 49
présentaient 49
(sous 49
1). 49
doulour@@ 49
but 49
ide. 49
semaine. 49
simultanément 49
adaptée 49
sid@@ 49
osté@@ 49
complè@@ 49
rag@@ 49
neuf 49
Sur@@ 49
microgrammes/ 49
itaire 49
visu@@ 49
main@@ 49
quanti@@ 49
estim@@ 49
corporel 49
fonctions 49
diabéti@@ 49
T) 49
2003 49
fièvre, 49
poids, 49
vomissements, 49
Rom@@ 49
2001 49
souche 49
tées 49
cris@@ 49
d'élimination 49
marqu@@ 49
I). 49
survi@@ 49
85 49
manipulation 49
} 49
préalable 49
circulation 49
animale 49
injectables. 49
airement 49
ques: 49
fourni 49
professionnel 49
ampoule 49
ci 49
satis@@ 49
sirolimus 49
rép@@ 49
co-infectés 49
enceinte 49
lien 49
005 49
èn@@ 49
sil@@ 49
rés. 49
Rou@@ 49
Sol@@ 49
articles 49
dic@@ 49
as, 49
moy@@ 49
absolument 49
S'IL 49
année. 49
fra@@ 49
efficace, 49
contrôles 49
6.3. 49
l’on 49
choses 49
débat 49
euros 49
mot 49
ité? 49
nous, 49
u. 48
eures 48
l'analyse 48
d'hy@@ 48
hépat@@ 48
cs 48
faibl@@ 48
omes 48
constater 48
ED@@ 48
fos@@ 48
suffisante 48
modifié 48
Tarceva 48
traitée 48
l'échelle 48
vaccin. 48
AI@@ 48
chimiothérapie 48
active, 48
osseuse 48
reproduc@@ 48
omy@@ 48
basée 48
rhumatoïde 48
malades 48
graisses 48
95 48
diabétiques 48
fem@@ 48
retard 48
cau@@ 48
tol@@ 48
glycémi@@ 48
lit@@ 48
inconnu. 48
offici@@ 48
eu/. 48
esse, 48
lier 48
conseill@@ 48
prob@@ 48
NE 48
be 48
chaleur 48
fortes 48
ml/ 48
érythropoïétine 48
4.4 48
4.3). 48
opération 48
secondaire 48
idée 48
PGR 48
méthyl@@ 48
ép@@ 48
atri@@ 48
formul@@ 48
ole 48
grossesse. 48
cartouche. 48
contin@@ 48
caractéris@@ 48
commun 48
osine 48
Park 48
stock@@ 48
tenu 48
estations 48
souvent, 48
exi@@ 48
MA@@ 48
outre 48
commerci@@ 48
infirmière 48
l’UE 48
l'être 48
retard@@ 48
hydroxyde 48
ó@@ 48
équival@@ 48
meilleurs 48
sév@@ 48
concernés 48
simpl@@ 48
+35@@ 48
encourag@@ 48
d’informations 48
figure 48
prouv@@ 48
financement 48
pouvait 48
simpli@@ 48
ter, 48
techni@@ 48
ent-elles 48
judici@@ 48
fau@@ 48
d'abord, 48
alu@@ 47
(utilisée 47
note 47
observations 47
machines. 47
pioglitazone 47
tn 47
l'estomac 47
développement, 47
épisodes 47
20, 47
Fer@@ 47
nourrissons 47
attendre 47
contamination 47
glucose 47
graiss@@ 47
environnement 47
atique 47
journée 47
présentées 47
entér@@ 47
fac@@ 47
maxim@@ 47
indiquant 47
Sim@@ 47
peginterféron 47
ection 47
eth@@ 47
nov@@ 47
remise 47
À 47
sexe 47
manifestations 47
occupé 47
Ly@@ 47
destinée 47
stockage 47
née, 47
polysorbate 47
reç@@ 47
Europ@@ 47
internationale 47
Por@@ 47
P. 47
mentionnées 47
lentement 47
goutte 47
Syndrome 47
disponibles. 47
çant 47
tentatives 47
sauv@@ 47
prior@@ 47
Belgique, 47
intégr@@ 47
ocol@@ 47
hypersensibilité 47
adapté 47
sens 47
protég@@ 47
reçoit 47
CON@@ 47
pati@@ 47
décrit 47
Tel.: 47
gastro-intestin@@ 47
unique. 47
be@@ 47
toux 47
exploit@@ 47
son@@ 47
toucher 47
règl@@ 47
mobil@@ 47
intérieur 47
multiple 47
ensemble 47
européennes 47
poursuiv@@ 47
importe 47
émissions 47
l’ex@@ 47
étiquet@@ 47
naturelles 47
opérat@@ 47
pourr@@ 47
Ru@@ 47
l'intégralité 47
á 47
ons-@@ 47
l'État 47
ordre 47
DÉCHETS 47
Sverige 47
ordin@@ 47
dépistage 47
Rus@@ 47
N’@@ 47
Parce 47
DECHETS 47
million 47
Mais, 47
ler 46
we@@ 46
granul@@ 46
perfusion. 46
2/ 46
reprise 46
contactez 46
défini 46
ase, 46
vastatine 46
apparaître 46
immédiat@@ 46
EC@@ 46
articul@@ 46
v 46
V, 46
l'int@@ 46
humain, 46
α 46
22@@ 46
EXUBERA 46
sériques 46
périphériques 46
atoire 46
provoqué 46
évaluées 46
principa@@ 46
vitamines 46
5/ 46
panleucopénie 46
d'Alzheimer 46
pommade 46
jeun@@ 46
transitoire 46
10, 46
rix 46
brûl@@ 46
doc@@ 46
Br@@ 46
per 46
conjonctiv@@ 46
flux 46
d'h@@ 46
éché@@ 46
Viraferon 46
médicament@@ 46
chimi@@ 46
DepoCyte 46
Section 46
2008. 46
cancer. 46
ences. 46
vois@@ 46
pepti@@ 46
pathologies 46
tâches 46
Instructions 46
l'octroi 46
maux 46
géni@@ 46
machines 46
nés 46
on: 46
ande 46
tion? 46
41 46
somm@@ 46
détecter 46
Ltd 46
spécifi@@ 46
concern@@ 46
èg@@ 46
endroit 46
1,0 46
exclusivement 46
co-administration 46
ue, 46
souffrent 46
BIOLOGIQUE 46
comp@@ 46
prud@@ 46
land 46
ail 46
voyez 46
structur@@ 46
subst@@ 46
80@@ 46
comb@@ 46
suffit 46
Prévention 46
puis@@ 46
contrain@@ 46
parle 46
instituti@@ 46
peine 46
L'information 46
attend@@ 46
Vos 46
pai@@ 46
tonnes 46
rir 45
véhicule 45
vasculaires 45
antéri@@ 45
anormale 45
candidose 45
neuro@@ 45
éventuellement 45
nécessiter 45
origine 45
satisfais@@ 45
manqu@@ 45
affections 45
pat@@ 45
arrêtez 45
tine 45
acceptable 45
47 45
4) 45
nécessitant 45
crit@@ 45
opi@@ 45
fluor@@ 45
D, 45
Protopy 45
rappel@@ 45
bénéfice/ 45
tirer 45
nettement 45
class@@ 45
suspension. 45
ologie. 45
cutan@@ 45
impliqu@@ 45
l'enzyme 45
dioxyde 45
année, 45
mod@@ 45
onie 45
public@@ 45
iez 45
devait 45
sée. 45
bles@@ 45
supéri@@ 45
isent 45
orient@@ 45
thrombo-emboliques 45
5.1). 45
confirmé 45
eu/ 45
euro@@ 45
lots 45
provo@@ 45
toxi@@ 45
grammes 45
ères@@ 45
servi@@ 45
FR@@ 45
utilisé. 45
Z 45
isée 45
se. 45
pipette 45
D'ORIGINE 45
vér@@ 45
est, 45
réuni@@ 45
mères 45
justi@@ 45
l’autorisation 45
quez 45
S'@@ 45
vement 45
intervention 45
tabac 45
addi@@ 45
parfaitement 45
enquête 45
ront 45
citer 45
raison, 45
vente 45
améric@@ 45
coût 45
auraient 45
œuvre 45
habit@@ 45
graph@@ 44
tés. 44
opath@@ 44
hist@@ 44
hanche 44
one. 44
ther@@ 44
normalement 44
jusqu'au 44
ur 44
l'organisme 44
symptomatique 44
résistants 44
MO@@ 44
appel 44
agit@@ 44
ments 44
pulmon@@ 44
(1@@ 44
terrain 44
l'ur@@ 44
tacrolimus 44
somatropine 44
malgré 44
valsartan 44
n, 44
observation 44
TE 44
apparaissent 44
mécanismes 44
arti@@ 44
réguli@@ 44
Inf@@ 44
opa@@ 44
ités, 44
eu. 44
FI@@ 44
alisée 44
l'ét@@ 44
Lis@@ 44
introdu@@ 44
gestation 44
diarrhée 44
XX@@ 44
congestion 44
modérée. 44
ers@@ 44
chimique 44
intern@@ 44
dées 44
immuno@@ 44
ont, 44
tiques, 44
établir 44
malignes 44
culture 44
gout@@ 44
OU@@ 44
SA@@ 44
Ten@@ 44
sin@@ 44
dre 44
Eli 44
oir@@ 44
Gardez 44
intention 44
KwikPen 44
envisagé 44
gradu@@ 44
RCP 44
hautement 44
œ@@ 44
résultant 44
manipul@@ 44
cel@@ 44
tour 44
fre@@ 44
Pi@@ 44
teneur 44
-, 44
d'information 44
différent 44
opportun@@ 44
néglig@@ 44
complémentaire 44
fentanyl 44
Po@@ 44
inte 44
indique 44
épo@@ 44
reven@@ 44
appréci@@ 44
connu. 44
oir, 44
programmes 44
ettes 44
parlé 44
article 44
donne 44
pollu@@ 44
navires 44
te? 44
affaire 44
écrit. 44
débit 43
rapportée 43
7) 43
pneumo@@ 43
cardiaques 43
bili@@ 43
atiques 43
pil@@ 43
fertilité 43
dipl@@ 43
tp 43
ok@@ 43
signification 43
humaine, 43
prévues 43
d'augmenter 43
transpar@@ 43
en-@@ 43
érythème 43
efficaces 43
conc@@ 43
insuline. 43
aison 43
entièrement 43
glyco@@ 43
127/ 43
thrombo@@ 43
fo@@ 43
subi 43
sévère, 43
exclu@@ 43
aggrav@@ 43
répétées 43
azol@@ 43
fois@@ 43
dysfonctionnement 43
calci@@ 43
nat@@ 43
cuillère 43
sucr@@ 43
odi@@ 43
exemple: 43
ou, 43
-B@@ 43
prévisi@@ 43
identi@@ 43
effectuer 43
fications 43
soph@@ 43
95@@ 43
insuffis@@ 43
efficac@@ 43
connu@@ 43
adapt@@ 43
IntronA 43
û@@ 43
onique 43
ule 43
nique 43
ll@@ 43
communi@@ 43
statut 43
obtenues 43
limitées 43
omati@@ 43
sour@@ 43
Royaume-Uni, 43
II. 43
Mac@@ 43
enfant, 43
appartient 43
filtre 43
(cellules 43
Mer@@ 43
Direc@@ 43
Œ 43
reconstitu@@ 43
Hy@@ 43
Österreich 43
attendu 43
transplantation 43
produc@@ 43
Pe@@ 43
di 43
matéri@@ 43
l'alimentation 43
/9@@ 43
d'alcool 43
l’enfant 43
nuit 43
Yondelis 43
calicivirose 43
ait. 43
producteurs 43
fri@@ 43
vr@@ 43
normes 43
stabil@@ 43
suiv@@ 43
tre@@ 43
préven@@ 43
budg@@ 43
changer 43
contre-indiquée 43
oblig@@ 43
moindre 43
libér@@ 43
portée 43
garanti@@ 43
quali@@ 43
coût@@ 43
voulez 43
imagin@@ 43
Six 43
Trait@@ 43
loi 43
concurr@@ 43
députés 43
Président, 43
Nos 43
seringue, 42
sach@@ 42
38 42
cité. 42
Raptiva 42
ic 42
rap@@ 42
cutanée, 42
extrê@@ 42
sécrétion 42
suicid@@ 42
pronostic 42
étique 42
constituent 42
oly@@ 42
roug@@ 42
(6 42
abatt@@ 42
cine, 42
l'intérieur 42
OM@@ 42
normal 42
devaient 42
glu@@ 42
ViraferonPeg 42
composé 42
tab@@ 42
a) 42
chat 42
négative 42
cro@@ 42
clu@@ 42
échec 42
physique 42
remis 42
mondiale 42
D'autres 42
ès. 42
Prise 42
chef 42
pharmaceuti@@ 42
onc@@ 42
élec@@ 42
alo@@ 42
d'hypo@@ 42
Augmentation 42
ènes 42
unités 42
é) 42
juillet 42
Danemark 42
démontr@@ 42
éth@@ 42
fournies 42
dégra@@ 42
cription 42
dan@@ 42
sique 42
ès, 42
enzymatique 42
lig@@ 42
far@@ 42
diarrhée, 42
septi@@ 42
int 42
aines 42
indépend@@ 42
rê@@ 42
PL@@ 42
m2 42
coagul@@ 42
infectieuse 42
372 42
Est@@ 42
Box 42
Belgique 42
offre 42
permettra 42
danger 42
Telzir 42
solvant, 42
rend 42
vie, 42
s’est 42
ative. 42
optimale 42
d’utiliser 42
ale@@ 42
compens@@ 42
our 42
FCV 42
alement, 42
relire. 42
extérieur 42
personnellement 42
d'ar@@ 42
recru@@ 42
chiffres 42
permettent 42
reconnaît 42
pouv@@ 42
emploi 42
flexi@@ 42
Ni@@ 42
issus 42
chiffre 42
source 42
constate 42
QU’EST-CE 42
parole 42
ceux-ci 42
il? 42
e-t-elle 42
recouv@@ 41
ime 41
minutes. 41
prazole 41
échelle 41
survenus 41
algie, 41
affect@@ 41
fir@@ 41
const@@ 41
myél@@ 41
Pos@@ 41
syst@@ 41
MP 41
gel 41
financi@@ 41
d'attente 41
M) 41
visuelle 41
contre-@@ 41
pation 41
Tritanrix 41
(1,5 41
MUI 41
(la 41
af@@ 41
adé@@ 41
ze 41
cultures 41
hémorragi@@ 41
-ci 41
yl 41
urinaire 41
cité, 41
supplément@@ 41
discussions 41
tin 41
interne 41
(1,@@ 41
difficiles 41
l'instauration 41
reten@@ 41
passi@@ 41
mie 41
jaune 41
NO@@ 41
d'améliorer 41
terr@@ 41
hépati@@ 41
cardi@@ 41
plant@@ 41
2007 41
gèn@@ 41
pratiques 41
présentation 41
opénie, 41
expériment@@ 41
COM@@ 41
agré@@ 41
m, 41
verti@@ 41
recommandées 41
contraception 41
médical@@ 41
ationn@@ 41
particip@@ 41
sels 41
61 41
Wyeth 41
fér@@ 41
Mise 41
55@@ 41
doigt 41
tempor@@ 41
te) 41
nécess@@ 41
propres 41
augmentant 41
Ver@@ 41
communautaire 41
EU@@ 41
scientifi@@ 41
stratégi@@ 41
issue 41
conseillé 41
décisi@@ 41
TH@@ 41
ennent 41
autorisés 41
ajouter 41
comporte 41
origin@@ 41
discu@@ 41
stricte 41
cides 41
injectable. 41
endommag@@ 41
ú@@ 41
nutrition 41
Gélule 41
prescri@@ 41
abil@@ 41
hausse 41
convi@@ 41
boire 41
avanc@@ 41
qualifi@@ 41
bomb@@ 41
endr@@ 41
Pu@@ 41
contenir 41
titude 41
reti@@ 41
ait@@ 41
abilité. 41
régi@@ 41
inquiét@@ 41
affaibli@@ 41
té, 41
fonctionnaires 41
appelle 41
(hypersensible) 41
aille 41
L'une 41
agricul@@ 41
position, 41
légi@@ 41
construc@@ 41
&#x02BC;@@ 41
mari@@ 41
prévoit 41
ait-elle 41
dic 40
floxacine 40
multiples 40
FS@@ 40
ème, 40
pali@@ 40
Fi@@ 40
cancers 40
l'ad@@ 40
89 40
psoriasique 40
nie, 40
prévue 40
devriez 40
d'activité 40
TA 40
choc 40
absence 40
éruptions 40
zon@@ 40
l'évolution 40
ici@@ 40
lé 40
identifiés 40
pédiatri@@ 40
alcal@@ 40
Humira 40
l'or@@ 40
débu@@ 40
de) 40
apa@@ 40
numération 40
TV@@ 40
d'interaction 40
fact@@ 40
orale. 40
ath@@ 40
absolue 40
brut@@ 40
inhibition 40
crétion 40
UE@@ 40
pau@@ 40
mine 40
transporteurs 40
hôpit@@ 40
enseign@@ 40
Be@@ 40
chin@@ 40
pharmacologie 40
précoce 40
faç@@ 40
déch@@ 40
TES 40
/96) 40
fatigue 40
relativement 40
D. 40
Réponse 40
corrig@@ 40
ressources 40
possible. 40
échantillons 40
création 40
souffr@@ 40
isolats 40
bon@@ 40
oses 40
mission 40
MIRCERA 40
administrées 40
associations 40
tifs. 40
absorption 40
dopa@@ 40
haus@@ 40
soleil 40
montrent 40
marquage 40
Tra@@ 40
résol@@ 40
neutropénie 40
prolifér@@ 40
diffusion 40
biais 40
fru@@ 40
Diplôme 40
enceintes 40
général, 40
ra, 40
projet@@ 40
Comité 40
ci, 40
exercice 40
accident@@ 40
d'autre 40
Commission. 40
ge@@ 40
export@@ 40
particulier, 40
d'acidose 40
réseau 40
Hu@@ 40
lus 40
érique 40
seuil 40
7, 40
009 40
Flacon 40
Pol@@ 40
personnes, 40
ulaire 40
exper@@ 40
eure. 40
spécifiquement 40
u, 40
peti@@ 40
Pal@@ 40
gne 40
agissent 40
d'abord 40
inv@@ 40
Information 40
étapes 40
vend@@ 40
envoy@@ 40
effectivement 40
ets. 40
préfér@@ 40
accepter 40
mauvaise 40
n'étaient 40
professionn@@ 40
l'Espagne 40
Ma 40
mour@@ 40
vingt 40
cigar@@ 40
train 40
just@@ 40
pollution 40
gagn@@ 40
civil@@ 40
s' 40
e-t-il 40
-t-elle 40
avez-vous 40
/99): 40
bronch@@ 39
beso@@ 39
comparable 39
d'anti@@ 39
concomit@@ 39
3). 39
F-@@ 39
normale. 39
olo@@ 39
cis@@ 39
onie, 39
pathie, 39
d'exposition 39
compar@@ 39
(n=@@ 39
oraux 39
combin@@ 39
l'excrétion 39
toxine 39
répond@@ 39
répondre 39
l'HMG-CoA 39
fera 39
obten@@ 39
menées 39
l’EMEA 39
franch@@ 39
CHAMPIX 39
érythr@@ 39
MA 39
25% 39
matin 39
semain@@ 39
cule 39
vitro, 39
ode 39
HepB 39
les@@ 39
ate. 39
popul@@ 39
important, 39
tombé, 39
donnant 39
l’université 39
eli@@ 39
indication 39
ATION 39
rég@@ 39
2). 39
Douleur 39
dent@@ 39
si, 39
Pharmacovigilance 39
risque. 39
-00@@ 39
aller@@ 39
présentations 39
ves. 39
opéni@@ 39
rées. 39
volont@@ 39
correc@@ 39
ex 39
effectués 39
clon@@ 39
infecti@@ 39
olé@@ 39
proposé 39
ner 39
tric@@ 39
proche 39
PRI@@ 39
van 39
extéri@@ 39
antirétroviraux 39
sac@@ 39
vre. 39
Mil@@ 39
suppléments 39
déclarations 39
d'entre@@ 39
ki@@ 39
Vis@@ 39
heure, 39
ennes, 39
66 39
PRENDRE 39
pose 39
den@@ 39
locales. 39
rapporteur 39
fabri@@ 39
abs@@ 39
rétro@@ 39
lie 39
vigueur. 39
sous-cutanée. 39
équilibre 39
remplacement 39
cep@@ 39
modifiée 39
respect 39
pl 39
sen@@ 39
itaires 39
L'injection 39
weg 39
Cam@@ 39
Bayer 39
approvisionnement 39
communication 39
vérifi@@ 39
précisément 39
excrété 39
malade 39
constituer 39
sect@@ 39
voyag@@ 39
app@@ 39
Kar@@ 39
délivré 39
membres. 39
ession 39
participation 39
marchés 39
cach@@ 39
annu@@ 39
pourront 39
voiture 39
Lorsqu'un 39
ordonnance, 39
QU'@@ 39
tout, 39
violence 39
pesticides 39
religi@@ 39
montant 39
passe-t-il 39
és? 39
Tlf: 38
(à 38
ation) 38
Prometax 38
pertes 38
fœ 38
Me@@ 38
69@@ 38
substitutif 38
gen 38
l'as@@ 38
réunions 38
cérébr@@ 38
parti 38
bra@@ 38
sélectionn@@ 38
somnolence, 38
l'acuité 38
vildagliptine 38
mâ@@ 38
(< 38
cen@@ 38
44 38
débuter 38
protéin@@ 38
cible 38
20% 38
TMZ 38
riche 38
gh@@ 38
laboratoire 38
aliment 38
Européenne 38
retrait 38
d'autorisation 38
tractus 38
ences, 38
sociétés 38
As@@ 38
décol@@ 38
convulsions 38
otte 38
nour@@ 38
commune 38
grave. 38
°@@ 38
couver@@ 38
macul@@ 38
maison 38
extrém@@ 38
multiforme 38
cell@@ 38
recommandé@@ 38
neuropathie 38
diques 38
epti@@ 38
implique 38
oculaires 38
d'Humalog 38
jeun 38
modific@@ 38
comprise 38
soud@@ 38
don 38
ellement. 38
Basal 38
Inhibiteurs 38
répartition 38
ution 38
ophil@@ 38
doucement 38
92 38
Hé@@ 38
ATI@@ 38
abdominale 38
aid@@ 38
Sé@@ 38
OS@@ 38
éventu@@ 38
améliore 38
propos 38
tar@@ 38
poche 38
viennent 38
angl@@ 38
motiv@@ 38
mono@@ 38
Col@@ 38
Cal@@ 38
commencé 38
conclu@@ 38
protec@@ 38
combien 38
fabricants 38
actuelle 38
rési@@ 38
proposée 38
défenses 38
maladies. 38
joue 38
010 38
empl@@ 38
Itali@@ 38
exempl@@ 38
prescrit. 38
inféri@@ 38
réunion 38
blement 38
rich@@ 38
sort 38
nationale 38
carbone 38
tiques. 38
ois, 38
' 38
onne 38
comprom@@ 38
proch@@ 38
téléph@@ 38
mention 38
initiative 38
auront 38
consult@@ 38
sû@@ 38
contribuer 38
représentent 38
Outre 38
dispar@@ 38
clair 38
ingrédients 38
program@@ 38
semblent 38
coup 38
pag@@ 38
point, 38
commence 38
republika 38
L'impact 38
rencontr@@ 38
PV@@ 38
Ou 38
débat@@ 38
met 38
coû@@ 38
déten@@ 38
constru@@ 38
véritable 38
encore, 38
décharg@@ 38
L’Union 38
guéri@@ 37
exerc@@ 37
suivante 37
derni@@ 37
sh@@ 37
comparativement 37
tivité 37
estimée 37
(2,@@ 37
quotidi@@ 37
vascul@@ 37
oedème 37
urinaire, 37
actif. 37
voriconazole 37
mesurer 37
sorti@@ 37
Pri@@ 37
tration 37
augmentations 37
référ@@ 37
c, 37
sangu@@ 37
top@@ 37
émie, 37
30% 37
enfin 37
avir. 37
fixation 37
dox@@ 37
cho@@ 37
oz@@ 37
respiratoires, 37
5. 37
additifs 37
équivalent 37
Ribavirine 37
ides, 37
avir 37
72 37
d'I@@ 37
d'al@@ 37
synth@@ 37
mouvements 37
omm@@ 37
animal 37
P-@@ 37
britanni@@ 37
6-@@ 37
noci@@ 37
nécessite 37
83 37
andes 37
sang@@ 37
vag@@ 37
lentilles 37
apport 37
harmon@@ 37
eil 37
solid@@ 37
este 37
thyroïdi@@ 37
squelettiques 37
ces. 37
ère@@ 37
sie. 37
aise, 37
montrant 37
inducteur 37
alph@@ 37
»). 37
lac@@ 37
3,0 37
régulière 37
venir 37
oris@@ 37
AVEC 37
He@@ 37
Man@@ 37
istr@@ 37
major@@ 37
Business 37
zi@@ 37
Fax: 37
atrice 37
OL@@ 37
blo@@ 37
l'air 37
re) 37
affecter 37
accumulation 37
52 37
d'ét@@ 37
concernent 37
isme, 37
déchet 37
Virus 37
OptiSet 37
Lam@@ 37
résulte 37
doute 37
renforc@@ 37
pê@@ 37
lon@@ 37
composés 37
pom@@ 37
préoccup@@ 37
NOM 37
esc@@ 37
résid@@ 37
induire 37
disposi@@ 37
minér@@ 37
FABRICANT 37
savez 37
omme 37
Prop@@ 37
ailles 37
eb@@ 37
sûr@@ 37
z-@@ 37
arrive 37
libr@@ 37
croissant 37
prochaines 37
limitée. 37
s'avérer 37
s'ag@@ 37
augmentent 37
population. 37
Posologie 37
Grèce, 37
devi@@ 37
mées 37
particules. 37
dépasse 37
centres 37
répercussions 37
candid@@ 37
S'agissant 37
finalement 37
util@@ 37
terra@@ 37
défendre 37
amen@@ 37
eraient 37
s'en 37
médias 37
Lire 37
promotion 37
prend@@ 37
Quatre 37
Slovenská 37
sûr, 37
voul@@ 37
passe@@ 37
fis@@ 37
!@@ 37
pouvons 37
Mon 37
Personne 37
l'abacavir 36
can 36
péremption 36
injectez 36
d'H@@ 36
consécu@@ 36
ajust@@ 36
sus@@ 36
pathologie 36
ologiques. 36
ensi@@ 36
vagin@@ 36
pel@@ 36
hypoglycémie 36
respir@@ 36
dose-dépend@@ 36
bét@@ 36
formulation 36
rhumatisme 36
OPTISON 36
minimiser 36
ances, 36
thrombose 36
efforts 36
perfu@@ 36
stable 36
P) 36
èse 36
impliquant 36
plus@@ 36
mé 36
démontrée 36
évoluti@@ 36
trique 36
Ag@@ 36
oxi@@ 36
vaccinés 36
INT@@ 36
sés 36
6) 36
fam@@ 36
FlexPen 36
tumorale 36
................................................................@@ 36
suggèrent 36
activation 36
Rap@@ 36
industrie 36
espagn@@ 36
grave, 36
ès 36
AU@@ 36
impression 36
ocul@@ 36
De@@ 36
alt@@ 36
s'ils 36
incidences 36
opénie 36
épi@@ 36
plaquett@@ 36
eté 36
sées. 36
chirurgi@@ 36
parentér@@ 36
résultat@@ 36
argu@@ 36
BASAL 36
mai 36
conventionn@@ 36
Naglazyme 36
duction 36
européen. 36
s'impose 36
fermeture 36
dot@@ 36
Fabricant 36
accompagn@@ 36
corné@@ 36
atif. 36
Royaume-Uni. 36
aliste 36
_@@ 36
ada 36
suivante: 36
The 36
Stat@@ 36
artifici@@ 36
dation 36
agressi@@ 36
dér@@ 36
pe, 36
(v@@ 36
aise 36
intolérance 36
32@@ 36
usag@@ 36
effec@@ 36
autorisée 36
l'ADN 36
devenu 36
crème 36
z. 36
cide 36
fractu@@ 36
favoris@@ 36
réserve 36
lign@@ 36
aires@@ 36
chiff@@ 36
Ber@@ 36
dites 36
014 36
371/ 36
372/ 36
exactement 36
fémin@@ 36
oir. 36
Laboratoire 36
vre, 36
étudié. 36
préférence 36
man 36
tonn@@ 36
substitution 36
spec@@ 36
d'énergie 36
résul@@ 36
gravement 36
ède 36
as. 36
minorité 36
dité 36
z-vous 36
l’égout 36
d'aliments 36
compréhensi@@ 36
incid@@ 36
hors 36
étiquetage 36
fixé 36
lour@@ 36
déclaré 36
Leurs 36
langues 36
România 36
S’il 36
milliers 36
e - 36
ques? 36
honn@@ 36
a-t-on 36
Boehringer 35
Ingelheim 35
pharyng@@ 35
formule 35
(800 35
l'homme. 35
74 35
tolé@@ 35
suivis 35
sanguin 35
que), 35
l'hormone 35
thè@@ 35
ator@@ 35
tentative 35
morts 35
75@@ 35
comparables 35
enz@@ 35
métabolisé 35
sté@@ 35
Tracleer 35
ulcère 35
patients) 35
téri@@ 35
CS@@ 35
µg 35
complément 35
précédant 35
thérapeu@@ 35
sortie 35
58 35
pédiatriques 35
homm@@ 35
embol@@ 35
bêta-@@ 35
adultes, 35
inhib@@ 35
long@@ 35
l'inclusion 35
né 35
pneumon@@ 35
ek 35
dessus 35
aminés 35
docétaxel 35
profondes 35
LD@@ 35
(environ 35
(12 35
que). 35
oïde 35
inchang@@ 35
décrits 35
simultanée 35
saumon 35
préalablement 35
triglycérides 35
foie. 35
cancér@@ 35
V. 35
AF@@ 35
67@@ 35
famili@@ 35
cytochrome 35
Pré@@ 35
intravein@@ 35
asthénie, 35
locales 35
ecteur 35
directeur 35
lutte 35
gie 35
basé 35
Chez 35
sugammadex 35
2000@@ 35
démar@@ 35
l'action 35
avant@@ 35
MR@@ 35
ue. 35
matiques 35
atin@@ 35
DO@@ 35
reporter 35
atta@@ 35
nécessit@@ 35
45@@ 35
périphérique 35
indésirables, 35
HM@@ 35
mutagène 35
ème. 35
vac@@ 35
accompl@@ 35
énergi@@ 35
Is@@ 35
changez 35
institutions 35
abdomin@@ 35
arch@@ 35
l'embout 35
vre 35
EE@@ 35
Pres@@ 35
microbiologique, 35
rus@@ 35
nez 35
difficil@@ 35
arrière 35
bord 35
évid@@ 35
OT@@ 35
flacon, 35
atteint@@ 35
perturb@@ 35
centralis@@ 35
contre-indiqué 35
enregistré 35
scientifiques, 35
approprié. 35
ateur@@ 35
èmes 35
Finlande, 35
suite. 35
remar@@ 35
arité 35
prévu 35
ène, 35
On@@ 35
008 35
Taux 35
intramusculaire 35
hémodialy@@ 35
rati@@ 35
UN@@ 35
], 35
eille 35
sécurité. 35
décider 35
sc@@ 35
ément 35
établie. 35
are 35
rapid@@ 35
dite 35
xi@@ 35
dé 35
time 35
l'es@@ 35
s'avère 35
tard, 35
comment@@ 35
L'importance 35
conséqu@@ 35
dispos@@ 35
devr@@ 35
Tel 35
s" 35
Rappel@@ 35
dégâts 35
autor@@ 35
condam@@ 35
innov@@ 35
est-elle 35
espér@@ 35
euro 35
travailler 35
patri@@ 35
ant? 35
'es 34
ciprofloxacine 34
(comme 34
STELARA 34
qu'après 34
CVMP 34
nécessaires, 34
e- 34
favorable 34
41% 34
stavudine 34
96 34
appelés 34
ases 34
fat@@ 34
naissance 34
ement) 34
gluco@@ 34
leu@@ 34
Trevaclyn 34
trembl@@ 34
positive 34
experts 34
aire) 34
PD@@ 34
interagir 34
l'al@@ 34
trouvent 34
ologiques, 34
ateur. 34
sugg@@ 34
fluoxétine 34
sépar@@ 34
tubercul@@ 34
bloqu@@ 34
4,5 34
les. 34
statistiquement 34
dique 34
mesurée 34
comprennent 34
glycérol, 34
habituelle 34
évalués 34
respectiv@@ 34
densité 34
0,3 34
tax@@ 34
titu@@ 34
compter 34
ément, 34
l'hyper@@ 34
insuffisant 34
retar@@ 34
néphro@@ 34
gel@@ 34
dine 34
post@@ 34
mach@@ 34
RE 34
d'ap@@ 34
contribue 34
proviennent 34
acquis 34
l'emploi 34
fragil@@ 34
(ex.: 34
l'Uni@@ 34
consul@@ 34
urie 34
connue. 34
ANT 34
log 34
rétini@@ 34
AL 34
ressentez 34
diabète, 34
outils 34
cav@@ 34
ambiante 34
périphéri@@ 34
gram@@ 34
Du@@ 34
commercialisation. 34
géné@@ 34
documentation 34
disponi@@ 34
récidi@@ 34
ature 34
européennes. 34
ek@@ 34
faus@@ 34
py@@ 34
Médicaments 34
Espagne, 34
clast@@ 34
refus@@ 34
(200@@ 34
les, 34
consist@@ 34
sciences 34
diplôme 34
région@@ 34
mouvement 34
do 34
ister@@ 34
épidémi@@ 34
D'un 34
UR@@ 34
U. 34
+46 34
SARL 34
SU@@ 34
jeté 34
bloque 34
consommat@@ 34
infirmi@@ 34
(e) 34
res. 34
120 34
BMS 34
ateur, 34
consacr@@ 34
souti@@ 34
ateurs. 34
transplant@@ 34
individuelles, 34
prérempli, 34
respiratoire, 34
Fréquence 34
011 34
373/ 34
(%) 34
obl@@ 34
monosodique 34
EXP 34
réalisé 34
AAAA} 34
agin@@ 34
laiteux. 34
sources 34
souffrez 34
inactivés 34
500@@ 34
ange 34
imprim@@ 34
réti@@ 34
faible, 34
mm@@ 34
poul@@ 34
déli@@ 34
aî@@ 34
demandé 34
interdit@@ 34
sés. 34
OptiSet. 34
ectu@@ 34
modifiés 34
ent-@@ 34
oi 34
conception 34
au, 34
automati@@ 34
orité 34
octroy@@ 34
retrouv@@ 34
-on 34
fumer 34
trait 34
travail@@ 34
istes, 34
vingt-@@ 34
l'impression 34
L'examen 34
OG@@ 34
L'im@@ 34
appareils 34
Lorsqu'il 34
dira 34
appel@@ 34
pire 34
Puh/Tel: 34
là, 34
Bel@@ 34
dam@@ 34
S’@@ 34
Ses 34
n’auriez 34
appro@@ 34
Union 34
venu 34
terre 34
profit@@ 34
jouets 34
� 34
déb@@ 34
réalité 34
ain, 34
illég@@ 34
( 34
elle? 34
avion 34
ées? 34
Wil@@ 33
VIH@@ 33
ours 33
d'événements 33
d'acide 33
d'administrer 33
intraveineuse. 33
zumab 33
pégylé 33
cyt@@ 33
gastro@@ 33
localis@@ 33
fusion 33
l'enf@@ 33
transit@@ 33
prurit 33
d'applic@@ 33
Starlix 33
es/ 33
corticoïdes 33
ous 33
excès 33
g, 33
Vir@@ 33
(3@@ 33
pied 33
») 33
SP@@ 33
1997, 33
gorge 33
physi@@ 33
avir, 33
sujet@@ 33
VE@@ 33
ograph@@ 33
souris 33
l'espèce 33
cin 33
quent 33
fol@@ 33
négatifs 33
quement. 33
macr@@ 33
muscles 33
allergie 33
douleur, 33
graphie 33
(200 33
tradi@@ 33
oty@@ 33
périodiques 33
solides 33
incolore. 33
subit 33
50, 33
ire, 33
ulcères 33
pharmaci@@ 33
cherch@@ 33
ot 33
destruction 33
ORACEA 33
équilib@@ 33
sacchar@@ 33
nou@@ 33
trices 33
ta 33
exposés 33
(tels 33
expos@@ 33
maternel, 33
idi@@ 33
lever 33
abilité, 33
n° 33
utér@@ 33
émission 33
gués 33
étiques 33
présentes 33
propr@@ 33
rigour@@ 33
chien 33
cours. 33
bov@@ 33
sy@@ 33
We@@ 33
enci@@ 33
ecteurs 33
Allemagne, 33
tubulaire 33
filgrastim 33
deven@@ 33
systémiques 33
Inter@@ 33
uré@@ 33
1998. 33
tée 33
+49 33
uc@@ 33
Tur@@ 33
dexaméthasone 33
Industri@@ 33
disodique 33
CD@@ 33
Dis@@ 33
positif 33
Bas@@ 33
ace 33
tures 33
Saint 33
français 33
dépassant 33
tat 33
pist@@ 33
Candida 33
chlorhydrique 33
conditionnement 33
86 33
Ac@@ 33
adul@@ 33
Infections 33
ants: 33
mascul@@ 33
blanch@@ 33
poumons 33
étudiés 33
lement, 33
Norge 33
recombin@@ 33
Emballage 33
destinées 33
endroits 33
(VIH@@ 33
national 33
internationales 33
NovoRapid 33
placé 33
iste. 33
revi@@ 33
d'assurer 33
ado@@ 33
tel@@ 33
ille. 33
Sebivo 33
variabilités 33
intég@@ 33
co 33
ht@@ 33
LIBERATION 33
appli@@ 33
ros@@ 33
sements 33
chau@@ 33
excipients, 33
entam@@ 33
affich@@ 33
précurseurs 33
économie 33
ade 33
allaitez 33
recombinant 33
dériv@@ 33
celles-ci 33
pers@@ 33
ats. 33
rappeler 33
situe 33
p. 33
celle-ci 33
chaînes 33
saurait 33
explique 33
fixer 33
PC 33
bless@@ 33
constatez 33
rénale: 33
re-@@ 33
oh@@ 33
diff@@ 33
restera 33
considère 33
âge, 33
chauff@@ 33
soutenir 33
bouteille 33
discrimin@@ 33
tig@@ 33
étudiés. 33
dre. 33
isme. 33
réellement 33
etc. 33
Lib@@ 33
L'introduction 33
passé, 33
tard 33
Belgi@@ 33
comm@@ 33
laisse 33
Suomi/Finland 33
bureaucrati@@ 33
obti@@ 33
ville 33
1 @@ 33
trafic 33
commerce 33
aides 33
milliards 33
voit 33
l'amendement 33
-elle 33
Parallèlement, 33
Ce@@ 32
68 32
ay 32
tard. 32
même. 32
disposer 32
99@@ 32
carcin@@ 32
précédemment 32
sang, 32
IC 32
trophi@@ 32
opposition 32
contraceptifs 32
78@@ 32
SC@@ 32
foie, 32
nouveau-nés 32
l'espace 32
d'hé@@ 32
chél@@ 32
otox@@ 32
β 32
spéciales 32
® 32
(2@@ 32
surven@@ 32
sions. 32
taill@@ 32
inférieurs 32
chu@@ 32
accessi@@ 32
sensible 32
prophylaxie 32
gastro-@@ 32
induite 32
IV 32
affinité 32
démi@@ 32
stand@@ 32
ote 32
0,2 32
se, 32
HPV 32
97 32
rô@@ 32
perman@@ 32
99 32
Riprazo 32
eo 32
Tekturna 32
écrasé, 32
dépôt 32
véhicul@@ 32
act 32
détaill@@ 32
topotécan 32
Brux@@ 32
C-@@ 32
bonnes 32
TRE 32
compétentes 32
main 32
contacter 32
détection 32
” 32
appuyer 32
(utilisé 32
out@@ 32
ré 32
prennent 32
mineure 32
possède 32
Plan 32
inci@@ 32
(cf. 32
Communautés 32
contact@@ 32
cales 32
n'importe 32
pouvaient 32
8. 32
tumor@@ 32
fréquences 32
yeux, 32
2005, 32
Danemark, 32
ciclosporine 32
(qui 32
N, 32
d'âge 32
provis@@ 32
cent@@ 32
disponible. 32
européen, 32
peau. 32
install@@ 32
succ@@ 32
Hou@@ 32
fs, 32
au-delà 32
chroniques 32
hydro@@ 32
sodium. 32
d'arrêter 32
illes 32
Lun@@ 32
Wat@@ 32
suit@@ 32
potassi@@ 32
licenci@@ 32
-je 32
71 32
ribavir@@ 32
PHAR@@ 32
marqué 32
abond@@ 32
CH 32
New 32
ore 32
ministre 32
prérempli. 32
fréquents: 32
Prenez 32
+372 32
BRISTOL-MYERS 32
SQUIBB 32
oires. 32
tivement 32
lutter 32
l'hé@@ 32
asse@@ 32
aises 32
couche 32
solu@@ 32
l'expression 32
Bruxelles 32
ège 32
L. 32
éter 32
durer 32
maximales 32
occup@@ 32
édi@@ 32
deux@@ 32
heures, 32
répét@@ 32
jeter 32
ois. 32
concernées 32
prév@@ 32
Rapports 32
n'avez 32
Enfants 32
ptions 32
maladie, 32
da 32
UE 32
364/ 32
77 32
Gra@@ 32
aig@@ 32
isti@@ 32
{MM/ 32
oco@@ 32
paumes 32
intéri@@ 32
F2@@ 32
Gélules 32
ert 32
allaitez. 32
poissons 32
psychiatriques 32
catégories 32
naturellement 32
PM@@ 32
confirm@@ 32
qu'au 32
l'Allemagne, 32
ize 32
signaler 32
ÉLIMINATION 32
alyse 32
ateurs, 32
migr@@ 32
ètre 32
fournit 32
passagers 32
celui-ci 32
produis@@ 32
utilise 32
sav@@ 32
d'éducation 32
scol@@ 32
moins, 32
restrictions 32
sci@@ 32
landais 32
ressor@@ 32
deviennent 32
possibilités 32
plans 32
informé@@ 32
inflation 32
5-0@@ 32
ettes. 32
Quel@@ 32
Qu’est-ce 32
infra@@ 32
faudrait 32
non@@ 32
interrog@@ 32
genre 32
l'internet 32
voient 32
vulnér@@ 32
cru@@ 32
voitures 32
vote 32
propose 32
interdit 32
choix 32
habitants 32
amendement 32
emprun@@ 32
veulent 32
dépu@@ 32
islam@@ 32
(vote) 32
Prenons 32
Quatrièmement, 32
liberté 31
0% 31
S) 31
(6@@ 31
eus@@ 31
esthésie, 31
opti@@ 31
échec@@ 31
col 31
P, 31
4,9 31
tox@@ 31
instable 31
hebdomadaire 31
anaphylac@@ 31
0,25 31
(10 31
réductions 31
domain@@ 31
som@@ 31
ST@@ 31
dépressifs 31
disparaître 31
autre, 31
al) 31
7-@@ 31
rivastigmine 31
bit@@ 31
posologies 31
microgram@@ 31
d'intensité 31
M, 31
protéique 31
strictement 31
tabagisme 31
g/@@ 31
distance 31
HD@@ 31
vascular@@ 31
Pegasys 31
résumés 31
LM@@ 31
grippe 31
étine 31
lap@@ 31
résonance 31
magnétique 31
léger 31
métabol@@ 31
lymphocytes 31
incidence 31
appliquée 31
calcémie 31
73 31
MS 31
naiss@@ 31
mur@@ 31
LDL-@@ 31
l’insuline 31
grip@@ 31
atives. 31
glucuron@@ 31
pharmac@@ 31
Ju@@ 31
'e 31
ergi@@ 31
rash 31
warfarine 31
ñ@@ 31
pharmaceutique 31
dois 31
coordin@@ 31
installations 31
aign@@ 31
ac, 31
ménag@@ 31
eure, 31
Mo@@ 31
lor@@ 31
(E17@@ 31
Au@@ 31
démangeaisons 31
néanmoins 31
dis 31
recevront 31
réalisation 31
préserv@@ 31
9. 31
mars 31
d'injection. 31
discussion 31
cirrhose 31
direction 31
glioblastome 31
ies, 31
complémentaires 31
issues 31
mener 31
atine 31
physique, 31
séqu@@ 31
serez 31
ministr@@ 31
membrane 31
tampon 31
figurent 31
révis@@ 31
reprendre 31
tyl@@ 31
crois@@ 31
adultes. 31
auto@@ 31
81 31
Ελλάδα 31
Dose 31
diffus@@ 31
cardia@@ 31
visage, 31
malabsorption 31
1), 31
d’eau 31
potassium, 31
sel 31
Intern@@ 31
oit 31
q 31
secondes 31
bass@@ 31
ING@@ 31
rie 31
adhé@@ 31
clo@@ 31
rechercher 31
rés@@ 31
Elévation 31
être, 31
visage 31
ris 31
incin@@ 31
Elles 31
liqu@@ 31
effet, 31
alcool 31
persistent 31
èr@@ 31
vaccin, 31
insul@@ 31
procédé 31
go 31
considérablement 31
èm@@ 31
012 31
Tritace 31
Ireland 31
sch@@ 31
lic@@ 31
es-vous 31
delt@@ 31
gard@@ 31
FOR@@ 31
ographie 31
slo@@ 31
organisme 31
erre 31
guer 31
nucléosidiques 31
évident 31
faudra 31
exemp@@ 31
Chil@@ 31
univers@@ 31
Ret@@ 31
jec@@ 31
United 31
proposi@@ 31
demeur@@ 31
alternative 31
l'UE. 31
Suiv@@ 31
bet@@ 31
proposés 31
structures 31
matériaux 31
suppose 31
développez 31
préc@@ 31
tract@@ 31
soit, 31
D'ELIMINATION 31
Conseil, 31
incendi@@ 31
là. 31
économi@@ 31
agriculteurs 31
accid@@ 31
sont-elles 31
terroristes 31
vill@@ 31
guerre 31
parlement@@ 31
référendu@@ 31
vain@@ 31
économ@@ 31
génétiquement 31
justice 31
Or 31
ait-on 31
ée? 31
sinus@@ 30
graves. 30
implant@@ 30
accorder 30
hypoglycémi@@ 30
ologique. 30
réagir 30
(8@@ 30
IG@@ 30
358 30
avancé 30
vertébrale 30
2,0 30
α@@ 30
ratio 30
Un@@ 30
ai, 30
caillots 30
pulmonaire, 30
nécrose 30
correspond@@ 30
d'équilibre 30
oiseaux 30
vomiss@@ 30
quelconque 30
disparaissent 30
aurez 30
angor 30
international 30
préventi@@ 30
interrompre 30
immédiate 30
amino@@ 30
l'utiliser 30
financier 30
organismes 30
communautaires 30
Programme 30
osph@@ 30
Kineret 30
l'inst@@ 30
stimul@@ 30
76 30
6. 30
achi@@ 30
BYETTA 30
seu@@ 30
ances. 30
vastati@@ 30
été, 30
cepti@@ 30
PA@@ 30
rémission 30
compatible 30
résidu@@ 30
ètres 30
d'hyper@@ 30
d'as@@ 30
fumarate 30
mut@@ 30
64 30
mère. 30
out 30
P450 30
CPMP@@ 30
jeunes. 30
cules 30
chal@@ 30
neurologiques 30
diverses 30
ke@@ 30
Gi@@ 30
ministère 30
ax 30
lin 30
Mont@@ 30
vétérin@@ 30
méthadone 30
Rev@@ 30
sac 30
papi@@ 30
générale, 30
entes, 30
isés 30
transdermiques 30
titane 30
sig@@ 30
bleu@@ 30
produits. 30
os. 30
congénit@@ 30
corps, 30
noctur@@ 30
sexuels 30
pla@@ 30
vall@@ 30
yst@@ 30
nouvellement 30
l'inhibition 30
atifs. 30
empêch@@ 30
rées, 30
infarctus 30
l'agence 30
Fin@@ 30
étroitement 30
indépendante 30
risquent 30
désign@@ 30
bouffées 30
psychiatri@@ 30
Tel@@ 30
chevaux 30
quées 30
l'oreille 30
enzy@@ 30
dihydraté, 30
accompagnée 30
l'In@@ 30
ologie, 30
tourner 30
Expérience 30
rejoint 30
Hol@@ 30
ution. 30
l'ag@@ 30
rhin@@ 30
auxquels 30
alumini@@ 30
destin@@ 30
alli@@ 30
EF@@ 30
réduisant 30
Né@@ 30
passant 30
vendus 30
Nespo 30
causés 30
l'allaitement. 30
soumises 30
adéquat 30
phényl@@ 30
empêche 30
d'en 30
d'anomalies 30
d'O@@ 30
calcul 30
fonc@@ 30
médecin@@ 30
modèles 30
Madrid, 30
régul@@ 30
stylos, 30
blis@@ 30
42@@ 30
opérations 30
Excipients: 30
sulfate 30
Har@@ 30
LIBÉRATION 30
La@@ 30
actuelle, 30
devrez 30
fibr@@ 30
(souches 30
431 30
réservé 30
Ham@@ 30
.) 30
Gar@@ 30
í 30
stru@@ 30
végét@@ 30
excrétée 30
sain 30
mess@@ 30
ager 30
isées 30
b. 30
Pologne, 30
compétences 30
électronique 30
Iscover 30
(appelée 30
sérieuse 30
différente 30
observe 30
génération 30
L'analyse 30
rés, 30
déci@@ 30
jouer 30
comporter 30
constaté 30
l'a 30
id 30
considérer 30
oppos@@ 30
es» 30
lui-même 30
adopter 30
l'opération 30
its, 30
L'État 30
ave@@ 30
élect@@ 30
lang@@ 30
d'autr@@ 30
père 30
force 30
Tant 30
suis 30
revient 30
décisions 30
Européens 30
polon@@ 30
acheter 30
chréti@@ 30
emplois 30
stocks 30
égalité 30
contradi@@ 30
volonté 30
refu@@ 30
chos@@ 30
accus@@ 30
ent? 30
Ira@@ 30
Conse@@ 30
condamn@@ 30
arriver@@ 30
eurs? 30
Non, 30
eh@@ 29
Novartis 29
après. 29
sang. 29
tubulure 29
obtenue 29
l'adolescent 29
lorsqu'une 29
tumeur 29
attendu@@ 29
gonfl@@ 29
ml@@ 29
Hum@@ 29
engendr@@ 29
nicotinique 29
nouvel 29
cm 29
l'H@@ 29
antidiabétiques 29
inhalée 29
ativ@@ 29
disponibilité 29
mois@@ 29
clini@@ 29
définis 29
prurit, 29
anes 29
énor@@ 29
reli@@ 29
LT@@ 29
jours) 29
d'antibiotiques 29
restant 29
ocar@@ 29
gastri@@ 29
ative, 29
LDL 29
visible 29
MAR@@ 29
OR 29
VHB 29
adolescents. 29
respiration 29
del@@ 29
exposées 29
actif, 29
terme. 29
agent 29
era. 29
l'éfavirenz 29
complément@@ 29
irbésartan 29
sildénafil 29
jambes 29
d’insuline 29
grumeaux 29
MabThera 29
bos@@ 29
C), 29
fus@@ 29
d'application 29
azole, 29
transfer@@ 29
publications 29
mix@@ 29
poste 29
aspects 29
Pharmac@@ 29
Ef@@ 29
ball@@ 29
2000, 29
support@@ 29
rog@@ 29
floxac@@ 29
trouble, 29
délivr@@ 29
actif@@ 29
thi@@ 29
proches 29
eau. 29
eau, 29
kaliémie 29
otoxi@@ 29
décembre 29
tend@@ 29
antibioti@@ 29
esp@@ 29
ary 29
sensations 29
vaccination. 29
Paxene 29
secrétariat 29
entrée 29
jamb@@ 29
web 29
(hyper@@ 29
ry@@ 29
représentants 29
retrait@@ 29
s/ 29
commencer@@ 29
appareil 29
ms@@ 29
essentiels 29
veaux 29
d'habitude. 29
consultation 29
chroni@@ 29
Ir@@ 29
l'utilis@@ 29
Pre@@ 29
Réaction 29
jac@@ 29
mam@@ 29
rendu 29
sus 29
................................@@ 29
49@@ 29
026 29
ia@@ 29
Bal@@ 29
côtes 29
prost@@ 29
tien 29
Réactions 29
refl@@ 29
terfénadine 29
IX@@ 29
hépatique, 29
permanent 29
rue 29
égard 29
unité 29
conseils 29
pous@@ 29
observer 29
impér@@ 29
opathie 29
provoquée 29
introduire 29
population, 29
identifier 29
mot@@ 29
maintenue 29
nes 29
contrôlé 29
013 29
thermoformées 29
chaus@@ 29
éthyl@@ 29
quer@@ 29
créer 29
film@@ 29
UC@@ 29
Gal@@ 29
cruci@@ 29
Génér@@ 29
reçoivent 29
néfastes 29
Malta 29
KOGENATE 29
ik@@ 29
soja 29
distin@@ 29
exposé 29
dess@@ 29
au. 29
stratégie 29
certain@@ 29
(SIDA). 29
pop@@ 29
fen@@ 29
ont. 29
n’y 29
recevez 29
l'Italie, 29
margin@@ 29
dépl@@ 29
moins. 29
considérable 29
souten@@ 29
identification 29
Latvija 29
gouvernement@@ 29
échange 29
fourn@@ 29
soulign@@ 29
ti 29
nutritionn@@ 29
mort. 29
énergie 29
animaux, 29
fas@@ 29
Système 29
ailleurs 29
L'évaluation 29
Malgré 29
sée, 29
Parfois, 29
recour@@ 29
eur? 29
intérêts 29
án@@ 29
lanti@@ 29
Sh@@ 29
pratiquement 29
raisonn@@ 29
bien@@ 29
argent 29
pièces 29
rent@@ 29
subventions 29
alistes 29
intellig@@ 29
débar@@ 29
économiques 29
croy@@ 29
Ukraine 29
peupl@@ 29
dérog@@ 29
hectar@@ 29
familles 29
penser 29
s". 29
explo@@ 29
j’@@ 29
plain@@ 29
obligation 29
OGM 29
jam@@ 29
immigr@@ 29
l'interdiction 29
vaut 29
rapport, 29
Copenhag@@ 28
saign@@ 28
l'emballage. 28
suivez 28
comprendre 28
l’objet 28
tam@@ 28
osseuses 28
condi@@ 28
9/ 28
C). 28
prises. 28
parin@@ 28
déshydrat@@ 28
GONAL-f 28
senti@@ 28
ner@@ 28
indésira@@ 28
transitoires 28
aut 28
sévérité 28
copi@@ 28
ocy@@ 28
l'UE, 28
auricul@@ 28
superfici@@ 28
pondér@@ 28
hémorragiques 28
eure 28
graduée 28
concept 28
répondu 28
digitaux 28
Données 28
étés 28
perdu 28
injectable, 28
tion) 28
ections 28
LSN 28
ziconotide 28
gau@@ 28
II, 28
CYP2@@ 28
4/ 28
ard, 28
d'entraîner 28
randomis@@ 28
clinique, 28
lipo@@ 28
lendemain 28
ste@@ 28
images 28
d'étude 28
Londres 28
grossesses 28
l'em@@ 28
tricitabine 28
insuline, 28
dar@@ 28
gli@@ 28
récurr@@ 28
mie, 28
passag@@ 28
ellul@@ 28
pic 28
È@@ 28
nommé 28
d'at@@ 28
chimiothérap@@ 28
l'angiotensine 28
76@@ 28
eau@@ 28
coul@@ 28
aisons 28
sclér@@ 28
connues. 28
détérioration 28
cellulaire 28
réception 28
tiss@@ 28
(V@@ 28
part, 28
inflamm@@ 28
rig@@ 28
isation. 28
antiviraux 28
mul@@ 28
d'insuline, 28
diagnostiqué 28
élabor@@ 28
idine 28
l'irbésartan 28
gastro-intestinales 28
erlotinib 28
surviennent 28
démontrer 28
embryons 28
lipi@@ 28
ocytes 28
éventuelle 28
Chin@@ 28
œil 28
minimale 28
med@@ 28
diminuée 28
repos 28
lumi@@ 28
isation, 28
plantes 28
entrepris@@ 28
ves, 28
l. 28
(des) 28
dépos@@ 28
d'apparition 28
E, 28
décou@@ 28
dû@@ 28
abaiss@@ 28
Rec@@ 28
onine 28
Dys@@ 28
chute 28
artérielle. 28
SOLUTION 28
systématiquement 28
y. 28
................@@ 28
....@@ 28
ster@@ 28
physiques 28
musculo- 28
faci@@ 28
rh@@ 28
AS 28
endant 28
UTILIS@@ 28
goût 28
Mu@@ 28
gsk. 28
merck. 28
aire: 28
repos@@ 28
étrangers 28
euse@@ 28
de: 28
ospor@@ 28
finale 28
s.@@ 28
L) 28
Op@@ 28
cancer@@ 28
secteurs 28
bêta 28
l'eau. 28
compartiment 28
CE, 28
dec@@ 28
prochain 28
nouve@@ 28
Aprovel 28
Neoclarityn 28
ac 28
l'énergie 28
liss@@ 28
2007, 28
gon@@ 28
lactique 28
béb@@ 28
variant 28
informé 28
reg@@ 28
locale 28
seringues, 28
015 28
016 28
021 28
146/ 28
EU/1/0@@ 28
gélul@@ 28
és) 28
08@@ 28
369/ 28
375/ 28
377/ 28
X/ 28
SoloStar 28
Evitez 28
surfaces 28
NU@@ 28
exam@@ 28
ci-dessous. 28
ouverture, 28
récol@@ 28
chem@@ 28
ANCE 28
Bulgar@@ 28
divis@@ 28
jet 28
harmonisation 28
Hel@@ 28
élevé, 28
copie 28
attaque 28
lit 28
remplacer 28
spor@@ 28
fruits 28
continuent 28
erb@@ 28
lectu@@ 28
manger 28
cass@@ 28
Mé@@ 28
rejets 28
lyophil@@ 28
oin 28
L'âge 28
comprend 28
programm@@ 28
istes. 28
êtres 28
Sand@@ 28
code 28
mètres 28
Mode 28
zéro 28
vide 28
l'ES@@ 28
erreurs 28
cos@@ 28
annonc@@ 28
sau@@ 28
es" 28
actes 28
allemand@@ 28
entrav@@ 28
baiss@@ 28
atteint, 28
N’utilisez 28
renouvel@@ 28
autre. 28
peut-@@ 28
ë@@ 28
+47 28
MARCHE 28
embar@@ 28
Près 28
Regardez 28
cancéri@@ 28
agricol@@ 28
quinze 28
élè@@ 28
résoluti@@ 28
tunn@@ 28
connaî@@ 28
autres, 28
opinion 28
identité 28
rages 28
ont-elles 28
juridi@@ 28
prisonni@@ 28
espoir 28
jeu@@ 28
armes 28
votes 28
catastroph@@ 28
euros. 28
élève 28
pourtant 28
monnaie 28
attend 28
absur@@ 28
preu@@ 28
ations? 28
Qu'avons-nous 28
+45 27
Orphan 27
Trizi@@ 27
lévodopa 27
Leu@@ 27
glucos@@ 27
attentive 27
découver@@ 27
évènement 27
rapportés. 27
hém@@ 27
gué 27
lésion 27
placebo@@ 27
abcès 27
maintenu 27
hommes. 27
expl@@ 27
H, 27
TNF@@ 27
ron@@ 27
sous@@ 27
Karvea 27
(p 27
articulations 27
expositions 27
blessures 27
GIS@@ 27
l'organisme. 27
4. 27
grade 27
analy@@ 27
osseuse. 27
VIH-1 27
p=0,00@@ 27
diarrhé@@ 27
plaquettaire 27
ologique, 27
significatives 27
prol@@ 27
galact@@ 27
inadéquate 27
sensibles 27
otite 27
ith@@ 27
5). 27
éduc@@ 27
consolid@@ 27
cét@@ 27
bilirubine 27
sevrage 27
favor@@ 27
Parkinson, 27
d'AD@@ 27
pathies 27
récupér@@ 27
affectant 27
probabilité 27
tati@@ 27
molécule 27
dirig@@ 27
orale, 27
1/@@ 27
EMEA 27
ret@@ 27
dent 27
69 27
inducteurs 27
tum@@ 27
disparaî@@ 27
microbi@@ 27
d’abor@@ 27
conseiller 27
meilleures 27
perfor@@ 27
pourrez 27
patient, 27
éry@@ 27
épa@@ 27
feu 27
anticancér@@ 27
cob@@ 27
III@@ 27
recu@@ 27
fs. 27
causer 27
décrites 27
ci-dessus 27
émulsion 27
c’@@ 27
ane, 27
Prot@@ 27
importance 27
micro@@ 27
l'huile 27
Dès 27
Min@@ 27
favirenz 27
vaccinale 27
transparence 27
d'augmentation 27
RC@@ 27
esp 27
bilité. 27
bloc@@ 27
ues. 27
nasale, 27
l'hydrochlorothiazide 27
rat 27
l’é@@ 27
sains. 27
bumine 27
vies 27
PVC 27
bur@@ 27
Pays-Bas, 27
AZ@@ 27
réguliers 27
LO@@ 27
transcriptase 27
indre 27
Barcel@@ 27
aires: 27
déséqu@@ 27
bouch@@ 27
Glob@@ 27
d'interrompre 27
substituts 27
San@@ 27
...@@ 27
doiv@@ 27
PL 27
larg@@ 27
arma 27
puissance 27
150@@ 27
reconstituti@@ 27
bénéfi@@ 27
ulation 27
effor@@ 27
tubes 27
bénéficiant 27
..@@ 27
contract@@ 27
centrale 27
res, 27
-vous 27
SoloStar@@ 27
souffre 27
Év@@ 27
Etats 27
faits 27
organisé 27
attach@@ 27
donnez 27
compatibilité 27
ADROVANCE 27
l'indication 27
VH@@ 27
astique 27
prévoir 27
perspec@@ 27
formé@@ 27
préco@@ 27
transform@@ 27
indéterminée: 27
Neu@@ 27
027 27
Nouv@@ 27
collect@@ 27
solvant) 27
017 27
018 27
024 27
376/ 27
97/ 27
ette. 27
retourner 27
gue, 27
FHV 27
impl@@ 27
rot@@ 27
muni@@ 27
oie 27
anie 27
le-@@ 27
emment 27
etc@@ 27
Oy 27
gros 27
jo@@ 27
cite 27
ture, 27
Lou@@ 27
chrom@@ 27
propriét@@ 27
dépass@@ 27
oxydase 27
1998 27
matin. 27
oublier 27
progr@@ 27
cer 27
ologues 27
tap@@ 27
occasion 27
Interactions 27
č@@ 27
Ma@@ 27
CO2 27
détérior@@ 27
d'aucune 27
céder 27
à@@ 27
d’être 27
suppos@@ 27
directives 27
Sub@@ 27
imputables 27
concr@@ 27
courant 27
cat 27
territoire 27
L’objectif 27
bre@@ 27
dépasser 27
Lietuva 27
définitif 27
déclaration 27
Neurontin 27
urgence 27
reprises 27
paiement 27
méthoxy 27
glycol-epoetin 27
reconnaiss@@ 27
conclusions 27
salari@@ 27
dossi@@ 27
L’un 27
plais@@ 27
princi@@ 27
lou@@ 27
mail@@ 27
faut-il 27
tari@@ 27
a? 27
aider@@ 27
victime 27
Sous 27
arrach@@ 27
concili@@ 27
pêch@@ 27
crédits 27
mots 27
publicité 27
collec@@ 27
end 27
brevet@@ 27
bateau 27
franc@@ 27
hab@@ 27
voit@@ 27
dangereux 27
Assembl@@ 27
48@@ 26
couv@@ 26
rez 26
GL@@ 26
uns 26
anomalie 26
vide. 26
capables 26
conju@@ 26
accr@@ 26
possi@@ 26
ement). 26
sains, 26
éroï@@ 26
l’étude 26
Pelzont 26
digit@@ 26
insom@@ 26
fatigue, 26
agences 26
évaluations 26
l'homme, 26
parten@@ 26
performances 26
anormal@@ 26
surcharge 26
insuffisante 26
CEPROTIN 26
l'inflammation 26
aite 26
valid@@ 26
logici@@ 26
plasma@@ 26
ques). 26
A-@@ 26
proxim@@ 26
cumul@@ 26
PRE@@ 26
(50 26
rats 26
céphalées 26
bron@@ 26
osti@@ 26
gemcitabine 26
cardiovasculaires 26
8-@@ 26
l, 26
initié 26
graves, 26
Ta@@ 26
base, 26
ALAT 26
ventre 26
poumon@@ 26
favorise 26
mercure 26
ménopaus@@ 26
udin@@ 26
absorb@@ 26
pomm@@ 26
Mix@@ 26
givré. 26
ions 26
térat@@ 26
lab@@ 26
probable. 26
duloxétine 26
ATION@@ 26
vérification 26
Mat@@ 26
professeur 26
retiré 26
accumul@@ 26
lent@@ 26
biliaire 26
PAR@@ 26
inconnue. 26
électrique 26
grippal, 26
fini@@ 26
inscri@@ 26
fourniss@@ 26
d'hémophilie 26
convulsi@@ 26
myélo@@ 26
préexist@@ 26
pril 26
MÉ@@ 26
aliser 26
l'étude. 26
°C 26
paclitaxel 26
tricul@@ 26
bilité, 26
réduc@@ 26
chromosomiques 26
vres, 26
d'agents 26
hémophiles 26
rupture 26
recomm@@ 26
sions, 26
aiss@@ 26
l'injection. 26
mutag@@ 26
sodi@@ 26
tubul@@ 26
ocl@@ 26
bris@@ 26
Centre 26
(utilisés 26
rai@@ 26
phar@@ 26
tru@@ 26
cuillère-mesure 26
cuill@@ 26
contraire 26
9-@@ 26
suff@@ 26
neutr@@ 26
torat 26
ester 26
gal@@ 26
épargneurs 26
Mari@@ 26
squelet@@ 26
mille 26
Mes@@ 26
SID@@ 26
bol@@ 26
change 26
4-@@ 26
alimentaire. 26
vité 26
ple 26
aiguill@@ 26
fa@@ 26
W 26
inactiv@@ 26
kil@@ 26
Bor@@ 26
baisser 26
compromis 26
réfrigérateur. 26
persister 26
inhibant 26
d'alcool@@ 26
rénal 26
rare: 26
Vol@@ 26
héréditaires 26
ultr@@ 26
développent 26
30, 26
PER@@ 26
0/ 26
028 26
023 26
boîte. 26
âch@@ 26
yn 26
ène. 26
Kent 26
l'étiquette 26
Grèce 26
Pent@@ 26
Lett@@ 26
0.@@ 26
Slova@@ 26
nul@@ 26
être. 26
dévers@@ 26
At@@ 26
tie 26
Ig@@ 26
achev@@ 26
pauvre 26
d'Al@@ 26
urines 26
prescrire 26
issait 26
croî@@ 26
crédi@@ 26
valide 26
global 26
(IMAO@@ 26
procédu@@ 26
Toujours 26
Présid@@ 26
i-@@ 26
active. 26
propag@@ 26
.» 26
retrouve 26
travaillent 26
annon@@ 26
quar@@ 26
mar 26
contrat 26
paquet 26
exact@@ 26
l'heure 26
adopté 26
ores 26
figurant 26
recommandation 26
conçues 26
directiv@@ 26
désormais 26
obligations 26
num@@ 26
Tri@@ 26
réfléch@@ 26
oeu@@ 26
inten@@ 26
utilisent 26
qu’elles 26
lai@@ 26
étape. 26
Rue 26
d'y 26
ces, 26
L'insuline 26
Isra@@ 26
règlements 26
période, 26
allez 26
parvenir 26
S’IL 26
exemples 26
entendu@@ 26
anium 26
investissements 26
exploitation 26
dém@@ 26
recycl@@ 26
aujourd'hui, 26
e» 26
s - 26
quot@@ 26
confront@@ 26
commissaire 26
police 26
vol 26
commiss@@ 26
denrées 26
écoles 26
cultiv@@ 26
es - 26
qu’on 26
message 26
arriver 26
dign@@ 26
frau@@ 26
e", 26
pétrole 26
d'ici 26
disposons 26
compag@@ 26
ence? 26
1/2001) 26
th 25
aiguë@@ 25
appuy@@ 25
vir 25
tétan@@ 25
recevrez 25
place. 25
97@@ 25
]. 25
séd@@ 25
égales. 25
eme@@ 25
l'hypoglycémie. 25
professionnelle 25
pied@@ 25
descend@@ 25
var@@ 25
aigu 25
disparu 25
défici@@ 25
abat@@ 25
requis 25
réversi@@ 25
viral 25
jonction 25
antivir@@ 25
statin@@ 25
fabriqués 25
spécialement 25
pent@@ 25
CYP3A4, 25
médicamenteuses 25
sert 25
acte 25
omat@@ 25
=@@ 25
clé 25
confusion, 25
(au 25
53 25
indésirables. 25
(et 25
pointe 25
109/ 25
70% 25
19, 25
iniques 25
adolesc@@ 25
moyennes 25
IR@@ 25
indiqué. 25
l'amélioration 25
aveugle, 25
répétée 25
2%) 25
zumab@@ 25
céd@@ 25
TEL@@ 25
ci-dessou@@ 25
Betaferon 25
ultéri@@ 25
patch 25
MB@@ 25
≤ 25
méthotrexate. 25
transférase 25
disoproxil 25
démie 25
-M@@ 25
0) 25
ol. 25
T), 25
ogène. 25
ASC 25
ERE 25
initiatives 25
vertiges, 25
ker 25
Sant@@ 25
Luxembourg, 25
statisti@@ 25
pédi@@ 25
l'hôpital 25
laborat@@ 25
sué@@ 25
réseaux 25
d'essais 25
EUR@@ 25
coloration 25
pit@@ 25
récupération 25
nébulis@@ 25
cutanées, 25
l’A@@ 25
d’entre 25
’@@ 25
ative@@ 25
Réuni@@ 25
identifié 25
gamme 25
dra 25
n'avait 25
vigueur 25
lomb@@ 25
ça 25
enceinte. 25
poussées 25
cle 25
Dernière 25
chronique. 25
édu@@ 25
K) 25
l'AD@@ 25
dyspep@@ 25
botulinique 25
drogues 25
cémie, 25
résistantes 25
xim@@ 25
pes@@ 25
détermination 25
io@@ 25
2006 25
lande 25
mais, 25
dl 25
officielles 25
ard. 25
inverse 25
ogèn@@ 25
commen@@ 25
l'él@@ 25
surpoids 25
oles 25
Rapid 25
MSD 25
oxygén@@ 25
luttent 25
glucose-galactose 25
Londres. 25
dri@@ 25
n. 25
préremplis 25
straße 25
auton@@ 25
l'histoire 25
liber@@ 25
corporel. 25
Dy@@ 25
.... 25
ja 25
doig@@ 25
d'intérêt 25
désor@@ 25
cher, 25
vomissements. 25
udine 25
Pau@@ 25
diminuant 25
Limited, 25
El@@ 25
2800 25
radioactif 25
Chlamydophila 25
dérivé 25
aux-@@ 25
l'unité 25
ouverte 25
grossesse, 25
qu’en 25
d'inform@@ 25
question. 25
soin 25
invers@@ 25
massi@@ 25
substanti@@ 25
4.2 25
parallè@@ 25
b, 25
l'anti@@ 25
Plac@@ 25
prépa@@ 25
abol@@ 25
§ 25
Retirez 25
lax@@ 25
Can@@ 25
marché: 25
unidose 25
othérapie 25
c'@@ 25
film 25
production. 25
ressentir 25
Informez 25
fécon@@ 25
MU/ 25
opor@@ 25
ank@@ 25
mental 25
stu@@ 25
tre-@@ 25
Angl@@ 25
susp@@ 25
portent 25
disparaît 25
sexuelle 25
adap@@ 25
alimentaire, 25
retour 25
l'encontre 25
pro-@@ 25
démontrent 25
exclure 25
risqu@@ 25
s’agit 25
autorité 25
intoxications 25
naturel 25
justifie 25
biom@@ 25
demi 25
qualité, 25
valable 25
conversion 25
champs 25
domin@@ 25
prêt 25
eilli@@ 25
noy@@ 25
expression 25
gaz@@ 25
pleinement 25
") 25
s'ét@@ 25
fut 25
Mani@@ 25
tront 25
berg@@ 25
figu@@ 25
mur 25
nucléaire 25
prè@@ 25
télévision 25
invent@@ 25
procé@@ 25
lues 25
offrir 25
consommateurs. 25
conver@@ 25
istence 25
ch, 25
rembour@@ 25
ignore 25
dépassé 25
télévis@@ 25
ports 25
-t-@@ 25
m’@@ 25
poisson 25
Si, 25
s'y 25
fait. 25
Vfend 25
frapp@@ 25
soldats 25
vivre 25
ressour@@ 25
moi 25
pauvreté 25
Mc@@ 25
mauv@@ 25
veu@@ 25
siècl@@ 25
confl@@ 25
l'idée 25
abandonn@@ 25
Europe@@ 25
chôm@@ 25
d'ailleurs 25
espoi@@ 25
bonn@@ 25
ra-t-il 25
acteurs 25
scand@@ 25
cole 25
 000 @@ 25
!" 25
sera-t-il 25
aire? 25
aient-ils 25
Oui, 25
Pens@@ 25
isk@@ 24
conven@@ 24
Not@@ 24
CV@@ 24
effets. 24
cardiaque. 24
apparaî@@ 24
gauche 24
groupes. 24
cir@@ 24
vein@@ 24
buccale, 24
suicide 24
qu'avec 24
ary@@ 24
observée. 24
célécoxib 24
lanso@@ 24
ules 24
varie 24
démangeaisons, 24
6). 24
aspir@@ 24
ier 24
1,4 24
diminué 24
alité@@ 24
électroni@@ 24
corporelle 24
HB@@ 24
aiguë, 24
ation). 24
surveillée 24
indiqué, 24
profon@@ 24
11,@@ 24
traités. 24
diarrhées 24
chacune 24
collaboration 24
exclus 24
males 24
partiellement 24
malformations 24
91 24
25, 24
indic@@ 24
fréquentes 24
tropine 24
phosphatases 24
thromboemboliques 24
ophtal@@ 24
histam@@ 24
démence 24
capsu@@ 24
87@@ 24
te-@@ 24
colonne 24
toux, 24
traces 24
Equilis 24
observés. 24
fibrose 24
ciclospor@@ 24
graphique 24
trouvé 24
intra-@@ 24
EVRA 24
morph@@ 24
triglycéri@@ 24
hyperten@@ 24
mmol 24
SUTENT 24
couch@@ 24
bres 24
atinib 24
ats, 24
tard@@ 24
olid@@ 24
um) 24
Zonegran 24
encer 24
d'interactions 24
récipient 24
vési@@ 24
linguis@@ 24
{NOM 24
britannique 24
l'o@@ 24
Dubl@@ 24
travirine 24
maraviroc 24
émie. 24
inclure 24
ign@@ 24
litre 24
électr@@ 24
déshydrogénase 24
1%). 24
chambre 24
minut@@ 24
vesti@@ 24
conclusion 24
avertiss@@ 24
(autre 24
l'hypo@@ 24
efficacement 24
laissez 24
onat@@ 24
n'ait 24
ostéoporose 24
anticoagul@@ 24
dissou@@ 24
difficilement 24
prenne 24
vous, 24
suivent 24
anth@@ 24
d'élévation 24
.000 24
érant 24
ctions 24
ham@@ 24
2005. 24
7. 24
induction 24
COVERSYL 24
systémi@@ 24
recombinante 24
aven@@ 24
éventuel 24
gliome 24
invasive 24
O. 24
évén@@ 24
oxygène 24
sa@@ 24
ophtalmologiques 24
gants 24
survenant 24
CE. 24
--------@@ 24
potentielles 24
lors, 24
A) 24
phénom@@ 24
bilan 24
mb@@ 24
député 24
carri@@ 24
65@@ 24
sym@@ 24
amine, 24
douleurs, 24
transmet@@ 24
volontaire 24
CC@@ 24
antirétrovir@@ 24
Deutschland 24
HAR@@ 24
enter@@ 24
l'enfant. 24
rav@@ 24
dig@@ 24
réfl@@ 24
régression 24
d'intolérance 24
reconnu 24
estion 24
perd@@ 24
RA 24
oug@@ 24
recherche, 24
eu, 24
cti@@ 24
urie, 24
sèche, 24
crampes 24
Ger@@ 24
62 24
cha@@ 24
itaire. 24
nombr@@ 24
Durant 24
d’administration 24
Proc@@ 24
atives, 24
deux. 24
estonia@@@ 24
pot 24
TIV@@ 24
respirat@@ 24
écoul@@ 24
ralenti@@ 24
somb@@ 24
potentiels 24
nouveau. 24
porcine 24
by 24
congel@@ 24
DICC50 24
CYP3A4. 24
Viani 24
aqu@@ 24
alimentaires. 24
Caractéristiques 24
aise. 24
recommandé. 24
rincer 24
PAS 24
sympt@@ 24
ci-@@ 24
envisagée. 24
enza 24
cimétidine 24
IS 24
Uxbridge 24
sus. 24
B) 24
l'intermédiaire 24
ouvrir 24
revan@@ 24
HEXAL 24
ures, 24
Vas@@ 24
montrer 24
table 24
HC@@ 24
020 24
022 24
150/ 24
SERING@@ 24
276/ 24
54 24
EU/1/07/435@@ 24
l'équilibre 24
l'aspect 24
méth@@ 24
aliments. 24
Espagne. 24
on-@@ 24
TESLASCAN 24
Mixtard 24
G1@@ 24
nomin@@ 24
rè@@ 24
ourn@@ 24
etten 24
ž 24
Jean-@@ 24
Franç@@ 24
astr@@ 24
spécial 24
O) 24
vice-@@ 24
Met@@ 24
hol@@ 24
j 24
excipi@@ 24
Gau@@ 24
rage. 24
l'intervention 24
vivo@@ 24
possibil@@ 24
l'élarg@@ 24
lav@@ 24
Temodal 24
obligatoire 24
atif, 24
autrement 24
dit, 24
qualité. 24
sim@@ 24
l'importance 24
indiquer 24
ages. 24
nocuité 24
coli. 24
l'op@@ 24
hépatique: 24
l’aide 24
moi@@ 24
(dose 24
Franc@@ 24
main-@@ 24
drogue 24
ettre 24
nie. 24
Pir@@ 24
essentielle 24
trib@@ 24
exes 24
PN@@ 24
tchèque, 24
étude. 24
bitr@@ 24
élarg@@ 24
renfor@@ 24
(Unités 24
rassembl@@ 24
L'augmentation 24
probl@@ 24
obs@@ 24
émis 24
garantie 24
océ@@ 24
ci. 24
venti@@ 24
excep@@ 24
gratu@@ 24
instruments 24
l'Allemagne 24
tomber 24
intégration 24
MERIAL 24
Alpes 24
esse. 24
l'intention 24
Lisez 24
cosmé@@ 24
l'abatt@@ 24
tués 24
sanitaires 24
Mor@@ 24
répar@@ 24
bre 24
151/ 24
Résultats 24
ise. 24
endrait 24
fié 24
INAIRES 24
Puisque 24
»? 24
Finland 24
oui, 24
unanim@@ 24
éor@@ 24
vivant 24
l'accord 24
ain. 24
revenus 24
diversité 24
interdire 24
politique. 24
es". 24
farines 24
île 24
réclam@@ 24
content@@ 24
falsi@@ 24
norme 24
privil@@ 24
imparti@@ 24
négociations 24
occu@@ 24
comman@@ 24
accordée 24
ale? 24
essay@@ 24
tions? 24
peuples 24
Commissaire, 24
?" 24
(A4-04@@ 24
3/2001) 24
/2002) 24
88 23
Healthcare 23
veineuse 23
d'urgence 23
sulfam@@ 23
VICH 23
inhabitu@@ 23
ng/ 23
éd 23
lieux 23
l’absence 23
thromboses 23
(incluant 23
palpit@@ 23
bouche, 23
thy@@ 23
perforation 23
menés 23
rat, 23
dy@@ 23
AIN@@ 23
arth@@ 23
s'accompagn@@ 23
Exforge 23
contraceptif 23
converti@@ 23
égi@@ 23
U/ 23
thoracique 23
vital 23
caract@@ 23
l'ef@@ 23
étrie 23
ral 23
esses 23
sol 23
SPRYCEL 23
médiateur 23
l'ajout 23
aprè@@ 23
vertébr@@ 23
0,00@@ 23
(5@@ 23
infliximab 23
d'Effentora 23
(« 23
pravastatine 23
adhésion 23
yme 23
yng@@ 23
affecte 23
micro-@@ 23
supplémentaires. 23
140 23
réag@@ 23
animales 23
15% 23
interruption 23
10,@@ 23
UG@@ 23
exacerb@@ 23
débuté 23
érat@@ 23
cérébra@@ 23
exclu 23
Fasturtec 23
fond, 23
cardio@@ 23
terminé 23
tine, 23
femme, 23
Prequenza 23
paralysie 23
ger@@ 23
fall@@ 23
2001, 23
1,7 23
azole 23
saine 23
D3 23
glucose. 23
analogue 23
embry@@ 23
générales 23
éph@@ 23
F, 23
ENTR@@ 23
ine@@ 23
CYP@@ 23
ologiquement 23
DATE 23
1996 23
inémie 23
dépression, 23
pp@@ 23
chargé 23
Gre@@ 23
e/@@ 23
hôpital 23
olog@@ 23
établiss@@ 23
gramme 23
alcool, 23
TION 23
emploi. 23
chirurgicale 23
l'adulte. 23
hydrogén@@ 23
Sécurité 23
risque, 23
caoutchouc 23
alisé 23
l'administration. 23
ôt 23
osité, 23
Pra@@ 23
hypotension 23
fiés 23
och@@ 23
cutanés 23
résumé: 23
urée 23
développements 23
irradi@@ 23
absorbée 23
IE@@ 23
ELISA 23
sous-jac@@ 23
aboutir 23
dirigés 23
comités 23
sélective 23
pyr@@ 23
augmentée. 23
atténuer 23
répondent 23
paupi@@ 23
champi@@ 23
considérables 23
vres 23
compati@@ 23
sommet 23
(2 23
Suè@@ 23
post-ménopau@@ 23
couramment 23
Men@@ 23
fluctuations 23
cancer, 23
poign@@ 23
dist@@ 23
urtic@@ 23
uration 23
onnel 23
oires, 23
thme 23
transfu@@ 23
visites 23
mettant 23
isez 23
résistant 23
DG 23
Em@@ 23
appéti@@ 23
toni@@ 23
oniques 23
(infection 23
fongique 23
écoulement 23
glandes 23
fœ@@ 23
College 23
yr@@ 23
Industrial 23
uk@@ 23
dl. 23
Indi@@ 23
conti@@ 23
MEN@@ 23
bler 23
gonflement, 23
musculo-@@ 23
Treatment 23
A., 23
Char@@ 23
estre 23
cémie. 23
adulte 23
č 23
enfant@@ 23
oxéti@@ 23
évolu@@ 23
moyenne, 23
QUE@@ 23
Excipi@@ 23
l'extrémité 23
cellules. 23
iront 23
gence 23
enregistrement 23
maîtr@@ 23
Président 23
l'inform@@ 23
fourniture 23
facile 23
ser. 23
repas, 23
précédente 23
sui@@ 23
averti@@ 23
s'aggravent, 23
d'expérience 23
l'OM@@ 23
hydroxyl@@ 23
rosiglitazone 23
alise 23
recyclage 23
piston 23
guérison 23
estimation 23
çons 23
capital 23
Utilisez 23
50. 23
duquel 23
acétate 23
sulfon@@ 23
quettes 23
gues 23
Avonex 23
béné@@ 23
VO@@ 23
HA@@ 23
actuelles 23
obligat@@ 23
019 23
025 23
4/@@ 23
4/00@@ 23
6/@@ 23
06 23
046/ 23
cept@@ 23
comportant 23
incolor@@ 23
collées 23
parois, 23
anhydre, 23
tré@@ 23
plication 23
Lev@@ 23
Pen@@ 23
180° 23
ez: 23
l'indicateur 23
issons, 23
exion 23
phy@@ 23
membr@@ 23
tremblements, 23
accél@@ 23
dos 23
iner 23
sorb@@ 23
to@@ 23
rétino@@ 23
andel@@ 23
los 23
ki 23
hypertendus 23
SIDA 23
travaillant 23
dé. 23
décel@@ 23
admis 23
suivi@@ 23
prescrite 23
adéquat@@ 23
(VIH-1), 23
abine 23
d'eau. 23
provoquent 23
proc@@ 23
prime 23
bas. 23
utile 23
fonctionner 23
douloureuse 23
Hongrie, 23
Lésions, 23
Internationales) 23
anesthésie 23
subs@@ 23
desloratadine 23
tier 23
ella 23
est: 23
l'avis 23
700 23
restric@@ 23
ajout 23
fabric@@ 23
agement 23
applic@@ 23
répétez 23
cultu@@ 23
1er 23
saisine 23
Autri@@ 23
outi@@ 23
zo@@ 23
recommand@@ 23
calendrier 23
combinaison 23
escompt@@ 23
fie 23
viti@@ 23
découl@@ 23
atér@@ 23
si. 23
dres 23
monde, 23
2010@@ 23
péd@@ 23
enquêtes 23
va@@ 23
entionn@@ 23
cong@@ 23
prochaine 23
soulev@@ 23
l'attention 23
sidi@@ 23
l'existence 23
coloni@@ 23
restaur@@ 23
bâtiments 23
défense 23
Tor@@ 23
Main@@ 23
L'O@@ 23
Bri@@ 23
ADRESSE 23
choisir 23
indispens@@ 23
Air@@ 23
D’ÉLIMINATION 23
indé@@ 23
has@@ 23
Quatre-@@ 23
et? 23
Dan@@ 23
QU’@@ 23
dég@@ 23
Sinon, 23
Parl@@ 23
campagne 23
Soyez 23
tac@@ 23
avort@@ 23
limitation 23
retrouver 23
sols 23
"? 23
proposées 23
croissement 23
hou@@ 23
encourager 23
symbo@@ 23
prosp@@ 23
discours 23
vérit@@ 23
vieux 23
plein 23
crédit 23
Euro@@ 23
musul@@ 23
communauté 23
dictat@@ 23
collecte 23
démocr@@ 23
clonage 23
prê@@ 23
énergétique 23
dénon@@ 23
humanité 23
honor@@ 23
géograph@@ 23
biocarbur@@ 23
aéropor@@ 23
j’ai 23
doit@@ 23
attent@@ 23
e-t-on 23
estimations, 23
ł@@ 23
applaudiss@@ 23
expul@@ 23
Trop 23
LL@@ 22
sanofi-aventis 22
Cer@@ 22
désinfect@@ 22
zidov@@ 22
interrompue 22
prendra 22
glycémique 22
artéri@@ 22
coron@@ 22
95% 22
espè@@ 22
FS 22
urique 22
iste, 22
identiques 22
sarcome 22
cuisse 22
intestinale 22
comportements 22
picot@@ 22
mous 22
menace 22
dysp@@ 22
indépendant 22
cortico@@ 22
l'insuffisance 22
aques 22
Rel@@ 22
conjointement 22
l’année 22
injectée 22
dépend 22
issement. 22
ion@@ 22
souh@@ 22
pénétrer 22
intens@@ 22
d'ulcères 22
8) 22
relatifs 22
candi@@ 22
lettres 22
douze 22
60% 22
581 22
ecti@@ 22
82 22
utilisées. 22
exclu. 22
additionn@@ 22
(O@@ 22
cogni@@ 22
NV@@ 22
ation; 22
FL@@ 22
4.4@@ 22
dialyse 22
adéfovir 22
vitr@@ 22
hémorragies 22
its. 22
hommes, 22
2,6 22
2004 22
affecté 22
l'amlodipine 22
ement), 22
médicaux 22
recueilli@@ 22
(0,9@@ 22
d'expiration 22
administrations 22
s'aggrav@@ 22
complex@@ 22
céphalées, 22
John@@ 22
Saint-@@ 22
dépar@@ 22
hospitali@@ 22
on) 22
Medicines 22
grave@@ 22
l’EMEA@@ 22
vidé@@ 22
Sem@@ 22
curar@@ 22
position. 22
stades 22
défaill@@ 22
osité 22
mac@@ 22
cipro@@ 22
échapp@@ 22
QUES 22
Fréqu@@ 22
ponctu@@ 22
délivrée 22
eil. 22
emi@@ 22
oxine 22
DICAMEN@@ 22
hoc 22
épilepsie 22
ambul@@ 22
exerce 22
souples. 22
final 22
soumise 22
Lorsqu'une 22
impac@@ 22
pharmacovigil@@ 22
igne 22
anou@@ 22
femmes. 22
ée@@ 22
tic@@ 22
janvier 22
Soliris 22
allong@@ 22
muqu@@ 22
accroître 22
transmis 22
struc@@ 22
glomér@@ 22
EXJADE 22
rouill@@ 22
presse 22
mécan@@ 22
dépres@@ 22
plaie 22
ton. 22
respec@@ 22
iso@@ 22
Ox@@ 22
gly@@ 22
génétique 22
utilité 22
conges@@ 22
mort, 22
l'étiquet@@ 22
Italie, 22
réside 22
l’augmentation 22
variable 22
l'examen 22
cardio-@@ 22
erç@@ 22
recherches 22
paresthésie, 22
cé. 22
T). 22
virales 22
Stev@@ 22
ρ@@ 22
93 22
RAP@@ 22
S-@@ 22
oi, 22
gri@@ 22
cutané 22
digoxine 22
vaiss@@ 22
ur, 22
servent 22
raid@@ 22
maîtrise 22
stitut 22
d'hu@@ 22
allergies 22
Norvèg@@ 22
Produ@@ 22
Doc@@ 22
médec@@ 22
auri@@ 22
oo@@ 22
Ziagen 22
Hémorragie 22
Yor@@ 22
immunité 22
Trouble 22
selles 22
San 22
-91 22
ococ@@ 22
métacrésol, 22
SK@@ 22
Services 22
Roche 22
Prévenez 22
fongique, 22
ene 22
monothérap@@ 22
ecté@@ 22
estr@@ 22
quit@@ 22
cath@@ 22
ga@@ 22
kaliémie, 22
appropriés 22
spectre 22
ress@@ 22
pandé@@ 22
Pen 22
Temps 22
spécialisé 22
transfé@@ 22
d'avis 22
totalité 22
alpha 22
antiacides 22
tétracycl@@ 22
ultérieure 22
importante, 22
d'ajuster 22
conformité 22
statistique 22
origine. 22
Street 22
Peg@@ 22
Sil@@ 22
de-@@ 22
pend@@ 22
clari@@ 22
prévenez 22
favorables 22
opérationnel 22
l'administration, 22
quotidienn@@ 22
Via 22
soulager 22
fine 22
Sar@@ 22
pain 22
Ter@@ 22
couvre 22
stylo, 22
PREREMPLI@@ 22
pelliculé 22
l'av@@ 22
ël 22
Eviter 22
ES) 22
chè@@ 22
chlorhydrate 22
lamiv@@ 22
aar@@ 22
Fab@@ 22
Cr@@ 22
S.@@ 22
algie 22
fenêtre 22
direct 22
Thyrogen 22
chats 22
journal 22
quie 22
Fréquents: 22
Rar@@ 22
vert@@ 22
née. 22
créé 22
IP@@ 22
gues. 22
douloureux 22
intégrer 22
nuclé@@ 22
toxicom@@ 22
d'Alzheim@@ 22
èrement 22
radiomar@@ 22
lettre 22
l'usage 22
ting 22
fiable 22
stimulation 22
table. 22
s’assurer 22
vouloir 22
au-dessus 22
obésité 22
sé, 22
garder 22
décrite 22
antigènes 22
forces 22
Blo@@ 22
sin 22
figurer 22
monoamine 22
d’utilisation 22
rément 22
Aucun 22
L'exposition 22
vétérinaires. 22
ètr@@ 22
subir 22
Janssen-Cilag 22
ell 22
fédér@@ 22
tyr@@ 22
vise 22
longtemps, 22
également. 22
laiss@@ 22
gy@@ 22
tolérée 22
dangereuse 22
défin@@ 22
dossier 22
âtre 22
tâ@@ 22
otine 22
image 22
11. 22
versions 22
régl@@ 22
approuvées 22
retarder 22
couverture 22
premi@@ 22
perdu@@ 22
européennes, 22
cens@@ 22
● 22
Chris@@ 22
ferm@@ 22
ophtalmologique 22
oirs 22
put@@ 22
hô@@ 22
l'anémie. 22
seules 22
existent 22
itali@@ 22
soluti@@ 22
command@@ 22
incit@@ 22
L'intervalle 22
style 22
objet 22
lourds 22
Poly@@ 22
bourg 22
agricoles 22
Modification 22
Haarlem 22
N’arrêtez 22
souven@@ 22
Objec@@ 22
rendez-vous 22
parent@@ 22
mass@@ 22
attitude 22
teau 22
boute@@ 22
publié 22
Ti@@ 22
page 22
transportent 22
Suite 22
remarqu@@ 22
appell@@ 22
uniforme 22
communic@@ 22
autoriser 22
trouverez 22
problèm@@ 22
l'É@@ 22
transfrontali@@ 22
procès 22
citoyen 22
dangereuses 22
ère? 22
révol@@ 22
équit@@ 22
paiements 22
fraude 22
mérit@@ 22
kilomètres 22
prison 22
frontière 22
dialogue 22
évidemment 22
vivent 22
c'était 22
pauvret@@ 22
contro@@ 22
L'étiquetage 22
clandestin@@ 22
te! 22
alisme. 22
cultur@@ 22
investiss@@ 22
sida 22
d’euros 22
concrè@@ 22
l'argent 22
usine 22
malheur@@ 22
riez-vous 22
d'autres. 22
t? 22
serait-il 22
avions 22
dirait 22
6-0@@ 22
Peut-@@ 22
Récemment, 22
(A4-02@@ 22
Seule 22
Voici 22
mark 21
90% 21
alternatives 21
AMMONAPS 21
immédiat 21
oS@@ 21
explicative 21
cependant, 21
dèmes 21
sous-groupe 21
clusion 21
entérite, 21
ophie 21
stri@@ 21
paraly@@ 21
colite 21
rect@@ 21
effectuées 21
tide 21
ganglions 21
carcinogénicité 21
répan@@ 21
récent 21
thor@@ 21
TNF 21
amm@@ 21
fibrin@@ 21
consac@@ 21
Type 21
acétylsalicy@@ 21
51 21
perform@@ 21
Glivec 21
appropriées 21
Cetrotide 21
partici@@ 21
l'intégr@@ 21
appelées 21
microgrammes. 21
arthr@@ 21
suivi. 21
situent 21
perturber 21
thyroïde 21
Vel@@ 21
déterminé 21
atteignant 21
hospit@@ 21
3.@@ 21
mg@@ 21
QU@@ 21
LY@@ 21
mique 21
acept 21
saquinavir 21
carbam@@ 21
scores 21
Health 21
jour), 21
dée. 21
kg) 21
C/ 21
lip@@ 21
L, 21
intermédi@@ 21
périodi@@ 21
applications 21
nourriss@@ 21
multipl@@ 21
sée 21
d’environ 21
pharmacologique 21
tolcapone 21
tal 21
identique 21
ajouté 21
NovoLet 21
second 21
illet 21
ation/ 21
‘ 21
occasionn@@ 21
bilirub@@ 21
PRODUI@@ 21
phén@@ 21
gastro-intestinal 21
institu@@ 21
ffice 21
ae 21
toxic@@ 21
nos@@ 21
satisfaisant 21
relations 21
myocarde 21
profond@@ 21
PC@@ 21
logi@@ 21
héli@@ 21
main, 21
ée) 21
orphel@@ 21
acné, 21
erais 21
VOIE(S) 21
AIRE 21
hydratation 21
avertis 21
l'intern@@ 21
GFR@@ 21
cholestérol@@ 21
contest@@ 21
quotidiennement 21
soy@@ 21
malad@@ 21
cémi@@ 21
Ul@@ 21
Ur@@ 21
ée: 21
février 21
extension 21
otr@@ 21
war@@ 21
rhabdomyolys@@ 21
commercialisées. 21
'œ 21
épilep@@ 21
d’éviter 21
Grou@@ 21
déconseill@@ 21
situation. 21
vertigin@@ 21
suivies 21
uniques 21
produisent 21
carcinogène 21
orthopédique 21
ml). 21
gastro- 21
spécifiques. 21
Irlande, 21
produire. 21
appropriées. 21
LIS@@ 21
retards 21
rite 21
fil 21
précip@@ 21
J. 21
l'injection, 21
asth@@ 21
Gmb@@ 21
discipl@@ 21
estér@@ 21
adaptateur 21
jusqu’@@ 21
dinavir 21
didan@@ 21
alan@@ 21
jus 21
nasale 21
bruit 21
acul@@ 21
ches. 21
organe 21
Tél.: 21
E-mail: 21
… 21
99mTc@@ 21
coc@@ 21
MAC@@ 21
6.1 21
INE 21
stro@@ 21
progest@@ 21
m) 21
IN 21
Jac@@ 21
's 21
OX@@ 21
ouverture. 21
reconstitué, 21
microgrammes@@ 21
conservation, 21
Keppra 21
thrombocyt@@ 21
Agu@@ 21
échang@@ 21
échantill@@ 21
bactérie 21
All@@ 21
VIRACEP@@ 21
ash@@ 21
d'évènements 21
malin 21
infec@@ 21
1000) 21
thyroï@@ 21
spontan@@ 21
paupières, 21
endocrini@@ 21
conjonc@@ 21
étranger 21
gran@@ 21
éro@@ 21
oire@@ 21
accidentellement 21
felis 21
accroît 21
écu@@ 21
Voir 21
d'informations. 21
chinois 21
transfér@@ 21
thrombine 21
paroi 21
algi@@ 21
regroup@@ 21
boite 21
“@@ 21
flacon@@ 21
demandé@@ 21
dits 21
celui-@@ 21
muscle. 21
partag@@ 21
London, 21
ogènes 21
infection. 21
d'arrêt 21
traumatis@@ 21
délicat@@ 21
auquel 21
s'attendre 21
recher@@ 21
envisagez 21
l'ob@@ 21
tension, 21
fiée 21
VIH, 21
Risque 21
interven@@ 21
données, 21
dangers 21
atmosph@@ 21
métaboli@@ 21
signifi@@ 21
herpès 21
l'ap@@ 21
report@@ 21
remplir 21
liv@@ 21
positions 21
stéril@@ 21
Erbitux 21
ustr@@ 21
bag@@ 21
photosensi@@ 21
solv@@ 21
ONS 21
357/ 21
358/ 21
ZYPREXA 21
divergences 21
nar@@ 21
èrement, 21
monop@@ 21
Tél: 21
personnes. 21
de? 21
Fréquent 21
féli@@ 21
abilité@@ 21
moin@@ 21
ration 21
endront 21
eck 21
retirée 21
orang@@ 21
ov 21
ards 21
plat@@ 21
Glustin 21
COX@@ 21
enceinte, 21
années-@@ 21
pani@@ 21
elle-@@ 21
jau@@ 21
annuel 21
monoclonal 21
belg@@ 21
pH 21
avant. 21
nourriture. 21
omie 21
longs 21
entez 21
introduite 21
essions 21
journali@@ 21
problème, 21
tém@@ 21
procur@@ 21
TRISENOX 21
prélèvement 21
ole. 21
alement. 21
Vac@@ 21
maïs 21
LV@@ 21
irréversi@@ 21
Insuffisants 21
durée. 21
za 21
l'aven@@ 21
386 21
puissant 21
pneu@@ 21
moder@@ 21
Ren@@ 21
collègues 21
Kingdom 21
fabricant(s) 21
ng@@ 21
20. 21
déjeun@@ 21
cham@@ 21
équi@@ 21
agrég@@ 21
transmis@@ 21
ettez 21
Parkins@@ 21
différenci@@ 21
entreprises. 21
incluse 21
apporté 21
spécul@@ 21
d'incidence 21
correcte 21
compte-gouttes 21
licit@@ 21
ā@@ 21
ba 21
intervenir 21
distrib@@ 21
arc@@ 21
écrit@@ 21
décision. 21
prononc@@ 21
étaire 21
Bou@@ 21
introduit 21
tiers. 21
demi@@ 21
échanges 21
voyage 21
autom@@ 21
chant@@ 21
êtr@@ 21
numéri@@ 21
l'Irlande, 21
ante-@@ 21
propagation 21
ajoutée 21
conf@@ 21
rent 21
bons 21
vrai@@ 21
l'Autriche, 21
traite 21
investi@@ 21
Européen 21
Porte 21
69800 21
advi@@ 21
imes 21
buvez 21
dress@@ 21
paragraph@@ 21
Prés@@ 21
Ramsgate 21
Prendre 21
maladies, 21
décider@@ 21
Puis 21
Qu'en 21
pages 21
porte@@ 21
tir 21
Bos@@ 21
Se 21
moment, 21
juridique 21
histori@@ 21
avortement 21
que" 21
Vingt-@@ 21
endre, 21
Αγίου 21
Δημητρίου 21
GR-174 21
Άλιμος 21
30-210 21
affir@@ 21
bâti@@ 21
sont-ils 21
drapeau 21
allou@@ 21
électricité 21
persécu@@ 21
brev@@ 21
autres. 21
commis@@ 21
tragédi@@ 21
transports 21
émis@@ 21
dirige@@ 21
peuple 21
métaux 21
meurent 21
guerr@@ 21
étonn@@ 21
vols 21
aujourd’hui 21
l'an 21
encor@@ 21
pensi@@ 21
circons@@ 21
libéralisation 21
e-t-@@ 21
occident@@ 21
fronti@@ 21
Parlement. 21
terri@@ 21
offensi@@ 21
servir 21
ai-je 21
parven@@ 21
rions 21
démocratie 21
bois 21
me? 21
dollars 21
l'intérêt 21
entendu 21
danger. 21
terror@@ 21
irait 21
ra-t-@@ 21
noc@@ 21
ens? 21
procès-verb@@ 21
connaissez 21
erons 21
/1999) 21
Souvent, 21
Ferr@@ 20
Bir@@ 20
enlever 20
précé@@ 20
canal 20
coquelu@@ 20
82@@ 20
randomisée, 20
avir/ 20
giène 20
benzodiazépines 20
omi@@ 20
agoniste 20
agon@@ 20
CG@@ 20
sommeil, 20
avaler 20
mie. 20
SN@@ 20
méning@@ 20
sévères, 20
sensibilisation 20
brady@@ 20
contrôle. 20
respectivement, 20
l'infl@@ 20
DMO 20
gamm@@ 20
évacu@@ 20
2), 20
comparée 20
préparer 20
sées, 20
manuel 20
(non 20
h. 20
MD@@ 20
onu@@ 20
yttrium 20
tripla 20
amid@@ 20
migration 20
iloprost 20
(pharmacovigilance 20
gastro-intestinaux 20
doses. 20
Médi@@ 20
(IR@@ 20
restre@@ 20
intensité 20
(100 20
(AS@@ 20
osseu@@ 20
bêt@@ 20
l'inhal@@ 20
l'amprénavir 20
VHC 20
important@@ 20
cardiovasculaires, 20
néo@@ 20
fungine 20
zheim@@ 20
sérotonine 20
olys@@ 20
gastrique 20
l'anesthésie 20
persistante 20
parcour@@ 20
,5 20
h/ 20
excell@@ 20
SO@@ 20
on; 20
féline. 20
es/@@ 20
l'organisme, 20
retrouvé 20
cica@@ 20
quam@@ 20
IONSYS 20
trois@@ 20
azanavir 20
pec@@ 20
SE 20
profils 20
vessie 20
apparue 20
optim@@ 20
croisée 20
pran@@ 20
Sprim@@ 20
plasi@@ 20
utions 20
aveugle 20
SC 20
support 20
litres 20
détail@@ 20
PREMI@@ 20
érythème, 20
biotechn@@ 20
déficits 20
euph@@ 20
ford 20
4.3 20
employé 20
Er@@ 20
1987, 20
Berlin 20
bovine 20
licence 20
omo@@ 20
autorisées 20
lymphoïde 20
médicamenteuse 20
pot@@ 20
doul@@ 20
bébé. 20
(F@@ 20
électroly@@ 20
évoqué 20
phosphat@@ 20
renforcer 20
produites 20
sections 20
examiner 20
présents 20
d'Am@@ 20
pression, 20
l'asthme 20
Rare: 20
contu@@ 20
émergence 20
altérations 20
informations. 20
parine 20
ecchym@@ 20
ym@@ 20
grasse 20
internes 20
prélimin@@ 20
yra@@ 20
cerveau 20
nez, 20
continence 20
d'hypoglycémie 20
ites. 20
humaines 20
ativement 20
hamster 20
initiales 20
dex 20
vétérinaire. 20
nouveau-@@ 20
bronchite, 20
occasionnellement 20
benzalkonium, 20
âge. 20
gam@@ 20
humi@@ 20
protéinurie 20
s'impos@@ 20
génique 20
ast 20
ômes 20
psycho@@ 20
ocu@@ 20
ony@@ 20
Animal 20
CP 20
d'éventuelles 20
Diacomit 20
épilepti@@ 20
cœur 20
batt@@ 20
qué. 20
Veterinary 20
EUR 20
d'association 20
dernier, 20
université 20
automatique 20
l’administration 20
actionn@@ 20
flacon) 20
oesoph@@ 20
cou 20
abdom@@ 20
impéri@@ 20
Douleurs 20
issons 20
ón 20
Agence 20
aw@@ 20
élevé. 20
EI@@ 20
hydrox@@ 20
oprost 20
Produit 20
nag@@ 20
administration, 20
Dyn@@ 20
neumon@@ 20
cus 20
pH) 20
disparition 20
.com 20
Tallinn 20
tic 20
fili@@ 20
cot@@ 20
glande 20
cès 20
tons 20
rapides 20
virale, 20
simplex, 20
flam@@ 20
activité, 20
l'agricul@@ 20
complexe 20
Opti@@ 20
yeux. 20
bibliothè@@ 20
indicateurs 20
bac@@ 20
approuvé? 20
suspen@@ 20
2006, 20
gardez 20
artan 20
ostati@@ 20
auto-injection 20
issage 20
anti 20
précau@@ 20
Viread 20
lumière. 20
éris@@ 20
touche 20
spécifiques, 20
BeneFIX 20
collabor@@ 20
certi@@ 20
isot@@ 20
expliquer 20
règle 20
Kr@@ 20
fabrique 20
Envir@@ 20
combiné 20
médian 20
filtr@@ 20
dén@@ 20
ocr@@ 20
risques. 20
motifs 20
benz@@ 20
huile 20
ourdiss@@ 20
Etude 20
134/ 20
152/ 20
103 20
XXX 20
415/ 20
orodispersibles) 20
/05@@ 20
températures 20
solution. 20
entour@@ 20
couvrir 20
effort 20
hyl@@ 20
ls 20
stabilité 20
mout@@ 20
Pas@@ 20
PRINCIPE 20
ACTIF 20
annonciateurs 20
Wilzin 20
complet 20
entan@@ 20
l'ouverture 20
conç@@ 20
paration 20
accent 20
l'environnement, 20
Grande-Bretagne 20
batter@@ 20
organiza@@ 20
N'utilisez 20
Office 20
Herpèsvirus 20
Seringue 20
ger 20
blanche. 20
Nobilis 20
provoqu@@ 20
supprimer 20
3), 20
instaurer 20
infection, 20
évité 20
sure 20
contracep@@ 20
s'applique 20
sinon 20
antirétroviraux, 20
ane. 20
onner 20
d'autant 20
journée. 20
variations 20
rues 20
reb@@ 20
spécialistes 20
vaches 20
rejet 20
revenir 20
restructur@@ 20
Suède. 20
écra@@ 20
Intervet 20
Sa@@ 20
tion: 20
ites, 20
prévoy@@ 20
prés@@ 20
ecter 20
di, 20
amp@@ 20
LS 20
sun@@ 20
conçue 20
dépendante 20
doseur 20
indiffér@@ 20
aine, 20
juge 20
bes 20
am, 20
évitée. 20
bot@@ 20
circulant 20
harmonis@@ 20
fur 20
d'unités 20
étiquette 20
uniform@@ 20
ennes. 20
l’heure 20
cé 20
avancé@@ 20
bande 20
apporte 20
ture. 20
défi@@ 20
satell@@ 20
ai. 20
Méth@@ 20
juri@@ 20
préjudi@@ 20
réussi 20
transformé@@ 20
cuiss@@ 20
chemin 20
aéroport 20
précis 20
blessure 20
notam@@ 20
rit 20
aient, 20
interprétation 20
titulaires 20
ènes, 20
délais 20
comparer 20
avantage 20
l'UE@@ 20
suffi@@ 20
Roumanie 20
l'obésité 20
foyer 20
Cour 20
illu@@ 20
repose 20
L'olanzapine 20
bien-être 20
Polo@@ 20
niveau. 20
sond@@ 20
k. 20
Métabolisme 20
irland@@ 20
dépas@@ 20
centi@@ 20
peur 20
déroul@@ 20
afric@@ 20
ole, 20
ko 20
Premi@@ 20
Mad@@ 20
études? 20
qua@@ 20
Vo@@ 20
piè@@ 20
ná 20
Sujets 20
opini@@ 20
accord@@ 20
abu@@ 20
résultats. 20
proposer 20
terroris@@ 20
elle-même 20
marchandises 20
villes 20
problème. 20
non, 20
Communauté 20
éthi@@ 20
épuis@@ 20
pétr@@ 20
quotas 20
donc, 20
politi@@ 20
sociét@@ 20
coupa@@ 20
çon 20
hongr@@ 20
décen@@ 20
l'étrang@@ 20
construire 20
cim@@ 20
crati@@ 20
nob@@ 20
données. 20
Zimbabw@@ 20
détention 20
bientôt 20
rémun@@ 20
fou@@ 20
vrai 20
dommag@@ 20
m'a 20
malheureusement 20
palestini@@ 20
erai 20
gaspill@@ 20
carbur@@ 20
missi@@ 20
collè@@ 20
électeurs 20
intérêt@@ 20
L’UE 20
ons-nous? 20
ences? 20
Permettez-moi 20
èmement, 20
æ@@ 19
interprét@@ 19
evi@@ 19
instauré. 19
diphtéri@@ 19
retirez 19
auparavant 19
récemment, 19
administration. 19
(ex: 19
capa@@ 19
composant 19
cérébro@@ 19
chimie 19
cohor@@ 19
(18@@ 19
om 19
disposant 19
ZI@@ 19
adéquate. 19
Kivexa 19
esthésie 19
hosti@@ 19
ère) 19
postnat@@ 19
d'équilibr@@ 19
étri@@ 19
Ka@@ 19
avérée 19
d'1 19
ess 19
Tredaptive 19
1%) 19
compara@@ 19
noté 19
invasi@@ 19
applicables 19
prothrombine 19
l’Agence 19
fractionn@@ 19
clé@@ 19
inévit@@ 19
contexte 19
ench@@ 19
inflammatoire 19
harmoniser 19
l'aliment@@ 19
pancréas 19
siège 19
hebdomad@@ 19
ité) 19
corticostéroïdes 19
excrétés 19
tionnaire 19
N) 19
contrôles. 19
étap@@ 19
mus@@ 19
inconnu@@ 19
total, 19
lait@@ 19
130 19
35% 19
venlafaxine 19
alimumab 19
AT) 19
d'imagerie 19
dienne 19
déprim@@ 19
fertil@@ 19
InductO@@ 19
tolér@@ 19
IV, 19
ergiques 19
cholinergi@@ 19
(soit 19
génit@@ 19
ans). 19
individuelle 19
pénicill@@ 19
veineuses 19
Lucentis 19
Rebetol 19
9) 19
spondylarthrite 19
fel@@ 19
OS 19
neutralisants 19
l’in@@ 19
radioactivité 19
environn@@ 19
Zometa 19
0,5@@ 19
p=@@ 19
faible. 19
rét@@ 19
muline 19
l'éfavirenz, 19
4). 19
leucocyt@@ 19
hydrochlorothiazide 19
74@@ 19
Actrap@@ 19
InnoL@@ 19
goû@@ 19
approb@@ 19
RENOUVELLEMENT 19
Médicament 19
renouv@@ 19
moteur 19
sine 19
retrouvés 19
exie, 19
croû@@ 19
convulsions, 19
fistu@@ 19
pleur@@ 19
conférences 19
Pierre 19
Nord 19
prolongée. 19
poitr@@ 19
estom@@ 19
vésicule 19
Annexe 19
DÉ@@ 19
rouge, 19
fici@@ 19
“ 19
thème 19
iri@@ 19
langue, 19
Del@@ 19
légères 19
eur) 19
80, 19
Dem@@ 19
modérément 19
me) 19
(syndrome 19
attein@@ 19
d'ur@@ 19
nes, 19
sori@@ 19
ha 19
formulations 19
diffuse 19
l'entecavir 19
éclair@@ 19
angi@@ 19
anticoagulants 19
tachy@@ 19
accompagnés 19
publiés 19
complexes 19
concours 19
agence 19
placés 19
rédig@@ 19
concl@@ 19
aér@@ 19
stillation 19
coxib 19
énati@@ 19
période. 19
visuels, 19
vertiges 19
antirétroviral 19
semble, 19
pharmacodynamiques 19
cér@@ 19
mâch@@ 19
thèmes 19
trap@@ 19
pratiquer 19
Ces 19
inflammatoires 19
ONN@@ 19
re/ 19
apparus 19
allaite. 19
surveiller 19
glutam@@ 19
cholestérol, 19
créatininémie 19
immunosuppresseurs 19
s’av@@ 19
millepertuis 19
essouff@@ 19
savoir@@ 19
papill@@ 19
équipe 19
msd@@ 19
co- 19
supervision 19
nourrisson 19
buccal 19
glycine, 19
Acide 19
d'eau, 19
Diminution 19
Ven@@ 19
Pays-Bas. 19
peux 19
délégation 19
........@@ 19
combinés 19
kg, 19
AU 19
morce@@ 19
l'immunisation 19
valosine 19
dil@@ 19
Prom@@ 19
dysphonie, 19
sommeil 19
manif@@ 19
GE 19
Novo 19
C/@@ 19
nourr@@ 19
FE@@ 19
agres@@ 19
fongi@@ 19
rapide, 19
soleil, 19
basse 19
bactérienne, 19
herpes 19
ruption 19
aque 19
thiazidiques 19
transparente 19
prophylactique 19
infectées 19
ovarienne 19
ote@@ 19
EMEND 19
aggraver 19
l'économie 19
l'équipe 19
française 19
d'administration, 19
matique 19
cela@@ 19
accidentelle, 19
d'effectuer 19
l'aiguille. 19
l'épo@@ 19
acét@@ 19
molécules 19
NovoSeven 19
qualifié 19
Mét@@ 19
développe 19
estation 19
d'an@@ 19
circonstances. 19
VANT 19
(E 19
Gard@@ 19
interrom@@ 19
glycoprotéine 19
suicides 19
veris 19
sécuris@@ 19
monoclon@@ 19
lot@@ 19
(0,2% 19
Jos@@ 19
Madrid 19
l'extérieur 19
Yttriga 19
Fix@@ 19
029 19
43 19
426/ 19
01@@ 19
Medi@@ 19
viation 19
vêtements 19
fantaisie}@@ 19
thrombocytopénie 19
oxyd@@ 19
Chaque 19
monohydraté, 19
acry@@ 19
pergill@@ 19
e} 19
inspir@@ 19
othérapie. 19
avenue 19
Vall@@ 19
PG@@ 19
existe@@ 19
jusqu'@@ 19
ercice 19
l'ampoule 19
Actraphane 19
accords 19
sentiment 19
Rh@@ 19
territ@@ 19
Gall@@ 19
l'inscription 19
Go@@ 19
08 19
Puh/ 19
Finland@@ 19
tus 19
naî@@ 19
coxib. 19
réuni 19
attaques 19
OC@@ 19
Ram@@ 19
Antigènes 19
Hypo@@ 19
gues, 19
envers 19
AUC 19
mesurés 19
transformation 19
énergie, 19
aupar@@ 19
financières 19
correspon@@ 19
recommander 19
indispensable 19
d'adapter 19
précon@@ 19
nourriture, 19
résoudre 19
convainc@@ 19
théori@@ 19
protéase 19
envelop@@ 19
protège 19
mandat 19
substitu@@ 19
ermine 19
gê@@ 19
ophob@@ 19
thèse 19
ctu@@ 19
AUTRES 19
écriv@@ 19
l'année. 19
allemand 19
barre 19
faciliter 19
cicatr@@ 19
fabriquer 19
registre 19
suggère 19
Clopidogrel 19
cibl@@ 19
probénécide 19
équivalentes 19
longueur 19
engagement 19
nal@@ 19
écrit 19
signaux 19
impose 19
excepté 19
défectu@@ 19
octroi 19
prouvé 19
séance 19
l'hypoglycémie 19
marche 19
scrupuleusement 19
tribunal 19
existantes 19
propri@@ 19
Rob@@ 19
consommateurs, 19
encl@@ 19
jur@@ 19
Ros@@ 19
remboursement 19
thérap@@ 19
débou@@ 19
garantissant 19
sés, 19
sex@@ 19
(pourcentage 19
fixées 19
ethni@@ 19
ématique 19
Qui@@ 19
cinquième 19
bis@@ 19
dépendance 19
pe. 19
traduit 19
précise 19
combattre 19
-ci. 19
endrez 19
bus 19
MARCHÉ 19
aj@@ 19
Publi@@ 19
congélateur 19
Peut 19
numéro 19
ANO@@ 19
entend 19
Ara@@ 19
aine. 19
Sandwich 19
9NJ 19
Hampshire 19
dois-je 19
VETER@@ 19
phyt@@ 19
is? 19
l'industri@@ 19
amend@@ 19
Répon@@ 19
éliminer 19
apparaissent, 19
es", 19
Question 19
n’êtes 19
voudr@@ 19
zlo@@ 19
Suc@@ 19
intolér@@ 19
exception 19
désir@@ 19
verrez 19
pun@@ 19
marchandis@@ 19
déplor@@ 19
budgét@@ 19
israéli@@ 19
mais@@ 19
grand-@@ 19
préci@@ 19
soup@@ 19
vod@@ 19
massac@@ 19
provenance 19
mondial 19
emball@@ 19
équipements 19
Tchétch@@ 19
c' 19
impressionn@@ 19
navig@@ 19
définir 19
onni@@ 19
inond@@ 19
payer 19
èges 19
annul@@ 19
décl@@ 19
indemn@@ 19
filles 19
jeunes, 19
signat@@ 19
élément@@ 19
label 19
coûte 19
alloc@@ 19
VIH/@@ 19
article @@ 19
demn@@ 19
politique, 19
d'euros 19
frontières 19
ONG 19
dire, 19
sport 19
jeux 19
combusti@@ 19
chasse 19
peut-on 19
el? 19
militaire 19
investissement 19
milit@@ 19
mili@@ 19
souci@@ 19
faisait 19
livres 19
automobile 19
sanctions 19
laissé 19
question, 19
OCM 19
L'ordre 19
que! 19
guer@@ 19
oublions 19
pensez-vous 19
ce? 19
ir? 19
Pense@@ 19
(A5-03@@ 19
(A5-02@@ 19
(A4-03@@ 19
(A5-04@@ 19
Résultat: 19
Danmark 18
DK-2@@ 18
WI@@ 18
symptôme 18
VP) 18
majeurs 18
inclusion 18
pivo@@ 18
mg). 18
tumé@@ 18
faction 18
genou@@ 18
observé. 18
ostéopor@@ 18
22% 18
mesuré 18
chromosome 18
alté@@ 18
divisée 18
vir, 18
thr@@ 18
anxiété, 18
affec@@ 18
mém@@ 18
nécr@@ 18
réalisée. 18
lévo@@ 18
intestinale, 18
cytarabine 18
oration 18
minute 18
gure 18
tolérance, 18
IT@@ 18
eurs) 18
modérés 18
décentr@@ 18
ventil@@ 18
ubi@@ 18
normalisation 18
d'infections 18
surdosage, 18
vécu 18
l'end@@ 18
leuco@@ 18
két@@ 18
gêne 18
ale) 18
l'issue 18
d'induction 18
fréquente. 18
mmH@@ 18
visite 18
RES@@ 18
ès@@ 18
profonde 18
oedèmes 18
améliorations 18
CYP1A2, 18
ritonavir, 18
acerb@@ 18
tardi@@ 18
go@@ 18
contracter 18
nitr@@ 18
gène, 18
cisplatine 18
EL 18
J 18
cand@@ 18
III. 18
(le 18
myalgi@@ 18
320 18
d'aggravation 18
Extavi@@ 18
devenue 18
corticoï@@ 18
l'alendron@@ 18
émé@@ 18
pourcent@@ 18
naturelle 18
stimulant 18
ithromy@@ 18
distinc@@ 18
ogr@@ 18
Remicade 18
deux, 18
enregistrée 18
posaconazole 18
tidine 18
hyl 18
cysté@@ 18
émerg@@ 18
aliskir@@ 18
a/ 18
jour). 18
dépendant 18
lodip@@ 18
orales 18
ill 18
d'insuline. 18
obèses 18
(AD@@ 18
d’ex@@ 18
listat 18
SUR@@ 18
absorbé 18
entiss@@ 18
examinés 18
survenir. 18
produit@@ 18
photosensibilité, 18
pseudo-@@ 18
légers 18
France. 18
détach@@ 18
chargée 18
bloc 18
curonium 18
Ery@@ 18
visuelle, 18
allergique, 18
ophobie, 18
l'épilep@@ 18
éma 18
magnési@@ 18
quatrième 18
certificats 18
désignation 18
piration 18
urinaires 18
clam@@ 18
régr@@ 18
VÉTÉR@@ 18
dre, 18
correspondantes 18
constitution 18
ters 18
d'emploi@@ 18
caoutchouc. 18
libé@@ 18
dép@@ 18
elle@@ 18
Farmacêuti@@ 18
Lda 18
indo@@ 18
oleptiques 18
pique 18
sud@@ 18
août 18
poll@@ 18
médicamenteux 18
lactation. 18
leuc@@ 18
hématomes 18
maculaire 18
occa@@ 18
ful@@ 18
omatiques 18
spl@@ 18
oblast@@ 18
o- 18
monothérapie, 18
Des@@ 18
pneumonie 18
YS@@ 18
(13@@ 18
Act@@ 18
sueurs 18
somnolence 18
dissémin@@ 18
transporteur 18
istance 18
vach@@ 18
Fos@@ 18
épistax@@ 18
Zen@@ 18
recommandés, 18
rétinopathies 18
primaire 18
né, 18
Mises 18
Fuzeon 18
tête, 18
l’information 18
notifications 18
côté, 18
définies 18
immunit@@ 18
introduites 18
O-@@ 18
se) 18
confirmés 18
aigus 18
ulcérations 18
instauration 18
Fort 18
laan 18
déterminera 18
d'Insuman 18
Optisulin 18
blé@@ 18
-Str@@ 18
adjuv@@ 18
(patients 18
Dév@@ 18
européens, 18
ogé@@ 18
Evénements 18
TOR 18
corporelle. 18
épidermique 18
constipation, 18
plaies 18
emar@@ 18
Pradaxa 18
Berl@@ 18
l’Uni@@ 18
eons 18
pharmacie 18
opie, 18
(9 18
conférence 18
…@@ 18
Warszawa 18
Sup@@ 18
Marché 18
liquides 18
postopérat@@ 18
gastro-intestinale 18
Wi@@ 18
ogi@@ 18
ef 18
Organ@@ 18
sympathom@@ 18
soupl@@ 18
O, 18
rifampi@@ 18
infection@@ 18
andem@@ 18
éosin@@ 18
UNE 18
opharyng@@ 18
sacs 18
vigil@@ 18
Holdings 18
tee 18
gsk.com 18
vul@@ 18
plaçant 18
pensées 18
sèche 18
spas@@ 18
épuisé, 18
muscle 18
mir@@ 18
confu@@ 18
larm@@ 18
oculaires: 18
l’œil, 18
ée; 18
Cat@@ 18
alizumab 18
(EPAR@@ 18
vej 18
Post@@ 18
(PLI 18
........................@@ 18
1995 18
inique 18
cataly@@ 18
pré-remplie 18
EMADINE 18
d'administr@@ 18
allem@@ 18
Jan@@ 18
ouvert. 18
une, 18
médic@@ 18
instau@@ 18
tée. 18
quart 18
l'hôpit@@ 18
Pan@@ 18
adapter 18
d'installation 18
périodique 18
guère 18
ene. 18
l'Annexe 18
UB@@ 18
otype 18
zonisamide 18
er: 18
lunettes 18
ques; 18
maintenance 18
AND@@ 18
nutri@@ 18
méthod@@ 18
dialy@@ 18
d'appliquer 18
constituti@@ 18
MT@@ 18
posé 18
d'amélioration 18
intervenant 18
d'épargne 18
voici 18
ectine 18
spéciale 18
éthan@@ 18
ab 18
papul@@ 18
rémittente-récurr@@ 18
Diskus 18
FA@@ 18
indépendamment 18
écras@@ 18
mus 18
Parkinson 18
l'ent@@ 18
indépendants 18
031 18
pés 18
orodispersibles 18
366/ 18
59 18
425/ 18
08/ 18
484/ 18
récentes 18
Rati@@ 18
opération. 18
exagé@@ 18
éventuels 18
suivantes. 18
d'acides 18
dine, 18
40, 18
réfract@@ 18
ution, 18
SUBSTANCE 18
TIN 18
da. 18
nau@@ 18
Ath@@ 18
(Prot@@ 18
Filgrastim 18
lem@@ 18
dat@@ 18
enceintes. 18
pli 18
dées. 18
demeure 18
l'AMM 18
ventions 18
ā 18
ophilie 18
°C. 18
ples 18
extérieur. 18
noir 18
jaune, 18
CB@@ 18
perf@@ 18
imit@@ 18
km 18
l'érythropoïèse 18
d'impact 18
sulfamides 18
SOL@@ 18
Pet@@ 18
tél@@ 18
ann 18
utin@@ 18
inactivé 18
HEXAVAC 18
opaque. 18
oriz@@ 18
Maladie 18
denti@@ 18
mand@@ 18
IB 18
division 18
aujourd'hu@@ 18
catégori@@ 18
ues, 18
causées 18
thyroïdiennes 18
euti@@ 18
conducteurs 18
bras. 18
apparu 18
atu@@ 18
conséquence. 18
différents. 18
d'ad@@ 18
REYATAZ 18
CIA@@ 18
d'immunodéficience 18
Rot@@ 18
claire 18
soul@@ 18
tiriz@@ 18
différemment 18
commencent 18
partenaires 18
monter 18
poules 18
ynam@@ 18
lents 18
d'habitude 18
sérotoninergique, 18
rase 18
L'ELIMINATION 18
hémorragique 18
l'hist@@ 18
communes 18
l’eau 18
Viraferon, 18
r.@@ 18
loratadine 18
quasi@@ 18
darbepoetin 18
fran@@ 18
Nobivac 18
L'activité 18
émise 18
médication 18
pesant 18
leucose 18
passent 18
fixée 18
composée 18
absol@@ 18
oxone 18
ac. 18
abolis@@ 18
croissance, 18
étis@@ 18
numér@@ 18
pratiquée 18
élevage 18
êt 18
session 18
supporter 18
l'adoption 18
Ranexa 18
varier 18
alfa@@ 18
l’ensemble 18
important. 18
retourn@@ 18
muné@@ 18
réponse. 18
engagements 18
erte 18
basées 18
social 18
compétence 18
éducation 18
lénalidomide 18
riers 18
stituti@@ 18
dé, 18
sensiblement 18
énorme 18
enveloppe 18
pressions 18
divers@@ 18
Synag@@ 18
co-rapporteur 18
Sec@@ 18
assum@@ 18
secondes, 18
vaste 18
tout-@@ 18
bien. 18
glycosi@@ 18
financière 18
lourd@@ 18
éloign@@ 18
vite 18
l'Irlande 18
prouve 18
prévisions 18
Tevagrastim 18
l'avenir 18
relève 18
Lin@@ 18
ple@@ 18
identiques, 18
mètre 18
références 18
Mag@@ 18
cles 18
plong@@ 18
épais@@ 18
introduction 18
situé 18
Orale 18
Sw@@ 18
sujet, 18
Placer 18
composition 18
emploi@@ 18
l’autre 18
Précautions 18
ordonnance 18
TAN 18
terres 18
Slovenija 18
identifiées, 18
Soixante-@@ 18
Nat@@ 18
2010 18
minu@@ 18
directive. 18
annex@@ 18
Vu 18
décharge 18
compagnies 18
réfugiés 18
alarm@@ 18
prétex@@ 18
plafond 18
catastrophe 18
considération. 18
banques 18
venez 18
contraign@@ 18
élections 18
chass@@ 18
tortu@@ 18
biens 18
salaire 18
lacunes 18
épou@@ 18
usines 18
?u@@ 18
automobil@@ 18
allég@@ 18
empê@@ 18
indépendance 18
montagn@@ 18
États-Unis, 18
retomb@@ 18
Afrique 18
terrorisme 18
dialo@@ 18
importations 18
bateaux 18
discrimination 18
ance? 18
rum@@ 18
Améric@@ 18
crée 18
disant 18
euros@@ 18
cesse 18
coordonn@@ 18
défens@@ 18
L'exemple 18
néerland@@ 18
meill@@ 18
prison, 18
voudrais 18
hypocris@@ 18
dissimul@@ 18
sens. 18
erc@@ 18
certitude 18
vict@@ 18
doné@@ 18
L'interdiction 18
faut@@ 18
îles 18
l'autre. 18
secret@@ 18
effac@@ 18
lieu, 18
remarque 18
famill@@ 18
étiez 18
sovi@@ 18
 -, 18
devrait-elle 18
l'exemple 18
croit 18
emprisonn@@ 18
avons-nous 18
kilom@@ 18
voulons 18
Merc@@ 18
ons? 18
brevet 18
6/98) 18
conque 18
Ont-@@ 18
elles? 18
Personn@@ 18
Savez-vous 18
Qu'a 18
/00) 18
2/2001) 18
Vient 18
Voyez 18
ps 17
94 17
moxi@@ 17
robin@@ 17
antipsychoti@@ 17
bA1c 17
contribué 17
l’effet 17
articulation 17
arrêts 17
l'obtention 17
hypertension, 17
continu 17
neutropéni@@ 17
Ev@@ 17
5'-@@ 17
0,1 17
prématuré@@ 17
l'hom@@ 17
correspondante 17
3,3 17
d'att@@ 17
exie 17
détr@@ 17
max 17
oxaparine 17
omycine 17
intéres@@ 17
comparés 17
otoxicité 17
répartie 17
AX@@ 17
immunoglobulines 17
mée, 17
mémantine 17
envisagé. 17
photéricine 17
fluvastatine 17
libérer 17
ib 17
olimus 17
77@@ 17
ORT@@ 17
risque) 17
l'atteinte 17
hallucin@@ 17
existant 17
progress@@ 17
étro@@ 17
ES, 17
ulcér@@ 17
ménopau@@ 17
anti- 17
alfa. 17
tigécycl@@ 17
-2-@@ 17
rasburi@@ 17
CYP2D@@ 17
conjug@@ 17
traités, 17
sérotoninergi@@ 17
kg. 17
atine, 17
coque 17
urinaires, 17
antérieure 17
mois) 17
Interféron 17
élu@@ 17
musculaire, 17
oreill@@ 17
pulmonaires, 17
iton@@ 17
Ci@@ 17
aire), 17
anthracycl@@ 17
comparant 17
pèsvirus 17
OSSE@@ 17
EMEN@@ 17
104 17
mère, 17
sper@@ 17
aire). 17
Protop@@ 17
clar@@ 17
touchant 17
Tél@@ 17
Levemir 17
simultan@@ 17
modéré 17
graisse 17
antihypertenseur 17
dose-@@ 17
individuels 17
MIRAPEXIN 17
écrasé 17
intrac@@ 17
D’@@ 17
ceftriax@@ 17
actifs. 17
alisés 17
Date 17
________________@@ 17
2001. 17
épaiss@@ 17
critiques 17
Kap@@ 17
mic@@ 17
1995, 17
multination@@ 17
y-@@ 17
1990 17
impliqué 17
02 17
imm@@ 17
(jusqu'à 17
volu@@ 17
FIN@@ 17
net 17
rose 17
escence 17
kér@@ 17
dal@@ 17
sanguin@@ 17
LMR 17
traits 17
nés. 17
Demand@@ 17
éru@@ 17
lun@@ 17
MAO 17
préal@@ 17
rib@@ 17
aem@@ 17
D'ADMINISTRATION 17
d'experts 17
tise 17
disoprox@@ 17
précipit@@ 17
ISR@@ 17
aériennes 17
benzalkoni@@ 17
n'inhibe 17
convenablement 17
cirrh@@ 17
hautes 17
spécifications 17
cale. 17
rachi@@ 17
méningite 17
émotionn@@ 17
Produtos 17
pancyt@@ 17
infiltrats 17
pulmonaires 17
inage 17
pigmentation 17
envisagées 17
dure 17
rongeurs 17
biotechnologie 17
muscul@@ 17
glitazone. 17
Ty@@ 17
employés 17
applicable 17
d'après 17
heure. 17
temporaire 17
irréguli@@ 17
jaun@@ 17
rie, 17
rob@@ 17
étay@@ 17
lique, 17
sitagliptine 17
contribution 17
ine-@@ 17
fibrill@@ 17
l'hypertension. 17
gin@@ 17
Dés@@ 17
intravas@@ 17
INC@@ 17
Agenc@@ 17
org 17
régular@@ 17
conservateur 17
rénales 17
fén@@ 17
prélè@@ 17
prénavir 17
transmises 17
avérés 17
gest@@ 17
ab. 17
assurance 17
dons 17
périphérique, 17
confidenti@@ 17
Croh@@ 17
oeuvre 17
itude 17
ermin@@ 17
ORENCIA 17
azole. 17
botu@@ 17
Ltd. 17
Fax@@ 17
Deux 17
wit@@ 17
xén@@ 17
R. 17
externe 17
sociales 17
VI 17
dip@@ 17
oth@@ 17
pep@@ 17
odilat@@ 17
hydrate) 17
accélération 17
hépatiques. 17
l'indi@@ 17
distinction 17
chirurgien 17
Royaume-Uni@@ 17
Stras@@ 17
affectent 17
Gener@@ 17
oct@@ 17
Tech@@ 17
2005 17
étate 17
virémie 17
technéti@@ 17
environ. 17
dix-@@ 17
ene@@ 17
kilogramme 17
isson 17
que/ 17
collyre 17
mg/ml 17
eil@@ 17
transféré 17
pand@@ 17
utilisation: 17
kiné@@ 17
coli 17
doubl@@ 17
l'ajustement 17
Recommandation 17
6676 17
+370 17
SARL, 17
isom@@ 17
anormale, 17
intér@@ 17
ation), 17
flot@@ 17
rup@@ 17
fati@@ 17
ôts 17
tén@@ 17
d'inhibiteurs 17
risques, 17
ques), 17
fiel@@ 17
ologue 17
rigu@@ 17
permanence 17
reau 17
pule 17
omètre 17
idation 17
établissement 17
79@@ 17
l'éducation 17
l’environnement. 17
outil 17
celle-@@ 17
glimépiri@@ 17
aisser 17
actives, 17
sous-cutan@@ 17
rinc@@ 17
CRIXIV@@ 17
eusement. 17
chercher 17
suivant. 17
veine. 17
retin 17
quinol@@ 17
vention. 17
poches 17
pancréati@@ 17
sion: 17
sive 17
transformé 17
Véri@@ 17
l'adolescent. 17
correspondent 17
compatibles 17
déconseillé 17
AG 17
l'imatini@@ 17
ition 17
alfa-2@@ 17
malign@@ 17
immunitaires 17
tér@@ 17
vertu 17
pylor@@ 17
-à-@@ 17
globulaire 17
ó 17
ise, 17
l'apport 17
ile 17
acap@@ 17
métastati@@ 17
030 17
032 17
033 17
137/ 17
SER@@ 17
exposer 17
sures 17
tionner 17
nuire 17
Examin@@ 17
ut 17
glut@@ 17
sorbitol 17
étam@@ 17
silicon@@ 17
AA@@ 17
-P@@ 17
ACTIVE 17
ACTI@@ 17
vä@@ 17
Tre@@ 17
den 17
suspension, 17
ci-dessous: 17
renversez 17
88@@ 17
ock@@ 17
Fon@@ 17
EP 17
anglais 17
pin@@ 17
 17
caractérisée 17
Litu@@ 17
Land@@ 17
labyrinth@@ 17
occlusion 17
Sinus@@ 17
acou@@ 17
ches, 17
gél@@ 17
Lan@@ 17
aver@@ 17
positives 17
Allemagne. 17
èlent 17
diamètre 17
BER@@ 17
travers@@ 17
JAMAIS 17
G, 17
prescript@@ 17
ménor@@ 17
mamm@@ 17
omégalie 17
Phili@@ 17
généri@@ 17
intenses 17
lévétiracétam 17
brax@@ 17
objective 17
justifier 17
publics 17
technologique 17
ADN 17
venant 17
pseudoéphédrine 17
individuel 17
positifs 17
Xeom@@ 17
faussement 17
EST 17
légu@@ 17
d'accident 17
VEG@@ 17
l'alcool@@ 17
Infanrix 17
sérum 17
l'eau, 17
Lituanie, 17
Pays 17
agi 17
ennent. 17
correctement. 17
vérifiera 17
207 17
espace 17
Tum@@ 17
se: 17
SS@@ 17
contenues 17
Pugh 17
compen@@ 17
Pen. 17
pre 17
ments. 17
Cette 17
Ultratard 17
Stockholm 17
Mark@@ 17
qu’à 17
tchè@@ 17
ž@@ 17
éléph@@ 17
isi@@ 17
homme. 17
enda 17
anesthési@@ 17
Qu'il 17
[N 17
écl@@ 17
opérationn@@ 17
réchauff@@ 17
cohérence 17
arrête 17
réussite 17
conjo@@ 17
alisation. 17
cigarettes 17
aliments, 17
coups 17
témoign@@ 17
pyra@@ 17
umab 17
bureaux 17
retir@@ 17
annuelle 17
mettent 17
encour@@ 17
procédure. 17
l'harmon@@ 17
régulateur 17
gab@@ 17
20-@@ 17
substitutions 17
terres@@ 17
illustr@@ 17
inhibit@@ 17
institution 17
Kir@@ 17
instrument 17
salle 17
US 17
Zyr@@ 17
poulets 17
air. 17
195@@ 17
mètr@@ 17
NutropinAq 17
avantag@@ 17
tê@@ 17
("@@ 17
budgétaire 17
tom@@ 17
spect@@ 17
plomb 17
lisi@@ 17
nucléaires 17
ses, 17
ument 17
Chy@@ 17
livr@@ 17
ressembl@@ 17
visit@@ 17
sam@@ 17
campagnes 17
poussi@@ 17
oivent 17
entreten@@ 17
précédent 17
aussi, 17
exigent 17
blanc-cassé 17
d'Utilisation 17
contourn@@ 17
compensation 17
soumettre 17
hémoglobine 17
achat 17
choi@@ 17
éclat@@ 17
revê@@ 17
Ori@@ 17
tron@@ 17
Cas@@ 17
sément 17
applique 17
aîtr@@ 17
révèle 17
terminé, 17
comptabil@@ 17
apparemment 17
Tél/ 17
Mainten@@ 17
Maj@@ 17
réel 17
congélation. 17
-même 17
ands 17
règlement@@ 17
ca, 17
eaux. 17
nocifs 17
l'Europe. 17
répondu@@ 17
l'avez 17
naï@@ 17
sses 17
versi@@ 17
paix 17
Commis@@ 17
regar@@ 17
Prac-tic 17
pauvres 17
Puis, 17
eni@@ 17
Questions 17
S'assurer 17
pti@@ 17
psychiatrique 17
trouver@@ 17
sit 17
tés, 17
concert@@ 17
ley 17
Souven@@ 17
eilles 17
équiv@@ 17
die 17
Var@@ 17
appris 17
extraordin@@ 17
l'écar@@ 17
effondr@@ 17
d'élevage 17
directive, 17
taxes 17
communications 17
avoc@@ 17
décri@@ 17
e», 17
constitutionn@@ 17
perç@@ 17
lois 17
tier@@ 17
production, 17
dérogations 17
connaissances 17
tribun@@ 17
mensong@@ 17
Somm@@ 17
ici, 17
garanties 17
osexu@@ 17
ainsi@@ 17
européen@@ 17
seign@@ 17
empreintes 17
dit. 17
victi@@ 17
célè@@ 17
clav@@ 17
notion 17
navire 17
urb@@ 17
salu@@ 17
tuées 17
allégations 17
é! 17
plaintes 17
êts 17
peines 17
prouver 17
agricole 17
t! 17
vot@@ 17
trente 17
regr@@ 17
bâ@@ 17
Pakist@@ 17
touchées 17
anda 17
mérite 17
l'espérance 17
L'industrie 17
croire 17
l'est 17
bill@@ 17
eusement, 17
nifi@@ 17
pacifi@@ 17
amendement@@ 17
places 17
enquê@@ 17
plaît, 17
ez-vous, 17
munici@@ 17
hon@@ 17
connaissons 17
Nu@@ 17
alor@@ 17
aviez 17
ez-vous? 17
Puis-je 17
(H-04@@ 17
Telle 17
ø@@ 16
enh@@ 16
Combivir 16
réduite. 16
CONST@@ 16
rénaline 16
c) 16
explic@@ 16
circonstances, 16
demandera 16
élevée, 16
incluses 16
d'utilisation. 16
0,8 16
ci-des@@ 16
répartis 16
Philadelphie 16
désigné 16
hésitez 16
dysphag@@ 16
malnutrition 16
mortal@@ 16
situation, 16
H/ 16
névr@@ 16
ischémie 16
cheveux, 16
(SN@@ 16
métast@@ 16
occul@@ 16
H) 16
sus, 16
din 16
trex@@ 16
allongement 16
sec 16
ots 16
alopéci@@ 16
Fend@@ 16
44% 16
dermatite 16
accompagne 16
visuel 16
stati@@ 16
articulaires 16
07 16
courbe 16
diminuent 16
symptô@@ 16
rhumatoïde, 16
plus) 16
apl@@ 16
semaines) 16
estin 16
croît 16
fibres 16
constatée 16
approfondie 16
molé@@ 16
desc@@ 16
ême 16
cerveau, 16
ome, 16
dermat@@ 16
filtration 16
LS@@ 16
5), 16
timolol 16
d'acuité 16
gyné@@ 16
minime 16
possiblement 16
concerné 16
12,@@ 16
alim@@ 16
amélioré 16
olanzapine 16
phénylbutyrate 16
détectable 16
observées. 16
apture 16
és; 16
commenc@@ 16
mesurées 16
dipivox@@ 16
gemfibrozil 16
intolérants 16
habituels 16
ankylosante 16
17, 16
l'her@@ 16
obtention 16
ovul@@ 16
hématologiques 16
imagerie 16
GANFORT 16
oraux, 16
UC 16
prasugrel 16
enneté 16
(score 16
modifie 16
carbox@@ 16
intranas@@ 16
184@@ 16
gabapentine 16
jeûne 16
calories 16
Enbrel@@ 16
Rasil@@ 16
nilotinib 16
longu@@ 16
sartan@@ 16
défér@@ 16
18,@@ 16
pramipexole 16
attendue 16
R, 16
hydrolyse 16
yl-@@ 16
ety 16
sérotoninergique 16
Dar@@ 16
l'Organisation 16
AUTORIS@@ 16
antagonistes 16
poils 16
malaise 16
évaluation. 16
Santé 16
Cour@@ 16
requise 16
MI 16
ÉS 16
l'enregistrement 16
vement, 16
73@@ 16
Autriche 16
passage, 16
supplémentation 16
Avis 16
orphelins 16
infirmière. 16
tub@@ 16
ajuster 16
d'action. 16
odermie 16
l'EMEA@@ 16
(intervalle 16
ribos@@ 16
ESS@@ 16
'-@@ 16
adol@@ 16
liné@@ 16
lithium 16
chapitre 16
régulation 16
buccale 16
25°@@ 16
(HD@@ 16
glucag@@ 16
paragraphes 16
notice. 16
ricin 16
ant) 16
teri@@ 16
déposée 16
2: 16
Ris@@ 16
dien 16
peut, 16
instabilité 16
2002, 16
auto-immun@@ 16
HMG-CoA 16
(dont 16
foli@@ 16
trophie 16
pét@@ 16
poussière 16
délé@@ 16
encéphalopathie 16
TEV@@ 16
purpura 16
épileptiques 16
pio@@ 16
Aran@@ 16
sensibil@@ 16
omég@@ 16
traduction 16
entrain@@ 16
déliv@@ 16
(ou 16
artérielle, 16
siff@@ 16
nausée, 16
phospho@@ 16
kinase 16
évaluant 16
dru@@ 16
métabolisés 16
infectieux 16
cardiaque, 16
expériences 16
prénorphine 16
alfa-2b, 16
nt 16
Intron@@ 16
European 16
VAN@@ 16
)) 16
élimination 16
queu@@ 16
idiopath@@ 16
orphelin 16
microsphères 16
l’UE@@ 16
dégénér@@ 16
médull@@ 16
rapproch@@ 16
1997. 16
prise, 16
pagn@@ 16
plani@@ 16
auc@@ 16
rage, 16
l'initiation 16
syndr@@ 16
olim@@ 16
constante 16
aboutiss@@ 16
Dodge 16
Immuno@@ 16
aprépit@@ 16
acidose 16
lèvres 16
fructose, 16
chim@@ 16
floue, 16
ease 16
wh@@ 16
styl@@ 16
midité 16
cale, 16
d'aut@@ 16
exiger 16
Lim@@ 16
Estate 16
Docétaxel 16
(U@@ 16
ologies 16
catalo@@ 16
ew@@ 16
10-@@ 16
l’Autorisation 16
COMM@@ 16
SION 16
otide 16
diffuseur 16
eta@@ 16
Tou@@ 16
duodén@@ 16
ations) 16
sanguine) 16
Chi@@ 16
Laborat@@ 16
Rome 16
qual@@ 16
Neulasta 16
DuoTrav 16
Trav@@ 16
réfrigérateur 16
incorpor@@ 16
flac@@ 16
sexuel 16
rhinorrhée, 16
ère-@@ 16
º@@ 16
pH@@ 16
+37@@ 16
Ban@@ 16
atan 16
Eff@@ 16
agiss@@ 16
aux: 16
Au 16
mains, 16
envie 16
issement, 16
paupière, 16
Vomiss@@ 16
OLOGI@@ 16
(pouvant 16
phases 16
ception 16
pousse 16
FORSTE@@ 16
L'acide 16
Hongrie 16
individuellement 16
bro@@ 16
Élimination 16
sous-cutané. 16
transdermique. 16
réglementations 16
circu@@ 16
 16
graf@@ 16
contrefaç@@ 16
intégré 16
emballages 16
saquin@@ 16
substrats 16
liaisons 16
Produits 16
connu, 16
ovi@@ 16
éman@@ 16
scell@@ 16
b) 16
Evaluation 16
1996, 16
1998, 16
incrétin@@ 16
telmis@@ 16
sévèrement 16
explor@@ 16
Gliolan 16
zal@@ 16
Silapo 16
réac@@ 16
défaut 16
métabolique 16
enfant. 16
tiers, 16
respecté 16
prévu. 16
EX 16
allaitement. 16
GAR@@ 16
d'utilisation, 16
Cast@@ 16
E-@@ 16
PegIntr@@ 16
ième 16
stabilis@@ 16
ke 16
actuels 16
l'exploit@@ 16
cellulaires 16
tives, 16
YMD@@ 16
nouveau-né. 16
Facteur 16
pleine 16
cheval 16
antibio@@ 16
Pla@@ 16
lob@@ 16
applicateur 16
+351 16
Km 16
Etant 16
ase-@@ 16
034 16
AIGUILLES 16
ampou@@ 16
5/@@ 16
108 16
EU/1/08/46@@ 16
EU/1/08/465@@ 16
EU/1/98/069@@ 16
EU/1/98/070@@ 16
98/ 16
Ast@@ 16
hanche. 16
bénéfice-@@ 16
à-@@ 16
soj@@ 16
ingrédi@@ 16
Martin 16
Insuline 16
PRINCIPE(S) 16
ACTIF(S) 16
Lane 16
Sign@@ 16
indicateur 16
shire 16
800@@ 16
sécur@@ 16
féline, 16
ons@@ 16
prérempl@@ 16
enlev@@ 16
seringue-doseuse 16
eux-mêmes 16
tec 16
ana@@ 16
fongiques 16
l’or@@ 16
initialement 16
mos@@ 16
-8@@ 16
porteurs 16
AR 16
l'initiative 16
mentions 16
possédant 16
Solution 16
cerve@@ 16
greffe 16
accélérée 16
Fre@@ 16
ensuite, 16
souhaitent 16
Cardoreg 16
d'allaiter. 16
VISTIDE 16
célé@@ 16
d'alerte 16
Stre@@ 16
historique 16
érez 16
mann 16
amor@@ 16
(maladie 16
anal@@ 16
pathogènes 16
Hydrochlorothiazide 16
structu@@ 16
belge 16
occupe 16
cine. 16
mine, 16
neurodégénér@@ 16
consid@@ 16
continuer@@ 16
visibles. 16
résum@@ 16
correctement, 16
réforme 16
farine 16
posologique. 16
diluée 16
vraisembl@@ 16
liens 16
extern@@ 16
fluence 16
sein. 16
érieur 16
n’existe 16
systémati@@ 16
follitropine 16
lait, 16
nomm@@ 16
bénéficient 16
oise 16
donneur 16
transmettre 16
AX 16
pois@@ 16
Escherichia 16
prothèse 16
Pati@@ 16
Neuro@@ 16
erius 16
IC@@ 16
cros@@ 16
vel@@ 16
tions@@ 16
ave 16
CELSENTRI 16
après-@@ 16
Observ@@ 16
Wor@@ 16
uz@@ 16
sis 16
l’ap@@ 16
cycli@@ 16
ent) 16
-20@@ 16
systémique). 16
Wal@@ 16
sse 16
fort@@ 16
glom@@ 16
développée 16
étudiée. 16
déclench@@ 16
iques. 16
idité 16
majeur 16
somme 16
Normal@@ 16
Protaphane 16
européens. 16
d'éliminer 16
Norvir 16
tô@@ 16
orig@@ 16
l'abri 16
fan@@ 16
usuelle 16
permette 16
infantile 16
ustekin@@ 16
enfer@@ 16
achè@@ 16
infl@@ 16
endogèn@@ 16
chr@@ 16
rentr@@ 16
tives. 16
présentée 16
véri@@ 16
Tabl@@ 16
(CEE) 16
transi@@ 16
quotidien 16
rétablissement 16
confusion 16
soulevé 16
orientation 16
problèmes, 16
cyanure 16
minuti@@ 16
Far@@ 16
muqueuse 16
ī@@ 16
Latvij@@ 16
essionn@@ 16
nés, 16
duré 16
ing. 16
Shire 16
sortir 16
ses. 16
participer 16
Ukra@@ 16
corps) 16
d'hom@@ 16
ancien 16
conteneurs 16
volati@@ 16
alf@@ 16
démograph@@ 16
malades, 16
enregistre 16
répertoriées 16
modes 16
Memb@@ 16
Meri@@ 16
rév@@ 16
installation 16
réserves 16
ension 16
appliquent 16
appliquées 16
1999 16
domaine, 16
appu@@ 16
radic@@ 16
sont, 16
autri@@ 16
fragment@@ 16
POS@@ 16
énergéti@@ 16
ame 16
étendue 16
zone. 16
boiss@@ 16
qu'aucune 16
Vil@@ 16
LISTE 16
dernier. 16
coch@@ 16
d'An@@ 16
bâtiment 16
options 16
AIRES@@ 16
ÉCHÉANT 16
nocif. 16
effondrement 16
MODE 16
consen@@ 16
économies 16
d'autre, 16
mélangez 16
éveill@@ 16
N'oubliez 16
analyser 16
lent 16
Tot@@ 16
longues 16
151 16
CT13 16
-02@@ 16
Espoo@@ 16
Esbo 16
avenir 16
nationale. 16
Protection 16
HUMALOG 16
utilisé, 16
démarch@@ 16
duire 16
rez-vous 16
Seu@@ 16
Seules 16
nap@@ 16
stes 16
dévelop@@ 16
espa@@ 16
intitul@@ 16
disposez 16
l’a 16
entendre 16
vous-même 16
evoir 16
cursale 16
inacceptable. 16
avr@@ 16
méditerrané@@ 16
stric@@ 16
conflit 16
infanti@@ 16
agus 16
sent@@ 16
consent@@ 16
producteur 16
embryon 16
l'oblig@@ 16
quill@@ 16
varient 16
centaines 16
spiritu@@ 16
Euros@@ 16
désastr@@ 16
rifi@@ 16
d'accu@@ 16
ceint@@ 16
publiques 16
taxe 16
violences 16
portation 16
stock 16
Tan@@ 16
cadmi@@ 16
trafi@@ 16
savent 16
décourag@@ 16
recul@@ 16
ente-@@ 16
esprit 16
lead@@ 16
clô@@ 16
print@@ 16
barbar@@ 16
arrivent 16
chose. 16
tout. 16
nive@@ 16
ailleurs. 16
certes 16
agne 16
d'aide 16
caf@@ 16
fille 16
recettes 16
profit 16
bran@@ 16
céré@@ 16
importation 16
scandal@@ 16
Balk@@ 16
nest@@ 16
motocy@@ 16
soigner 16
écos@@ 16
C'est 16
cac@@ 16
acteur 16
Turqui@@ 16
panneaux 16
S'agit-il 16
insignifi@@ 16
tonnes, 16
dévas@@ 16
ESB 16
prix. 16
vor@@ 16
alisme, 16
L'heure 16
quoi, 16
nuisi@@ 16
ak 16
Gaz@@ 16
rai 16
Constitution 16
Premier 16
sanc@@ 16
vous? 16
loy@@ 16
u? 16
là-@@ 16
dernière, 16
navir@@ 16
pêcheurs 16
bh@@ 16
Monsieur @@ 16
mettez 16
Nombr@@ 16
Objet 16
l'instant, 16
Soit 16
DK 15
inscr@@ 15
suffisant 15
qu’au 15
modè@@ 15
56% 15
HER@@ 15
patient-@@ 15
otiques 15
endron@@ 15
cytogéné@@ 15
au-@@ 15
Cyanok@@ 15
engourdissement 15
gastr@@ 15
rétention 15
récept@@ 15
bexarot@@ 15
ed. 15
agressivit@@ 15
irritation, 15
accompagné 15
conduites 15
plasie 15
oïdes 15
adjuvant 15
rougeur, 15
mann@@ 15
seringue. 15
plasmati@@ 15
longtemps. 15
d'atteinte 15
peau). 15
omoteurs 15
INO@@ 15
répondant 15
random@@ 15
pergillose 15
locaux 15
Myozyme 15
iture 15
contraire, 15
maximum, 15
cutanée. 15
opie 15
van@@ 15
ferme 15
propi@@ 15
opro@@ 15
ab, 15
citabine, 15
livre 15
bortézomib 15
rein 15
individus 15
suivant: 15
missions 15
metformine, 15
NeoRec@@ 15
INVEG@@ 15
anxi@@ 15
12, 15
transaminases 15
d'accidents 15
montelukast 15
(moins 15
ocardi@@ 15
réversible 15
individuelles 15
isoenzymes 15
1A@@ 15
Rey@@ 15
HT@@ 15
dopamin@@ 15
adrén@@ 15
chronique, 15
l'essai 15
530 15
me/ 15
pharmacologiques 15
comprises 15
plaques, 15
puissants 15
èse, 15
eczéma, 15
rougeurs 15
TORIS@@ 15
(N 15
BR@@ 15
lopinavir/ 15
efficacité. 15
prédomin@@ 15
injection, 15
FIRMAGON 15
mois). 15
calicivir@@ 15
handicap 15
causant 15
évalué. 15
partielle 15
l’efficacité 15
compare 15
Tarceva. 15
rétr@@ 15
zol@@ 15
pharmacocinéti@@ 15
ASC@@ 15
dée, 15
optimis@@ 15
das@@ 15
(tous 15
Insulat@@ 15
publication 15
nomateuse 15
familiale 15
café 15
er) 15
jugée 15
pandémie 15
EMEA/@@ 15
CHE@@ 15
__ 15
prolonger 15
incluent 15
fiées 15
décoloration 15
nodu@@ 15
CYP3A@@ 15
mélangés 15
alopécie, 15
tachycardi@@ 15
brû@@ 15
confér@@ 15
1986, 15
joindre 15
éné@@ 15
fice 15
Irland@@ 15
directrice 15
secrétaire 15
capuch@@ 15
vessi@@ 15
évolutive 15
IG 15
ose) 15
partenariat 15
neuromusculaire 15
hémoly@@ 15
redi@@ 15
bisphosph@@ 15
s'effectue 15
Parkinson) 15
EMENT 15
95%) 15
olit@@ 15
ale: 15
ophilus 15
avance 15
Contr@@ 15
cum 15
infecté 15
ori 15
soumis: 15
prélevé 15
l'organis@@ 15
altérée, 15
utilisés. 15
masculin. 15
insist@@ 15
interstiti@@ 15
orthostati@@ 15
2008 15
mun@@ 15
prémat@@ 15
sug@@ 15
détectés 15
lovastatine 15
agranulocyt@@ 15
hémarthr@@ 15
abdominales, 15
clér@@ 15
suicide, 15
(se 15
fluoroquinol@@ 15
bureau 15
établis@@ 15
radiothérapie 15
sep@@ 15
mér@@ 15
intracellulaire 15
d'Enbrel 15
entraînent 15
l'animal. 15
4%) 15
neurotoxine 15
l'ambrisentan 15
bile 15
adalafil 15
qu'aucun 15
comparti@@ 15
TRAVATAN 15
existants 15
cyto@@ 15
prendr@@ 15
l'ami@@ 15
fiè@@ 15
choc, 15
omyél@@ 15
pneumonies, 15
fatals, 15
--- 15
INSTRUCTIONS 15
memb@@ 15
kérat@@ 15
opathies 15
Emselex 15
mée. 15
diviser 15
Cel@@ 15
greff@@ 15
contras@@ 15
ma-@@ 15
grasti@@ 15
corré@@ 15
implications 15
reins, 15
vasomo@@ 15
irréversibles 15
l'appétit 15
sev@@ 15
vaccination, 15
angle 15
Κ@@ 15
MBH 15
mulsion 15
,, 15
poitrine 15
ations: 15
méd@@ 15
l'adul@@ 15
europé@@ 15
valpro@@ 15
clob@@ 15
olyse 15
son, 15
hépatiques, 15
sous-cutané 15
Rash 15
paupières 15
abig@@ 15
anémi@@ 15
fication. 15
CM@@ 15
isomalt@@ 15
dyl@@ 15
etan@@ 15
Royal 15
facul@@ 15
ire@@ 15
OptiClik. 15
étiqu@@ 15
oudre 15
appeler 15
philos@@ 15
dam 15
Confér@@ 15
ska 15
estimer 15
spontanées 15
EUTI@@ 15
intestinales 15
musculaires, 15
Organisation 15
BO@@ 15
ories 15
imétiques, 15
ETI@@ 15
piqû@@ 15
ément. 15
l'immun@@ 15
validité 15
Symptômes 15
linéaire 15
............................@@ 15
feuille 15
odique, 15
Polysorbate 15
654 15
Kau@@ 15
merck.com 15
š@@ 15
eux: 15
citation 15
quants 15
aph@@ 15
obstruction 15
Trembl@@ 15
Thromb@@ 15
Cepl@@ 15
auv@@ 15
alpha@@ 15
durable 15
CU@@ 15
LIFY 15
peste 15
01 15
gas@@ 15
labor@@ 15
olysac@@ 15
chari@@ 15
d'aboutir 15
argent, 15
ere 15
Royaume 15
stad@@ 15
L'élimination 15
contribuent 15
)................................@@ 15
FeLV 15
investig@@ 15
lignée 15
NovoLet, 15
l'élabor@@ 15
onor@@ 15
incl@@ 15
industries 15
chose, 15
prodi@@ 15
commercial 15
troduction 15
suspendu@@ 15
hl@@ 15
atiques. 15
chefs 15
prévus 15
secou@@ 15
ton, 15
couverts 15
ez-en 15
d’A@@ 15
dépit 15
élevée. 15
l'étiquette. 15
médicale. 15
ral@@ 15
mm3 15
algam@@ 15
proximité 15
perstimulation 15
FOSAV@@ 15
suspici@@ 15
n'aura 15
oubli 15
comparais@@ 15
Zer@@ 15
vis 15
(HA@@ 15
FANTAISIE} 15
GR@@ 15
DER@@ 15
Reg@@ 15
mainti@@ 15
performance 15
bétail 15
ampleur 15
(glycémi@@ 15
interventions 15
nourrisson, 15
déclen@@ 15
ive 15
gravité 15
intoxication 15
éventuelles 15
rénal@@ 15
los@@ 15
0,2@@ 15
000, 15
Vers@@ 15
ette, 15
fermement 15
Entre 15
productive 15
obact@@ 15
sauvage 15
opénique 15
trophiles 15
Fern@@ 15
estro@@ 15
phénothiaz@@ 15
anciennes 15
que; 15
tiles 15
surveillance. 15
entation 15
QUET@@ 15
teront 15
oirement 15
cateurs 15
UES 15
endommagé. 15
inutile 15
6.1. 15
l'équ@@ 15
⋅ 15
Utilis@@ 15
secondairement 15
ι@@ 15
F-9@@ 15
(0)1 15
600@@ 15
Dublin 15
Pharmaceuti@@ 15
Pot@@ 15
Aldurazyme 15
rouges, 15
général. 15
mez 15
tiquement 15
Notez 15
muni 15
alu) 15
un. 15
affai@@ 15
Procé@@ 15
pouce 15
tres, 15
irrig@@ 15
ly-@@ 15
ex, 15
Eckenheimer 15
Top@@ 15
étendu@@ 15
Bratislava 15
CYSTAG@@ 15
suppl@@ 15
spécifique. 15
PH@@ 15
na@@ 15
scientifiques. 15
permanente 15
barrière 15
essayez 15
nº 15
itation 15
dirigée 15
appauvr@@ 15
e*, 15
Lut@@ 15
l'insuffisant 15
aspar@@ 15
fène 15
ing, 15
atique, 15
nationaux 15
tait 15
éradication 15
d'État 15
antigèn@@ 15
tivement. 15
orie 15
l/ 15
Sau@@ 15
application. 15
ption. 15
restriction 15
consign@@ 15
Vectibi@@ 15
correcte. 15
sens@@ 15
cancéreux 15
intravitréenne 15
emplac@@ 15
coïn@@ 15
prendre. 15
bénéfique 15
perdre 15
occurr@@ 15
l'Est@@ 15
certifi@@ 15
s'en@@ 15
suit 15
indiquera 15
prén@@ 15
abac@@ 15
cidence 15
quin@@ 15
tent. 15
L'EMEA 15
purifi@@ 15
bactériennes 15
péti@@ 15
Vimpat 15
vacciner 15
verse 15
redi 15
Insuffis@@ 15
nimésulide 15
avec@@ 15
Ljubl@@ 15
Slové@@ 15
courrier 15
+39 15
DH@@ 15
septemb@@ 15
adaptées 15
IT 15
d'aberrations 15
catéch@@ 15
52@@ 15
exacte 15
prématurés 15
2004. 15
priorités 15
l'établissement 15
Journ@@ 15
officiel 15
d'équi@@ 15
excéd@@ 15
(0@@ 15
diminués 15
disposent 15
(90Y) 15
Npl@@ 15
kilo@@ 15
englob@@ 15
sexe, 15
bio-@@ 15
meuble 15
superficie 15
endro@@ 15
dépour@@ 15
Tritaz@@ 15
sé 15
connues 15
Tas@@ 15
antimicrobi@@ 15
approfondi@@ 15
Wh@@ 15
strict 15
accessible 15
correct 15
r-@@ 15
refus 15
regard 15
sérotype 15
n'atteint 15
discuté 15
donnés 15
inconvéni@@ 15
l'hypertension 15
divisé 15
spectrom@@ 15
infrar@@ 15
adoptée 15
élu 15
convenu 15
wi@@ 15
diction 15
fumeurs 15
concile 15
ony 15
émati@@ 15
fermer 15
ta@@ 15
nomb@@ 15
onér@@ 15
élar@@ 15
réflexi@@ 15
jets 15
jette 15
citrate 15
roul@@ 15
règ@@ 15
calend@@ 15
difficultés, 15
scénari@@ 15
résu@@ 15
REACH 15
pond@@ 15
OVIS@@ 15
naturels 15
en), 15
toi@@ 15
informés 15
l’oxygèn@@ 15
degrés 15
tées, 15
pilot@@ 15
per. 15
es». 15
mobilité 15
tée, 15
fonctionnent 15
commercialisé 15
répertori@@ 15
vois 15
lactique, 15
poursuit 15
l'Al@@ 15
s'av@@ 15
L’expérience 15
L'expression 15
ret 15
sorption. 15
refuse 15
accepte 15
rer 15
frais@@ 15
Nouvelles 15
surface. 15
l’ar@@ 15
RO(S) 15
Observez-les 15
Oc@@ 15
accompli 15
phtal@@ 15
suivante. 15
énerg@@ 15
Personnes 15
boulev@@ 15
358-@@ 15
retournez 15
ation" 15
tez-@@ 15
inadvertance 15
ras 15
Respect@@ 15
vent, 15
Suomi/ 15
Sach@@ 15
sanitaire 15
parfait 15
date, 15
riez 15
n'aurait 15
péni@@ 15
découv@@ 15
fiants 15
vet@@ 15
l'exercice 15
écution 15
l'ont 15
admissi@@ 15
plaignant 15
vid@@ 15
Toxicité 15
Troisième 15
domes@@ 15
Tηλ.: 15
rivi@@ 15
pauv@@ 15
assisté 15
obarom@@ 15
faill@@ 15
céréales 15
exemple. 15
rel 15
pouvoirs 15
listes 15
partout 15
siècle 15
distan@@ 15
modern@@ 15
Kosov@@ 15
autorise 15
incontest@@ 15
natalité 15
étouff@@ 15
tue 15
dangereux. 15
tombent 15
horr@@ 15
là@@ 15
sanctionn@@ 15
carburant 15
vécu@@ 15
routes 15
avan@@ 15
Médit@@ 15
territori@@ 15
l'au@@ 15
l'époque 15
aient. 15
obstacles 15
hausse. 15
mène 15
protectionn@@ 15
place, 15
polic@@ 15
parfait@@ 15
l'enseignement 15
quoi@@ 15
es @@ 15
finan@@ 15
écrite@@ 15
pétroli@@ 15
confis@@ 15
quitter 15
dies@@ 15
stig@@ 15
polluants 15
piles 15
préoccupati@@ 15
auteurs 15
roy@@ 15
cinqu@@ 15
access@@ 15
cuis@@ 15
voilà 15
vign@@ 15
lois@@ 15
igence 15
revenu 15
pensons 15
participants 15
mirac@@ 15
alisation, 15
conducteur 15
infraction 15
invo@@ 15
L'Italie 15
filets 15
obstacle 15
L'on 15
Cela 15
grec@@ 15
excus@@ 15
condamné 15
cartes 15
irré@@ 15
habitant 15
peut-elle 15
aide. 15
abus@@ 15
me! 15
l'Assembl@@ 15
découverte 15
ait-@@ 15
Barros@@ 15
hait@@ 15
transmissi@@ 15
Gh@@ 15
Eor@@ 15
souverain@@ 15
eux? 15
souligner 15
décr@@ 15
Tam@@ 15
chance 15
Qu'attend@@ 15
Qu'entend@@ 15
(A4-016@@ 15
gem@@ 14
udine, 14
(EMEA@@ 14
arthrite 14
significatifs 14
tinib 14
égal 14
mesu@@ 14
ulcération 14
uvir@@ 14
ides 14
τ@@ 14
plan-@@ 14
prolongé 14
rufin@@ 14
néphr@@ 14
ofo@@ 14
abolisme 14
pegaptan@@ 14
transférases 14
osseuse, 14
ormon 14
umab@@ 14
consti@@ 14
élévations 14
ventri@@ 14
antagon@@ 14
(n@@ 14
préexistants 14
olipo@@ 14
pivot 14
stables 14
virus, 14
suites 14
rechu@@ 14
Betafer@@ 14
rétine 14
tipran@@ 14
osin@@ 14
transition 14
retrouvée 14
sif 14
vira@@ 14
exag@@ 14
ya@@ 14
semblable 14
néfas@@ 14
rim@@ 14
entan 14
polypose 14
rosi@@ 14
MM 14
licul@@ 14
photosensibilité 14
estomac 14
rass@@ 14
universitaire 14
↔ 14
été: 14
renvers@@ 14
ors 14
azép@@ 14
ylchol@@ 14
ts@@ 14
Hep@@ 14
est-à-dire 14
ura 14
uricémie 14
soumise: 14
vigu@@ 14
spontanés 14
protégés 14
Der@@ 14
portées 14
prélev@@ 14
péridone 14
répétées. 14
l'appéti@@ 14
stiripentol 14
(c@@ 14
retarde 14
préalable. 14
tau@@ 14
toute@@ 14
précliniques 14
rat@@ 14
tus. 14
ocard@@ 14
formations 14
site, 14
----------------------------------------------------------------@@ 14
http@@ 14
pride 14
œdème 14
trices, 14
oxygèn@@ 14
hésit@@ 14
présidé 14
âni@@ 14
moglob@@ 14
come 14
π@@ 14
pement 14
érap@@ 14
potentielle 14
rang@@ 14
étr@@ 14
ibu@@ 14
gluc@@ 14
élaborer 14
ophi@@ 14
professionnelle: 14
Dou@@ 14
phénytoï@@ 14
récipi@@ 14
régation 14
vertige 14
ín 14
un, 14
renseign@@ 14
orth@@ 14
redev@@ 14
trate 14
sévère@@ 14
ecz@@ 14
cardiovascul@@ 14
créatin@@ 14
shire, 14
vagra@@ 14
pré-rempli 14
sidase 14
udine. 14
public, 14
atténu@@ 14
opaques 14
dg@@ 14
protocole 14
publique, 14
pharmaceutiques. 14
planification 14
TES@@ 14
sum@@ 14
proportionnellement 14
´@@ 14
yer 14
transaminas@@ 14
oes@@ 14
ées: 14
é" 14
tendon 14
érance 14
fant@@ 14
Viraferon@@ 14
églini@@ 14
considé@@ 14
préférable 14
valences 14
potassique, 14
quelques-@@ 14
inflammat@@ 14
thiazidi@@ 14
ri 14
tératogène 14
séc@@ 14
pulvéris@@ 14
nouveau@@ 14
èglement 14
zinc, 14
accélé@@ 14
tracon@@ 14
AIRES 14
preniez 14
ritonavir@@ 14
électroniques 14
polypropylène. 14
vertébra@@ 14
ona 14
propriété 14
reins 14
ons: 14
stimuler 14
séparées 14
adine 14
ones. 14
sirolim@@ 14
torémi@@ 14
l'anim@@ 14
spection 14
promouvoir 14
ynami@@ 14
États-Un@@ 14
apparaiss@@ 14
ralentit 14
othérap@@ 14
ogéné@@ 14
tern@@ 14
contrib@@ 14
textes 14
arom@@ 14
ayer 14
ève 14
compren@@ 14
solvant. 14
ultérieur@@ 14
répond 14
s'appliqu@@ 14
paroxy@@ 14
avé@@ 14
oxybuty@@ 14
recourir 14
sévoflurane 14
tombe 14
CV 14
opin@@ 14
vant 14
Internation@@ 14
doseuse 14
médiaire 14
téléphone 14
ú 14
Α@@ 14
ya 14
torsion 14
paraît 14
IB@@ 14
présentait 14
tus, 14
valence 14
épaul@@ 14
primo-@@ 14
régulièrement. 14
solution, 14
physiologique 14
rale 14
rése@@ 14
Communaut@@ 14
vigab@@ 14
ving@@ 14
viand@@ 14
pronon@@ 14
dispens@@ 14
aveugl@@ 14
talie 14
schizophré@@ 14
opharmaceu@@ 14
poids) 14
pression. 14
solvants 14
agl@@ 14
compréh@@ 14
intes 14
embl@@ 14
possèdent 14
travaille 14
systèm@@ 14
précaution. 14
surveillés 14
eux-@@ 14
urgence. 14
Je@@ 14
démo@@ 14
requiert 14
purg@@ 14
allu@@ 14
stat@@ 14
vider 14
combat@@ 14
bli@@ 14
tribu@@ 14
pousser 14
régler 14
obtient 14
prévu, 14
Peu@@ 14
osition 14
otez 14
Puis@@ 14
p, 14
aie 14
éradi@@ 14
certific@@ 14
quiétude 14
Toute@@ 14
isten@@ 14
nav@@ 14
mén@@ 14
diffu@@ 14
élevés. 14
ordinateur 14
prendront 14
polici@@ 14
pays@@ 14
paraî@@ 14
oû@@ 14
tonnes. 14
vit 14
travailleur 14
souffri@@ 14
sûret@@ 14
traçabilité 14
travailleurs, 14
erran@@ 14
renvoy@@ 14
processus. 14
voi 14
réform@@ 14
réjou@@ 14
élever 14
remédi@@ 14
tourisme 14
aujourd’@@ 14
surtout, 14
État, 14
onné 14
vieillissement 14
monn@@ 14
retrouver@@ 14
élargissement 14
meu@@ 14
tu 14
ceux-@@ 14
truc@@ 14
pesticides. 14
on! 14
sauver 14
sold@@ 14
cec@@ 14
village 14
redi: 14
terait 14
espr@@ 14
révoluti@@ 14
peint@@ 14
préoccu@@ 14
serait-ce 14
occupent 14
Cro@@ 14
ski 14
égal@@ 14
s'agit-il 14
vendre 14
syndi@@ 14
se? 14
TEN@@ 13
Ziag@@ 13
buv@@ 13
l'abac@@ 13
EXUB@@ 13
rhée, 13
propor@@ 13
thyro@@ 13
usu@@ 13
cill@@ 13
démangeais@@ 13
kg@@ 13
mmol@@ 13
opé@@ 13
cartou@@ 13
magné@@ 13
UR 13
4.8@@ 13
adoption 13
visag@@ 13
MAO@@ 13
itol 13
ilis 13
atteign@@ 13
mière 13
Anti@@ 13
herp@@ 13
rm@@ 13
pseu@@ 13
tabag@@ 13
alk@@ 13
engourdiss@@ 13
----@@ 13
peg@@ 13
tacr@@ 13
boî@@ 13
nucléosi@@ 13
globul@@ 13
King@@ 13
ilib@@ 13
Gl@@ 13
(CE@@ 13
stéri@@ 13
IL 13
Ó@@ 13
je@@ 13
3A@@ 13
pré-rempl@@ 13
mouv@@ 13
EMEA@@ 13
Wy@@ 13
Grè@@ 13
citab@@ 13
cept 13
cémie 13
Tev@@ 13
rhinotraché@@ 13
térieur 13
§@@ 13
ver 13
TIONS 13
esthé@@ 13
opa 13
pip@@ 13
propyl@@ 13
endu@@ 13
paci@@ 13
ν@@ 13
entis 13
SUBST@@ 13
deg@@ 13
180@@ 13
CHMP@@ 13
éments 13
Í@@ 13
Gen@@ 13
E) 13
ONS@@ 13
minist@@ 13
arate 13
tem@@ 13
chef@@ 13
suspensi@@ 13
vêt@@ 13
atte@@ 13
conom@@ 13
ept 13
Slo@@ 13
OptiS@@ 13
ordonn@@ 13
spir@@ 13
Syn@@ 13
op 13
Á@@ 13
Sus@@ 13
rapp@@ 13
réf@@ 13
aigu@@ 13
manu@@ 13
emment, 13
ß@@ 13
spon@@ 13
abri@@ 13
erlo@@ 13
inclus@@ 13
apparti@@ 13
érité 13
Liprolo@@ 13
Effentora 13
inaccept@@ 13
ire. 13
ecte 13
indivi@@ 13
Luxembour@@ 13
Shar@@ 13
espèce 13
ed, 13
auriez 13
let@@ 13
CHA@@ 13
plaî@@ 13
dif@@ 13
particul@@ 13
bel@@ 13
l'emb@@ 13
Tit@@ 13
accom@@ 13
diverg@@ 13
resp@@ 13
agne, 13
frontali@@ 13
pénétr@@ 13
accep@@ 13
figur@@ 13
domm@@ 13
contex@@ 13
èle 13
réfugi@@ 13
Allem@@ 13
beaucou@@ 13
ait-ce 13
infr@@ 13
vous-@@ 13
ont-@@ 13
Pren@@ 13
interrompu@@ 12
mule 12
cert@@ 12
gne, 12
BYET@@ 12
aconazole 12
rud@@ 12
sir@@ 12
méthotrex@@ 12
ales) 12
iméti@@ 12
8/ 12
A). 12
Novo@@ 12
opid@@ 12
isch@@ 12
sél@@ 12
ovari@@ 12
CY@@ 12
glitaz@@ 12
Servi@@ 12
joint 12
glucose-@@ 12
gment@@ 12
yt@@ 12
enz 12
lodipine 12
réduct@@ 12
Neur@@ 12
hypersensi@@ 12
agli@@ 12
agerie 12
Ob@@ 12
intram@@ 12
squel@@ 12
imput@@ 12
lide 12
--------------------------------@@ 12
----------------@@ 12
sat@@ 12
rhabdomy@@ 12
ύ@@ 12
muscl@@ 12
cidi@@ 12
UTI@@ 12
Kiv@@ 12
FORM@@ 12
ammation 12
ANS 12
Uni 12
Norv@@ 12
thorac@@ 12
cure 12
oxétine 12
bo 12
inhi@@ 12
unes 12
Sev@@ 12
glycér@@ 12
afil 12
né. 12
–@@ 12
asthé@@ 12
éroïdes 12
épargn@@ 12
persensi@@ 12
Fl@@ 12
anesthé@@ 12
ATE 12
neutralis@@ 12
ément@@ 12
choc@@ 12
AC 12
Flex@@ 12
War@@ 12
surfac@@ 12
substr@@ 12
dispara@@ 12
Λ@@ 12
exclusi@@ 12
seringu@@ 12
envir@@ 12
brisentan 12
exc@@ 12
juv@@ 12
évent@@ 12
pleur 12
pendant, 12
dénomin@@ 12
Bus@@ 12
nies 12
péné@@ 12
registr@@ 12
sira@@ 12
Q 12
reff@@ 12
tôt 12
abilités 12
mini@@ 12
ouff@@ 12
Europé@@ 12
ressenti@@ 12
ZY@@ 12
ui 12
Espagn@@ 12
Sin@@ 12
oign@@ 12
Voi@@ 12
affi@@ 12
mosph@@ 12
récu@@ 12
évi@@ 12
convain@@ 12
décid@@ 12
Grande-Bret@@ 12
matis@@ 12
difficul@@ 12
assass@@ 12
traç@@ 12
aband@@ 12
aç@@ 12
chaî@@ 12
feu@@ 12
plaign@@ 12
Sy@@ 12
a-t-@@ 12
est-@@ 12
Malheur@@ 12
contref@@ 12
faudr@@ 12
Parallè@@ 12
ièmement, 12
DK@@ 11
méthad@@ 11
encéphalo@@ 11
Cir@@ 11
infiltr@@ 11
substituti@@ 11
ensité 11
gouttes 11
FAB@@ 11
Thy@@ 11
étér@@ 11
TM@@ 11
calici@@ 11
démange@@ 11
ophiles 11
immunoglobul@@ 11
thiaz@@ 11
____@@ 11
réfrigérat@@ 11
atre 11
Te@@ 11
kali@@ 11
yle 11
fficul@@ 11
adaptat@@ 11
éma@@ 11
immunosuppress@@ 11
G-@@ 11
secrét@@ 11
glyc@@ 11
/www@@ 11
clit@@ 11
aiguille. 11
dexaméthas@@ 11
ilibr@@ 11
poni@@ 11
…………@@ 11
Lon@@ 11
Lé@@ 11
écri@@ 11
appara@@ 11
ensibilité 11
stra@@ 11
endu 11
endi@@ 11
(ex@@ 11
”@@ 11
elph@@ 11
corticost@@ 11
ce-@@ 11
struction 11
odique 11
Syst@@ 11
chac@@ 11
tug@@ 11
octob@@ 11
Etu@@ 11
tens@@ 11
nettoyant@@ 11
thermoformé@@ 11
κ@@ 11
ο@@ 11
fax@@ 11
ophar@@ 11
ė 11
line 11
Lor@@ 11
tét@@ 11
héré@@ 11
dermi@@ 11
Pax@@ 11
véni@@ 11
sili@@ 11
Candi@@ 11
irbé@@ 11
hémodi@@ 11
pace 11
api@@ 11
vo 11
² 11
psoriasi@@ 11
alidom@@ 11
cassé 11
endue 11
pertur@@ 11
diver@@ 11
fév@@ 11
ffici@@ 11
eut@@ 11
OptiCli@@ 11
orph@@ 11
dois@@ 11
circonst@@ 11
excl@@ 11
BAS@@ 11
poi@@ 11
ram@@ 11
oyez 11
7/@@ 11
Portug@@ 11
munodéficience 11
dol@@ 11
NovoL@@ 11
prér@@ 11
subi@@ 11
trag@@ 11
onnées 11
empre@@ 11
articl@@ 11
lut@@ 11
préh@@ 11
pann@@ 11
navi@@ 11
défic@@ 11
agit-il 11
Afri@@ 11
tant, 11
Ving@@ 11
rubri@@ 10
glycol@@ 10
folli@@ 10
buc@@ 10
sécher@@ 10
approxim@@ 10
caill@@ 10
épis@@ 10
intravitré@@ 10
simul@@ 10
stitu@@ 10
compa@@ 10
dimin@@ 10
}@@ 10
ficac@@ 10
curoni@@ 10
soumis@@ 10
cispl@@ 10
Ras@@ 10
trig@@ 10
cophénolate 10
suscepti@@ 10
±@@ 10
acétyl@@ 10
exac@@ 10
exe 10
ôm@@ 10
VE 10
AVE@@ 10
É 10
ention 10
foi@@ 10
TIT@@ 10
aisse 10
γ@@ 10
limination 10
dures 10
° 10
citabine 10
Kin@@ 10
dépist@@ 10
450 10
nib 10
équilibr@@ 10
za@@ 10
giotens@@ 10
uments 10
hane 10
sali@@ 10
MIN@@ 10
(S) 10
EU/@@ 10
sè@@ 10
congél@@ 10
seignement 10
rand@@ 10
Tηλ@@ 10
FABRIC@@ 10
énu@@ 10
Cy@@ 10
VER@@ 10
Tlf@@ 10
fantais@@ 10
EM@@ 10
âce 10
Gross@@ 10
onnes 10
Allemagn@@ 10
ã@@ 10
ec 10
moiti@@ 10
chapi@@ 10
merc@@ 10
auration 10
néph@@ 10
ί@@ 10
embre 10
STR@@ 10
ferr@@ 10
tim@@ 10
Rib@@ 10
fentan@@ 10
séroton@@ 10
β@@ 10
leucopénie 10
bes@@ 10
millepertu@@ 10
vitro@@ 10
érations 10
pulation 10
quet@@ 10
lui-@@ 10
elon 10
ints 10
équ@@ 10
températ@@ 10
itures 10
ades 10
Joh@@ 10
å@@ 10
orisation 10
foy@@ 10
oit@@ 10
bien-@@ 10
Pel@@ 10
gmentation 10
'est 10
ich 10
ète, 10
levé 10
illez 10
flou@@ 10
promo@@ 10
avor@@ 10
ploit@@ 10
stitution 10
poss@@ 10
nouv@@ 10
ez-vou@@ 10
pesticid@@ 10
siè@@ 10
estini@@ 10
réfu@@ 10
pense@@ 10
distr@@ 10
Trois@@ 10
RIS@@ 9
périm@@ 9
cicl@@ 9
cade 9
fatal@@ 9
inflixim@@ 9
contrô@@ 9
analo@@ 9
conse@@ 9
Comm@@ 9
chromosom@@ 9
ogéni@@ 9
jeû@@ 9
AUTORISATION 9
__@@ 9
tatine 9
sept@@ 9
ospit@@ 9
ariat 9
gio@@ 9
indétermin@@ 9
errations 9
érythropoï@@ 9
ilibre 9
CoA 9
ondr@@ 9
idom@@ 9
anaphyl@@ 9
profess@@ 9
psori@@ 9
poid@@ 9
ï 9
naus@@ 9
GR-@@ 9
š 9
pill@@ 9
nicoti@@ 9
IONSY@@ 9
pension 9
lithi@@ 9
aly@@ 9
Intr@@ 9
sorption 9
Kiner@@ 9
peau@@ 9
sar@@ 9
Aff@@ 9
† 9
ská 9
chon 9
™ 9
♦ 9
ida 9
cyan@@ 9
poten@@ 9
disper@@ 9
amines 9
durazyme 9
Zon@@ 9
μ 9
expéri@@ 9
LIF@@ 9
trodu@@ 9
ε@@ 9
σ@@ 9
Τ@@ 9
ηλ@@ 9
sévoflur@@ 9
Limit@@ 9
front@@ 9
aspect@@ 9
l'An@@ 9
l'exam@@ 9
Fe@@ 9
grou@@ 9
Londr@@ 9
scrupul@@ 9
l'As@@ 9
réper@@ 9
omatique 9
doi@@ 9
guéris@@ 9
résou@@ 9
M.@@ 9
ourag@@ 9
dang@@ 9
celles-@@ 9
ritan@@ 9
im 9
égl@@ 9
atisme 9
ş@@ 9
cus@@ 9
West@@ 9
sémin@@ 9
fluctu@@ 9
automobi@@ 9
lendem@@ 9
fron@@ 9
champ@@ 9
Sain@@ 9
conv@@ 9
abou@@ 9
iste@@ 9
dollar@@ 9
Tch@@ 9
ă@@ 9
Kos@@ 9
1999) 9
périment@@ 9
ù@@ 9
ag 9
nous? 9
Permet@@ 9
lopin@@ 8
muno@@ 8
pron@@ 8
Humi@@ 8
olan@@ 8
zap@@ 8
triction 8
verté@@ 8
DM@@ 8
HP@@ 8
Kep@@ 8
rier 8
opéci@@ 8
’ 8
oxic@@ 8
DICC@@ 8
done 8
Modi@@ 8
ovir 8
rhumatoï@@ 8
lissement 8
sement 8
estin@@ 8
ος 8
Raptiv@@ 8
Barr@@ 8
LAS@@ 8
Stock@@ 8
l'adolesc@@ 8
alie 8
Hamp@@ 8
ider@@ 8
info@@ 8
aluation 8
délég@@ 8
RISPERD@@ 8
bioti@@ 8
alco@@ 8
décis@@ 8
poetin 8
etu@@ 8
ents: 8
mph@@ 8
º 8
sympath@@ 8
EU 8
bouff@@ 8
ROVANCE 8
omar@@ 8
chlorhydri@@ 8
adu@@ 8
η@@ 8
ή@@ 8
tavi@@ 8
serve@@ 8
Rapport@@ 8
Grand@@ 8
guli@@ 8
ys 8
jonc@@ 8
yttri@@ 8
antihypertens@@ 8
Maladi@@ 8
DepoCy@@ 8
vil@@ 8
eils 8
ycl@@ 8
υ@@ 8
tali@@ 8
janvi@@ 8
cali@@ 8
élé@@ 8
romy@@ 8
GlaxoSmithK@@ 8
pancré@@ 8
opidogrel 8
trat@@ 8
lénalidom@@ 8
douc@@ 8
mécanis@@ 8
pellicul@@ 8
oc 8
est-à-@@ 8
affin@@ 8
ulc@@ 8
correct@@ 8
effectue 8
ission 8
ux 8
Sym@@ 8
requi@@ 8
Bru@@ 8
aies 8
gré 8
Recommand@@ 8
8/@@ 8
kist@@ 8
environnement. 8
nett@@ 8
défen@@ 8
approvisi@@ 8
pesti@@ 8
Commiss@@ 8
signi@@ 8
discus@@ 8
fermet@@ 8
d'abor@@ 8
combus@@ 8
dépen@@ 8
l'équi@@ 8
о@@ 8
myocar@@ 7
prophylax@@ 7
céphalo@@ 7
cipi@@ 7
uité 7
cateur 7
stér@@ 7
grippal@@ 7
²@@ 7
Protap@@ 7
γ 7
strat@@ 7
déficience 7
Remi@@ 7
MINATION 7
intrav@@ 7
cytar@@ 7
l'entec@@ 7
Whar@@ 7
Tarcev@@ 7
END@@ 7
www@@ 7
--@@ 7
endocr@@ 7
……@@ 7
dermati@@ 7
ELL@@ 7
ofovir 7
kir@@ 7
favirenz@@ 7
(hypersensi@@ 7
favirenz, 7
Roy@@ 7
mail: 7
Trud@@ 7
épil@@ 7
Enf@@ 7
intran@@ 7
polyéthyl@@ 7
des) 7
ERA 7
ATIONS 7
VEN@@ 7
verb@@ 7
d'habitu@@ 7
traché@@ 7
ofi@@ 7
glitazone 7
omet@@ 7
ect 7
diuré@@ 7
otidi@@ 7
conjoint@@ 7
lév@@ 7
sildén@@ 7
maladi@@ 7
MMONAPS 7
± 7
Tc@@ 7
.: 7
Μ@@ 7
Ε@@ 7
l'hu@@ 7
obil@@ 7
hérédit@@ 7
l'environn@@ 7
prescr@@ 7
emboliques 7
corp@@ 7
Å@@ 7
initiation 7
lingu@@ 7
maï@@ 7
ings 7
néer@@ 7
ques-@@ 7
enceint@@ 7
male 7
lande, 7
bure@@ 7
fal@@ 7
Š@@ 7
Danemar@@ 7
stac@@ 7
MERI@@ 7
grastim 7
Ø 7
esti 7
Sandw@@ 7
eil, 7
emballage. 7
curs@@ 7
Î@@ 7
cu 7
don, 7
estoni@@ 7
eter@@ 7
ref@@ 7
emps 7
tech@@ 7
accroî@@ 7
l'Autri@@ 7
paqu@@ 7
proven@@ 7
organi@@ 7
campagn@@ 7
coles 7
inad@@ 7
Hong@@ 7
statu@@ 7
schi@@ 7
Soix@@ 7
épider@@ 6
oed@@ 6
lorat@@ 6
pseudo@@ 6
souv@@ 6
ENO@@ 6
venlafax@@ 6
ovigil@@ 6
ament@@ 6
Ripraz@@ 6
chir@@ 6
Virafer@@ 6
suppress@@ 6
REYAT@@ 6
précurs@@ 6
ffér@@ 6
diab@@ 6
lesqu@@ 6
riton@@ 6
(CHMP@@ 6
676 6
obi@@ 6
acon@@ 6
somn@@ 6
incon@@ 6
sence 6
gross@@ 6
évation 6
limin@@ 6
chlorothiaz@@ 6
ROV@@ 6
osante 6
allaiter. 6
ADMINISTRATION 6
dix@@ 6
ssant 6
vieil@@ 6
pilep@@ 6
coï@@ 6
bitu@@ 6
EU/1/07/@@ 6
θ@@ 6
zyme 6
Lt@@ 6
compte-@@ 6
avas@@ 6
ð@@ 6
prur@@ 6
CYP1A@@ 6
enrob@@ 6
Fabri@@ 6
PRÉ@@ 6
Fact@@ 6
elle: 6
(90@@ 6
Cli@@ 6
ADMINISTR@@ 6
ecch@@ 6
>@@ 6
antécéd@@ 6
monteluk@@ 6
Bene@@ 6
exa 6
UTILISATEUR 6
Karve@@ 6
SPRYCE@@ 6
diam@@ 6
titul@@ 6
an-@@ 6
Β 6
armac@@ 6
atment 6
thrombo-@@ 6
Ρ@@ 6
contrac@@ 6
rong@@ 6
tilis@@ 6
demment 6
exu@@ 6
neurotox@@ 6
praz@@ 6
cins 6
Ê@@ 6
étée 6
ī 6
sifs 6
MPLI@@ 6
anhydr@@ 6
vet 6
eva 6
epertu@@ 6
évol@@ 6
épar@@ 6
conform@@ 6
bénéfice@@ 6
manie 6
ophtalm@@ 6
z-les 6
Pfiz@@ 6
resse 6
415@@ 6
CONN@@ 6
Ö@@ 6
pramipex@@ 6
gil@@ 6
èrement. 6
ο 6
Bret@@ 6
Doh@@ 6
PONS@@ 6
ţ@@ 6
agri@@ 6
ä 6
mange@@ 6
issu@@ 6
l'économ@@ 6
déj@@ 6
obstac@@ 6
étroit@@ 6
saum@@ 6
orge 6
kra@@ 6
posséd@@ 6
empris@@ 6
déri@@ 6
drap@@ 6
anie, 6
ń@@ 6
dégâ@@ 6
gouver@@ 6
appl@@ 6
ectar@@ 6
enqu@@ 6
débat) 6
ouvoir 6
Quatri@@ 6
(A5@@ 6
Souv@@ 6
95%@@ 5
secon@@ 5
surdos@@ 5
metfor@@ 5
oxac@@ 5
protoco@@ 5
MabTh@@ 5
mol 5
Levem@@ 5
@@ 5
_ 5
PRINCIP@@ 5
TOR@@ 5
l'ins@@ 5
µ 5
benzodiazép@@ 5
neurom@@ 5
cram@@ 5
Gli@@ 5
giv@@ 5
NutropinA@@ 5
oteurs 5
hydraté, 5
ore@@ 5
Farmac@@ 5
azan@@ 5
Ran@@ 5
pégyl@@ 5
eczéma@@ 5
istax@@ 5
bulis@@ 5
moglobine 5
ôme 5
UTILISER 5
©@@ 5
sumé 5
Effentor@@ 5
énol@@ 5
érythè@@ 5
still@@ 5
médicam@@ 5
½ 5
polypropyl@@ 5
TITUL@@ 5
RESPONSAB@@ 5
EU/1@@ 5
Flac@@ 5
vitez 5
MM/ 5
Madri@@ 5
ł 5
fél@@ 5
‡ 5
éro 5
GUI@@ 5
CIA 5
mi 5
pharmacod@@ 5
immunodéficience 5
CHAMP@@ 5
Yond@@ 5
giotensine 5
PROD@@ 5
unaut@@ 5
fruct@@ 5
ormon@@ 5
nimésu@@ 5
Fas@@ 5
hire 5
Nov@@ 5
Σ@@ 5
Pradax@@ 5
onex 5
jon@@ 5
zapine 5
cef@@ 5
édr@@ 5
nico@@ 5
diagn@@ 5
paclit@@ 5
céph@@ 5
bab@@ 5
coxib@@ 5
dispersi@@ 5
eterinary 5
è 5
opharmac@@ 5
Mab@@ 5
Vimpa@@ 5
VISTI@@ 5
ige 5
ciméti@@ 5
procè@@ 5
pharmacodynam@@ 5
trau@@ 5
tionne 5
nausé@@ 5
poule 5
pseudoéphédr@@ 5
Kwik@@ 5
STELAR@@ 5
blanc-@@ 5
Lietu@@ 5
prov@@ 5
monos@@ 5
osphères 5
FAN@@ 5
CATION 5
pation, 5
9N@@ 5
fluoro@@ 5
istre 5
≤@@ 5
ode, 5
mette 5
Parm@@ 5
ς 5
425@@ 5
modi@@ 5
UM@@ 5
blan@@ 5
l'extr@@ 5
cus, 5
bureau@@ 5
l'homm@@ 5
000 @@ 5
plein@@ 5
ferry 5
l'Allem@@ 5
&@@ 5
Bul@@ 5
proces@@ 5
chrome 5
Fran@@ 5
ć 5
Monsi@@ 5
tuti@@ 5
éric@@ 5
delà 5
mens@@ 5
agra@@ 5
comit@@ 5
Résultat@@ 5
т@@ 5
е@@ 5
bA1@@ 4
fondaparin@@ 4
dysph@@ 4
dap@@ 4
(90Y@@ 4
vertig@@ 4
TRISENO@@ 4
opoï@@ 4
titan@@ 4
énér@@ 4
lenti@@ 4
inadvert@@ 4
bibli@@ 4
Pers@@ 4
ankyl@@ 4
GONAL-@@ 4
cuillère-@@ 4
Inhibit@@ 4
Irel@@ 4
Dipl@@ 4
Rebet@@ 4
lén@@ 4
Tallin@@ 4
hydri@@ 4
convul@@ 4
bles) 4
pravas@@ 4
dge 4
Labor@@ 4
Medicin@@ 4
voricon@@ 4
MIRAPEX@@ 4
OREN@@ 4
cepté 4
Nob@@ 4
bridge 4
AIGUI@@ 4
EU/1/07/4@@ 4
δ 4
ω 4
ehring@@ 4
ße 4
Telz@@ 4
Chlamy@@ 4
FH@@ 4
actéri@@ 4
gangli@@ 4
d'exper@@ 4
cals 4
Hémorra@@ 4
LI 4
topoté@@ 4
probéné@@ 4
CEPRO@@ 4
domy@@ 4
Tredap@@ 4
(SID@@ 4
icité 4
pide 4
ω@@ 4
odes 4
λ@@ 4
30-2@@ 4
apo 4
Emsel@@ 4
BC@@ 4
emption 4
liqui@@ 4
Thyrog@@ 4
Luc@@ 4
FANTAISIE@@ 4
biblio@@ 4
Diacom@@ 4
butyr@@ 4
olol 4
ă 4
∞@@ 4
VIR@@ 4
hydrate 4
lamy@@ 4
l'hyperten@@ 4
OPTI@@ 4
SON@@ 4
ORACE@@ 4
excr@@ 4
utri@@ 4
celu@@ 4
sulin 4
poo@@ 4
fung@@ 4
somnol@@ 4
mémanti@@ 4
ß 4
infil@@ 4
Č@@ 4
pro 4
andis@@ 4
—@@ 4
émo@@ 4
prolo@@ 4
RES 4
apenti@@ 4
Nomb@@ 4
Ä@@ 4
grossess@@ 4
Indu@@ 4
μ@@ 4
Fabric@@ 4
pès@@ 4
ADMINIS@@ 4
VIS@@ 4
aum@@ 4
rhum@@ 4
ş 4
publika 4
zid@@ 4
utorisation 4
heim@@ 4
Pay@@ 4
ercul@@ 4
œil, 4
oricon@@ 4
dagliptine 4
plom@@ 4
anom@@ 4
psychi@@ 4
pauvr@@ 4
détéri@@ 4
paus@@ 4
ègl@@ 4
l'enregistr@@ 4
jan@@ 4
aujour@@ 4
hui 4
erce 4
ř@@ 4
phéri@@ 4
curité 4
fav@@ 4
artin 4
aume 4
ė@@ 4
ôpit@@ 4
l'Itali@@ 4
cident@@ 4
œur 4
ő@@ 4
;@@ 4
ǔ@@ 4
pagne 4
ellig@@ 4
/98@@ 4
volon@@ 4
scru@@ 4
Lat@@ 4
procès-@@ 4
quatri@@ 4
ý 4
Réc@@ 4
jet: 4
cap 4
с@@ 4
èses 3
τ 3
MMONAP@@ 3
∝ 3
ogénicité 3
________@@ 3
core 3
sugammad@@ 3
oté@@ 3
stav@@ 3
oro@@ 3
pertu@@ 3
ellulaire 3
eptiques 3
égalie 3
pra 3
calcit@@ 3
®@@ 3
UTION 3
Colle@@ 3
Unités 3
eterin@@ 3
FOS@@ 3
a@@@ 3
anomali@@ 3
Duo@@ 3
TRAVAT@@ 3
impres@@ 3
xembour@@ 3
annonci@@ 3
résumé@@ 3
Sloven@@ 3
étil 3
lend@@ 3
Unis 3
Glax@@ 3
Philadelph@@ 3
allucin@@ 3
/Tel: 3
oxicité 3
respon@@ 3
travir@@ 3
tolcap@@ 3
MIS@@ 3
Pelz@@ 3
Trevacly@@ 3
adal@@ 3
cog@@ 3
élév@@ 3
timul@@ 3
kins@@ 3
kinson 3
 3
Health@@ 3
Œ@@ 3
ό@@ 3
η 3
ring@@ 3
Φ@@ 3
Β@@ 3
Ι@@ 3
Š 3
ά@@ 3
proli@@ 3
antirétro@@ 3
cholestér@@ 3
particu@@ 3
entraî@@ 3
gemfibroz@@ 3
∞ 3
quilis 3
DICA@@ 3
réfrig@@ 3
Thr@@ 3
Yt@@ 3
triax@@ 3
oxication 3
nière 3
ņ@@ 3
HUM@@ 3
orodispersi@@ 3
atini@@ 3
Trac@@ 3
Tracle@@ 3
Naglaz@@ 3
zonis@@ 3
perg@@ 3
CELSENTR@@ 3
asil@@ 3
CAN 3
wa 3
transamin@@ 3
Temod@@ 3
cortic@@ 3
fantaisie@@ 3
sanofi-av@@ 3
Inform@@ 3
Haar@@ 3
Sloveni@@ 3
ACEP@@ 3
Néan@@ 3
bepoetin 3
rémittent@@ 3
bli 3
uni 3
drome 3
▲ 3
○ 3
€@@ 3
Pug@@ 3
YCE@@ 3
ę@@ 3
Prac-@@ 3
TRES 3
ELIS@@ 3
Trit@@ 3
Winth@@ 3
EME@@ 3
EXA 3
ERE@@ 3
YL 3
REN@@ 3
SUB@@ 3
ock 3
ACE@@ 3
Resp@@ 3
Puh@@ 3
duo@@ 3
Lill@@ 3
glucose-galact@@ 3
Т@@ 3
Stockhol@@ 3
caoutchou@@ 3
ι 3
φ@@ 3
О@@ 3
iness 3
tez-moi 3
ani 3
approfon@@ 3
intoxic@@ 3
ffi@@ 3
ocarbur@@ 3
pyl@@ 3
raisembl@@ 3
ode. 3
extra@@ 3
agran@@ 3
TN@@ 3
s-B@@ 3
fit 3
aveug@@ 3
réparti@@ 3
ésu@@ 3
­@@ 3
ô 3
ś@@ 3
proph@@ 3
prophylac@@ 3
pos 3
Observe@@ 3
répert@@ 3
spé@@ 3
Ô@@ 3
mons 3
hau@@ 3
bit 3
vétér@@ 3
l'étiqu@@ 3
trang@@ 3
rédi@@ 3
élévis@@ 3
enhag@@ 3
Zim@@ 3
nér@@ 3
l'amend@@ 3
bient@@ 3
isra@@ 3
dom 3
docu@@ 3
Tall@@ 3
Tem@@ 3
в@@ 3
ш@@ 3
л@@ 3
corti@@ 2
anrix 2
↑ 2
arctus 2
déshydrogén@@ 2
Combi@@ 2
ÉR@@ 2
ReFact@@ 2
lévétiracét@@ 2
GANFOR@@ 2
prénorph@@ 2
eu/@@ 2
heimer 2
zicon@@ 2
 2
psy@@ 2
cteurs 2
AIS 2
thiazi@@ 2
égr@@ 2
crétin@@ 2
Fastur@@ 2
buty@@ 2
Fuze@@ 2
Prequ@@ 2
énements 2
λλ@@ 2
ό 2
FABRI@@ 2
tos 2
CYST@@ 2
Gél@@ 2
fibroz@@ 2
Č 2
→ 2
bortéz@@ 2
oder@@ 2
≥@@ 2
lixim@@ 2
Lond@@ 2
allè@@ 2
inéti@@ 2
Tevagra@@ 2
terfén@@ 2
Pegas@@ 2
niloti@@ 2
UTIONS 2
PRERE@@ 2
Interfér@@ 2
ophila 2
Θ@@ 2
ý@@ 2
acu@@ 2
Jans@@ 2
Janss@@ 2
Cil@@ 2
place@@ 2
MAG@@ 2
Υ 2
ń 2
ου 2
maravir@@ 2
adéf@@ 2
Vire@@ 2
cinqui@@ 2
gabapenti@@ 2
-1), 2
méthox@@ 2
 2
4H@@ 2
© 2
inergi@@ 2
Starli@@ 2
entor@@ 2
Glus@@ 2
HMG-@@ 2
antihyperten@@ 2
ONSY@@ 2
Pays-B@@ 2
éphédr@@ 2
Myoz@@ 2
Lju@@ 2
ř 2
coag@@ 2
Anim@@ 2
velop@@ 2
HEXAV@@ 2
rhinor@@ 2
zinc@@ 2
epoetin 2
pa. 2
sidé@@ 2
l'hormon@@ 2
FeL@@ 2
inth@@ 2
tracycl@@ 2
impa@@ 2
phénylbutyr@@ 2
$ 2
ombin@@ 2
dings 2
174 2
ć@@ 2
heb@@ 2
ytoï@@ 2
fampi@@ 2
ERS 2
Γ@@ 2
δ@@ 2
acrésol, 2
¹@@ 2
Exfor@@ 2
MARCH@@ 2
NovoSev@@ 2
reich 2
ocinéti@@ 2
AZ 2
´ 2
glycéri@@ 2
ς@@ 2
ę 2
Disk@@ 2
ELIMINATION 2
ostic 2
Neulast@@ 2
EST-@@ 2
ption 2
Enbre@@ 2
tamp@@ 2
habdomy@@ 2
études@@ 2
tigmine 2
ţ 2
nomat@@ 2
-av@@ 2
↓ 2
Sympt@@ 2
ble) 2
Α 2
Ε 2
Ingel@@ 2
marthr@@ 2
VÉ@@ 2
ả 2
asp@@ 2
otraché@@ 2
eth 2
Zi@@ 2
С@@ 2
П@@ 2
RAPEX@@ 2
Bratislav@@ 2
curr@@ 2
ingue 2
médit@@ 2
tats 2
acom@@ 2
hée, 2
scor@@ 2
l'extrém@@ 2
heim 2
net@@ 2
sont@@ 2
judi@@ 2
isl@@ 2
néan@@ 2
umeaux 2
phil@@ 2
ň@@ 2
Cop@@ 2
bition 2
ź@@ 2
Ó 2
instaur@@ 2
andé@@ 2
domad@@ 2
tun@@ 2
cland@@ 2
oppor@@ 2
cile 2
gang@@ 2
Unit@@ 2
sécu@@ 2
ż@@ 2
ą@@ 2
nourrit@@ 2
Deut@@ 2
concer@@ 2
pargne 2
oix@@ 2
ster 2
(A4@@ 2
last@@ 2
Résul@@ 2
babw@@ 2
blessu@@ 2
arit@@ 2
£ 2
Trou@@ 2
ч@@ 2
а@@ 2
н@@ 2
и@@ 2
ǔ 2
outch@@ 2
wik@@ 2
Yttrig@@ 1
 1
♣ 1
ADMIN@@ 1
tropin@@ 1
éthas@@ 1
SUTEN@@ 1
ADRES@@ 1
examéthas@@ 1
TOL@@ 1
LLES 1
ducation 1
Ü@@ 1
gsk@@ 1
chromos@@ 1
lyre 1
pex@@ 1
¾ 1
thermo@@ 1
sque 1
Auc@@ 1
ELLEMENT 1
CHETS 1
fric@@ 1
ύ 1
ö 1
Fait@@ 1
nim@@ 1
xib 1
othiaz@@ 1
GlaxoSmith@@ 1
épiri@@ 1
ALO@@ 1
Hydro@@ 1
imin@@ 1
acrésol@@ 1
99m@@ 1
∗@@ 1
riz@@ 1
aucou@@ 1
rémie 1
Þ@@ 1
þ@@ 1
ð 1
en-Cilag 1
étiracét@@ 1
χ@@ 1
ρίου 1
Η@@ 1
λι@@ 1
 1
ї 1
~@@ 1
uctu@@ 1
 1
serin@@ 1
½@@ 1
∅ 1
établ@@ 1
rivas@@ 1
mof@@ 1
ë 1
#@@ 1
VET@@ 1
prématu@@ 1
l'inhi@@ 1
†@@ 1
nil@@ 1
χ 1
Cetro@@ 1
Zone@@ 1
ż 1
ptine 1
échanti@@ 1
oxa@@ 1
oût 1
soma@@ 1
Zomet@@ 1
ADINE 1
structions 1
ε 1
·@@ 1
Soli@@ 1
„ 1
entifi@@ 1
avein@@ 1
besartan 1
flur@@ 1
aptan@@ 1
Ġ@@ 1
õ@@ 1
ώ@@ 1
9): 1
odiazép@@ 1
Ë 1
merck@@ 1
lles 1
Ø@@ 1
Solo@@ 1
spondyl@@ 1
axel 1
 1
ª 1
Sebi@@ 1
Gliol@@ 1
diarrh@@ 1
έ@@ 1
Ελλάδ@@ 1
VOIE@@ 1
pra@@ 1
Prac@@ 1
sugrel 1
Précau@@ 1
GON@@ 1
ctus 1
ammat@@ 1
∗ 1
ª@@ 1
pruri@@ 1
FIR@@ 1
LIB@@ 1
FIX 1
STE@@ 1
SON 1
hibit@@ 1
‡@@ 1
Cyan@@ 1
pura 1
Ň 1
otrex@@ 1
éristiques 1
Ş 1
ň 1
REY@@ 1
Ã@@ 1
ofi-av@@ 1
Ultrat@@ 1
agliptine 1
vec 1
zin 1
crit. 1
ÉCH@@ 1
buri@@ 1
/Finland 1
diph@@ 1
sg@@ 1
Impr@@ 1
Tektur@@ 1
Γ 1
alth@@ 1
JA@@ 1
OLOGIQUE 1
ϑ 1
morra@@ 1
glucur@@ 1
ATEUR 1
érythropoïèse 1
lafax@@ 1
™@@ 1
ή 1
Σ 1
Υ@@ 1
Π@@ 1
Ο@@ 1
Τ 1
Р@@ 1
И@@ 1
Л@@ 1
Е@@ 1
Т 1
К@@ 1
Н@@ 1
А@@ 1
évèn@@ 1
ì@@ 1
émer@@ 1
Star 1
réqu@@ 1
pétro@@ 1
å 1
Ţ@@ 1
ď@@ 1
embour@@ 1
Â@@ 1
lem 1
rop 1
mement 1
chia 1
ı@@ 1
ő 1
vote) 1
¡@@ 1
lf@@ 1
ilad@@ 1
Ő@@ 1
ñ 1
mith@@ 1
souver@@ 1
ǐ@@ 1
me @@ 1
pact 1
Deutsch@@ 1
égét@@ 1
errané@@ 1
cteur 1
photos@@ 1
Fil@@ 1
égout 1
cul 1
disci@@ 1
ǎ@@ 1
terne 1
scén@@ 1
û 1
récup@@ 1
l'espér@@ 1
Insul@@ 1
l'exemp@@ 1
lusieurs 1
Tek@@ 1
d'hém@@ 1
XIV@@ 1
possè@@ 1
catég@@ 1
Quatr@@ 1
Star@@ 1
Inno@@ 1
elis 1
ò 1
tigé@@ 1
tructur@@ 1
améli@@ 1
eten@@ 1
fabricant@@ 1
anté@@ 1
natu@@ 1
audiss@@ 1
ì 1
ssements 1
£@@ 1
phan 1
infir@@ 1
stiti@@ 1
³ 1
onance 1
nocu@@ 1
cheri@@ 1
linique 1
eur @@ 1
о 1
в 1
п@@ 1
ķ@@ 1
étch@@ 1
Ž@@ 1
tirez 1
ü 1
lai 1
\@@ 1
ά 1
ν 1
ψ@@ 1
Д@@ 1
б@@ 1
р@@ 1
е 1
д@@ 1
ы 1
ь 1
у@@ 1
к@@ 1
й 1
а 1
з@@ 1
ь@@ 1
